<unk>	0
<s>	0
</s>	0
▁t	-0
▁a	-1
he	-2
in	-3
re	-4
▁the	-5
on	-6
er	-7
▁o	-8
at	-9
▁s	-10
en	-11
▁c	-12
▁w	-13
es	-14
is	-15
nd	-16
it	-17
or	-18
▁p	-19
al	-20
▁b	-21
ed	-22
▁f	-23
▁of	-24
an	-25
ing	-26
▁in	-27
ou	-28
ar	-29
▁m	-30
▁and	-31
▁to	-32
ic	-33
▁d	-34
ion	-35
le	-36
ro	-37
as	-38
▁h	-39
ent	-40
▁th	-41
ct	-42
▁e	-43
il	-44
▁re	-45
▁T	-46
om	-47
ve	-48
▁l	-49
st	-50
▁n	-51
ly	-52
▁be	-53
▁is	-54
se	-55
ol	-56
▁A	-57
▁g	-58
ation	-59
im	-60
id	-61
et	-62
ut	-63
ce	-64
▁S	-65
ur	-66
ot	-67
ra	-68
ch	-69
ow	-70
▁I	-71
▁for	-72
ig	-73
▁u	-74
▁on	-75
▁C	-76
▁that	-77
▁st	-78
ver	-79
▁The	-80
▁y	-81
ir	-82
ul	-83
ay	-84
am	-85
▁as	-86
ith	-87
el	-88
ad	-89
▁pro	-90
▁are	-91
her	-92
▁con	-93
▁an	-94
▁with	-95
▁M	-96
if	-97
▁you	-98
▁wh	-99
▁or	-100
▁it	-101
▁al	-102
▁P	-103
od	-104
ter	-105
▁(	-106
▁1	-107
ment	-108
▁B	-109
ge	-110
th	-111
▁W	-112
op	-113
ate	-114
ist	-115
▁de	-116
ers	-117
ess	-118
ill	-119
▁H	-120
ies	-121
ab	-122
▁he	-123
▁ex	-124
▁su	-125
ect	-126
▁we	-127
ore	-128
▁com	-129
us	-130
ity	-131
est	-132
▁ha	-133
ive	-134
res	-135
ac	-136
▁D	-137
um	-138
rom	-139
▁v	-140
ld	-141
os	-142
ke	-143
▁by	-144
▁E	-145
▁F	-146
ant	-147
qu	-148
em	-149
iv	-150
▁R	-151
ain	-152
nt	-153
▁at	-154
pp	-155
igh	-156
▁can	-157
▁-	-158
ud	-159
▁was	-160
▁from	-161
▁ch	-162
oc	-163
ort	-164
▁r	-165
▁ne	-166
and	-167
▁2	-168
▁N	-169
ial	-170
▁se	-171
▁G	-172
▁L	-173
ure	-174
▁not	-175
un	-176
▁le	-177
art	-178
ical	-179
▁have	-180
ri	-181
▁sh	-182
og	-183
▁en	-184
▁sp	-185
▁this	-186
▁O	-187
pt	-188
▁In	-189
▁ab	-190
▁wor	-191
ight	-192
rou	-193
ich	-194
red	-195
all	-196
ions	-197
ould	-198
00	-199
ther	-200
ost	-201
gh	-202
our	-203
du	-204
▁im	-205
ome	-206
ated	-207
ine	-208
per	-209
▁us	-210
▁pl	-211
out	-212
ard	-213
ag	-214
ff	-215
▁their	-216
act	-217
ell	-218
ide	-219
▁int	-220
pl	-221
▁U	-222
▁J	-223
▁Th	-224
ast	-225
ans	-226
ear	-227
age	-228
ak	-229
▁your	-230
▁which	-231
▁k	-232
ust	-233
▁whe	-234
▁they	-235
iz	-236
ous	-237
ec	-238
ood	-239
ult	-240
▁ad	-241
▁all	-242
▁will	-243
ib	-244
▁cont	-245
▁inc	-246
cc	-247
end	-248
ru	-249
▁dis	-250
▁more	-251
ap	-252
▁comp	-253
▁“	-254
▁res	-255
ong	-256
ip	-257
vel	-258
ia	-259
▁has	-260
ations	-261
ew	-262
ere	-263
▁do	-264
so	-265
orm	-266
ary	-267
ater	-268
ence	-269
able	-270
ild	-271
are	-272
▁cl	-273
▁man	-274
▁other	-275
ks	-276
ual	-277
▁but	-278
ry	-279
▁were	-280
ind	-281
▁per	-282
▁imp	-283
▁te	-284
ep	-285
ents	-286
▁also	-287
ance	-288
▁one	-289
ach	-290
▁me	-291
ose	-292
ake	-293
ign	-294
reat	-295
ress	-296
ase	-297
ass	-298
av	-299
▁19	-300
▁St	-301
au	-302
▁so	-303
▁j	-304
ction	-305
▁It	-306
▁out	-307
ition	-308
▁un	-309
ice	-310
very	-311
ber	-312
ime	-313
▁app	-314
one	-315
▁part	-316
▁ar	-317
▁This	-318
▁"	-319
▁stud	-320
▁about	-321
ord	-322
▁ev	-323
ens	-324
ace	-325
ory	-326
ount	-327
ish	-328
ok	-329
▁pe	-330
▁who	-331
▁K	-332
ire	-333
▁inf	-334
ame	-335
ack	-336
).	-337
▁sy	-338
▁comm	-339
ue	-340
▁them	-341
ite	-342
ces	-343
▁sc	-344
▁his	-345
ors	-346
ang	-347
ub	-348
ike	-349
ree	-350
ound	-351
▁pre	-352
now	-353
low	-354
olog	-355
▁up	-356
▁Ch	-357
ric	-358
▁qu	-359
▁may	-360
▁bec	-361
▁than	-362
iff	-363
ie	-364
ile	-365
ople	-366
ays	-367
▁rec	-368
▁some	-369
▁20	-370
ates	-371
ail	-372
▁year	-373
▁been	-374
▁V	-375
▁when	-376
▁Y	-377
▁there	-378
nder	-379
ings	-380
▁3	-381
ian	-382
▁its	-383
mer	-384
ren	-385
▁work	-386
rit	-387
▁go	-388
ough	-389
▁ag	-390
▁into	-391
▁time	-392
▁tra	-393
▁over	-394
ph	-395
▁these	-396
▁diff	-397
▁how	-398
▁people	-399
erv	-400
▁ro	-401
vers	-402
ally	-403
rough	-404
ons	-405
te	-406
lud	-407
ause	-408
▁cons	-409
ond	-410
▁col	-411
▁use	-412
ms	-413
ove	-414
ific	-415
▁our	-416
ll	-417
▁tr	-418
tern	-419
▁ra	-420
▁act	-421
▁bet	-422
▁had	-423
alth	-424
we	-425
▁most	-426
ys	-427
▁like	-428
ities	-429
irst	-430
▁know	-431
int	-432
▁under	-433
▁bl	-434
▁acc	-435
▁sa	-436
▁des	-437
lic	-438
..	-439
lect	-440
row	-441
ments	-442
ook	-443
ning	-444
ject	-445
ffect	-446
les	-447
velop	-448
ious	-449
▁need	-450
▁would	-451
stem	-452
▁new	-453
▁such	-454
▁rel	-455
▁tw	-456
▁rep	-457
▁Wh	-458
▁if	-459
▁child	-460
▁hel	-461
▁includ	-462
ient	-463
ob	-464
▁gen	-465
▁any	-466
ational	-467
ative	-468
cess	-469
ple	-470
▁what	-471
▁pr	-472
▁help	-473
ular	-474
▁ph	-475
hed	-476
ating	-477
ced	-478
▁Un	-479
▁produ	-480
ool	-481
▁only	-482
yp	-483
▁no	-484
▁used	-485
▁ind	-486
▁prov	-487
▁many	-488
ov	-489
▁am	-490
▁develop	-491
▁first	-492
▁off	-493
▁through	-494
▁fe	-495
ath	-496
▁spec	-497
),	-498
oss	-499
fter	-500
ise	-501
▁ac	-502
iet	-503
round	-504
▁em	-505
▁As	-506
uring	-507
ark	-508
▁reg	-509
uc	-510
▁exp	-511
ics	-512
ne	-513
▁differe	-514
▁He	-515
▁po	-516
ful	-517
rib	-518
▁system	-519
erm	-520
ts	-521
▁two	-522
eth	-523
▁–	-524
oth	-525
iss	-526
ink	-527
rop	-528
▁201	-529
ied	-530
▁ob	-531
ility	-532
als	-533
hen	-534
▁dec	-535
▁4	-536
old	-537
ible	-538
ased	-539
▁att	-540
▁ass	-541
ange	-542
▁add	-543
▁should	-544
▁sur	-545
ten	-546
ble	-547
ower	-548
▁fl	-549
ures	-550
ife	-551
arch	-552
▁well	-553
▁water	-554
ween	-555
▁supp	-556
fore	-557
▁5	-558
ract	-559
ert	-560
▁rem	-561
aw	-562
own	-563
▁co	-564
▁inv	-565
ram	-566
▁sub	-567
ng	-568
▁health	-569
gan	-570
ade	-571
ution	-572
▁between	-573
▁sm	-574
▁years	-575
cy	-576
▁high	-577
sel	-578
hes	-579
its	-580
▁could	-581
▁pres	-582
▁where	-583
▁200	-584
ick	-585
ever	-586
▁make	-587
ants	-588
▁rese	-589
▁get	-590
▁trans	-591
ily	-592
wn	-593
▁If	-594
▁bu	-595
chn	-596
▁pers	-597
form	-598
chool	-599
▁import	-600
uch	-601
xt	-602
▁We	-603
ology	-604
ural	-605
▁ear	-606
ience	-607
▁inter	-608
ident	-609
▁mod	-610
▁form	-611
▁inst	-612
ting	-613
ited	-614
▁pol	-615
▁num	-616
▁her	-617
meric	-618
▁How	-619
▁exam	-620
▁effect	-621
▁Al	-622
ines	-623
▁disc	-624
ivers	-625
ata	-626
land	-627
▁found	-628
▁different	-629
▁sim	-630
▁For	-631
▁lear	-632
ef	-633
▁An	-634
ins	-635
ists	-636
ness	-637
▁long	-638
▁car	-639
ont	-640
ually	-641
▁exper	-642
▁after	-643
▁because	-644
ict	-645
▁lar	-646
▁then	-647
▁very	-648
▁even	-649
gy	-650
▁cent	-651
▁world	-652
▁just	-653
cept	-654
▁incre	-655
▁18	-656
ism	-657
▁med	-658
oy	-659
▁det	-660
▁ed	-661
ature	-662
▁way	-663
▁resp	-664
▁count	-665
ft	-666
▁Americ	-667
get	-668
▁typ	-669
▁sign	-670
▁inform	-671
▁hum	-672
aking	-673
vent	-674
▁ke	-675
urn	-676
▁var	-677
▁see	-678
ically	-679
other	-680
▁gener	-681
▁those	-682
ives	-683
▁ref	-684
ollow	-685
▁soc	-686
ck	-687
▁Re	-688
iew	-689
▁prog	-690
▁pat	-691
▁every	-692
▁ext	-693
▁children	-694
▁said	-695
▁Pro	-696
▁Com	-697
ases	-698
▁result	-699
▁pub	-700
cer	-701
▁process	-702
ps	-703
▁fact	-704
▁gra	-705
arm	-706
led	-707
▁each	-708
▁call	-709
ds	-710
.”	-711
▁partic	-712
▁being	-713
▁They	-714
▁loc	-715
ues	-716
ros	-717
▁sec	-718
iron	-719
▁There	-720
▁ca	-721
▁techn	-722
ruct	-723
▁requ	-724
▁life	-725
▁6	-726
▁important	-727
ody	-728
tle	-729
▁commun	-730
ved	-731
ages	-732
ork	-733
▁during	-734
▁mon	-735
▁set	-736
▁dist	-737
▁cre	-738
▁def	-739
io	-740
▁fam	-741
▁ent	-742
▁dep	-743
▁much	-744
▁art	-745
▁she	-746
ather	-747
cent	-748
▁lead	-749
▁sk	-750
▁students	-751
▁level	-752
ward	-753
ized	-754
▁read	-755
▁food	-756
imes	-757
▁follow	-758
ices	-759
▁own	-760
vern	-761
▁information	-762
▁study	-763
gg	-764
▁my	-765
▁same	-766
▁aut	-767
▁made	-768
▁does	-769
▁proble	-770
▁data	-771
▁Ar	-772
ize	-773
▁But	-774
▁grow	-775
hip	-776
▁find	-777
ection	-778
▁person	-779
any	-780
▁right	-781
▁good	-782
▁school	-783
▁cur	-784
▁av	-785
▁end	-786
onom	-787
▁str	-788
▁back	-789
0.	-790
▁You	-791
▁min	-792
ted	-793
▁ins	-794
▁using	-795
▁di	-796
▁show	-797
▁both	-798
.,	-799
ale	-800
▁che	-801
▁hist	-802
▁expl	-803
viron	-804
▁comple	-805
▁grou	-806
ality	-807
und	-808
ially	-809
▁Sp	-810
▁gl	-811
▁pop	-812
read	-813
▁before	-814
▁bo	-815
▁cor	-816
▁Ind	-817
▁small	-818
▁main	-819
iel	-820
▁test	-821
▁sol	-822
ivid	-823
omen	-824
▁What	-825
||	-826
stand	-827
inal	-828
▁treat	-829
iversity	-830
▁again	-831
▁New	-832
▁Sc	-833
▁val	-834
ock	-835
▁br	-836
ince	-837
ined	-838
ix	-839
der	-840
▁less	-841
nce	-842
▁poss	-843
▁often	-844
▁take	-845
▁prot	-846
▁while	-847
▁state	-848
ien	-849
▁dise	-850
imate	-851
ars	-852
rol	-853
akes	-854
▁research	-855
ergy	-856
▁ec	-857
▁(1	-858
ty	-859
▁occ	-860
▁day	-861
ished	-862
▁7	-863
▁lit	-864
▁serv	-865
▁number	-866
ax	-867
ute	-868
▁ris	-869
ier	-870
▁And	-871
ex	-872
oh	-873
▁now	-874
▁|	-875
▁power	-876
ral	-877
▁vis	-878
iqu	-879
▁organ	-880
▁fun	-881
▁design	-882
000	-883
vironment	-884
ury	-885
ulation	-886
20	-887
▁provid	-888
▁redu	-889
▁mem	-890
▁body	-891
iety	-892
▁around	-893
irect	-894
▁cell	-895
dition	-896
▁hand	-897
▁bel	-898
▁human	-899
▁activ	-900
▁char	-901
▁class	-902
▁down	-903
▁him	-904
▁three	-905
ves	-906
▁These	-907
▁common	-908
hers	-909
▁When	-910
com	-911
ven	-912
up	-913
ital	-914
iving	-915
ah	-916
▁start	-917
▁8	-918
air	-919
▁support	-920
ered	-921
-1	-922
▁look	-923
▁cle	-924
▁must	-925
uss	-926
ger	-927
ters	-928
ium	-929
▁conf	-930
acter	-931
▁Is	-932
▁est	-933
aj	-934
▁report	-935
ving	-936
day	-937
▁To	-938
rent	-939
▁elect	-940
,”	-941
▁large	-942
▁plan	-943
▁great	-944
▁govern	-945
ave	-946
▁point	-947
▁care	-948
ains	-949
▁did	-950
ross	-951
▁example	-952
▁writ	-953
▁‘	-954
▁contin	-955
▁10	-956
rain	-957
cl	-958
▁ser	-959
the	-960
gen	-961
itions	-962
▁land	-963
▁9	-964
▁op	-965
ouse	-966
ron	-967
self	-968
▁const	-969
ional	-970
▁including	-971
▁Se	-972
orn	-973
anc	-974
▁allow	-975
ull	-976
way	-977
ared	-978
▁equ	-979
▁though	-980
▁understand	-981
▁educ	-982
▁build	-983
▁ret	-984
▁met	-985
iver	-986
▁adv	-987
iven	-988
esp	-989
▁cour	-990
▁dr	-991
ash	-992
▁De	-993
The	-994
▁pract	-995
▁still	-996
outh	-997
▁som	-998
▁known	-999
▁At	-1000
▁quest	-1001
ividual	-1002
...	-1003
ner	-1004
▁eas	-1005
▁beh	-1006
me	-1007
▁called	-1008
▁public	-1009
▁Ad	-1010
ired	-1011
aterial	-1012
iod	-1013
ential	-1014
▁gu	-1015
els	-1016
oms	-1017
▁might	-1018
▁place	-1019
ids	-1020
ries	-1021
▁However	-1022
de	-1023
▁gre	-1024
osed	-1025
▁think	-1026
▁ide	-1027
ected	-1028
itive	-1029
▁mat	-1030
oci	-1031
▁appro	-1032
▁Con	-1033
▁chang	-1034
ering	-1035
ination	-1036
ization	-1037
erest	-1038
ank	-1039
ources	-1040
inc	-1041
▁few	-1042
▁tem	-1043
▁present	-1044
▁environment	-1045
▁dem	-1046
lish	-1047
raph	-1048
▁within	-1049
▁change	-1050
▁pur	-1051
▁stand	-1052
eng	-1053
▁want	-1054
ption	-1055
▁caus	-1056
▁individual	-1057
▁energy	-1058
▁development	-1059
▁sym	-1060
▁without	-1061
▁product	-1062
▁Eng	-1063
ording	-1064
ffic	-1065
▁imm	-1066
ration	-1067
▁impro	-1068
▁Ex	-1069
bers	-1070
ets	-1071
▁project	-1072
▁cap	-1073
ived	-1074
▁iss	-1075
▁air	-1076
▁light	-1077
ior	-1078
angu	-1079
line	-1080
▁phys	-1081
▁meth	-1082
▁University	-1083
▁learn	-1084
ason	-1085
."	-1086
,000	-1087
▁spe	-1088
▁Sh	-1089
▁sl	-1090
ense	-1091
ertain	-1092
▁199	-1093
▁prof	-1094
▁material	-1095
oun	-1096
▁ben	-1097
▁ident	-1098
▁American	-1099
▁Ph	-1100
▁pos	-1101
alk	-1102
man	-1103
▁play	-1104
▁disease	-1105
▁pot	-1106
agn	-1107
▁women	-1108
▁bre	-1109
▁don	-1110
arent	-1111
▁eng	-1112
▁social	-1113
▁ve	-1114
iness	-1115
▁another	-1116
▁direct	-1117
sp	-1118
eral	-1119
▁area	-1120
ental	-1121
▁sit	-1122
▁&	-1123
▁Res	-1124
ton	-1125
illion	-1126
less	-1127
ability	-1128
▁law	-1129
▁blood	-1130
▁anal	-1131
ians	-1132
▁belie	-1133
▁cult	-1134
▁best	-1135
▁pass	-1136
ological	-1137
bs	-1138
orth	-1139
▁home	-1140
ajor	-1141
▁ant	-1142
ris	-1143
ield	-1144
▁bas	-1145
▁meas	-1146
▁include	-1147
erc	-1148
▁risk	-1149
gin	-1150
▁Cl	-1151
ained	-1152
▁desc	-1153
▁On	-1154
▁et	-1155
ified	-1156
rodu	-1157
▁mark	-1158
▁Be	-1159
▁interest	-1160
▁rest	-1161
ify	-1162
▁control	-1163
▁nat	-1164
atic	-1165
ccess	-1166
▁pain	-1167
▁low	-1168
ining	-1169
ently	-1170
ug	-1171
ats	-1172
▁move	-1173
▁econom	-1174
▁early	-1175
▁[	-1176
▁mus	-1177
▁opp	-1178
▁Le	-1179
▁sever	-1180
▁proper	-1181
▁anim	-1182
ills	-1183
ern	-1184
▁program	-1185
▁better	-1186
az	-1187
▁ess	-1188
▁Q	-1189
▁against	-1190
▁method	-1191
ource	-1192
▁become	-1193
ision	-1194
▁—	-1195
▁tre	-1196
hor	-1197
▁par	-1198
▁So	-1199
▁mil	-1200
▁war	-1201
▁government	-1202
arc	-1203
▁leg	-1204
▁cause	-1205
▁here	-1206
▁old	-1207
▁oper	-1208
▁keep	-1209
ways	-1210
lished	-1211
ients	-1212
▁Pl	-1213
▁second	-1214
ik	-1215
▁perform	-1216
▁occur	-1217
▁last	-1218
▁real	-1219
▁history	-1220
▁too	-1221
ider	-1222
▁order	-1223
here	-1224
▁particular	-1225
▁15	-1226
str	-1227
▁infl	-1228
ention	-1229
▁avail	-1230
▁means	-1231
▁group	-1232
▁fore	-1233
▁major	-1234
amp	-1235
ories	-1236
rist	-1237
▁Can	-1238
▁Col	-1239
ware	-1240
▁provide	-1241
▁ter	-1242
▁ele	-1243
▁family	-1244
▁possible	-1245
ission	-1246
▁.	-1247
▁top	-1248
ples	-1249
▁indu	-1250
▁United	-1251
icle	-1252
rap	-1253
▁period	-1254
▁dev	-1255
ards	-1256
view	-1257
▁hig	-1258
▁unt	-1259
tt	-1260
▁current	-1261
▁learning	-1262
▁fin	-1263
▁invol	-1264
▁near	-1265
irc	-1266
▁several	-1267
▁addition	-1268
▁langu	-1269
▁Z	-1270
▁mean	-1271
▁percent	-1272
▁signific	-1273
▁orig	-1274
▁benef	-1275
ograph	-1276
use	-1277
▁saf	-1278
▁cal	-1279
▁able	-1280
▁men	-1281
▁species	-1282
▁bus	-1283
▁happ	-1284
oid	-1285
ote	-1286
▁prom	-1287
▁say	-1288
▁affect	-1289
par	-1290
▁Comm	-1291
idence	-1292
urop	-1293
ator	-1294
▁open	-1295
▁One	-1296
▁non	-1297
ina	-1298
ogn	-1299
▁plant	-1300
▁things	-1301
▁el	-1302
ane	-1303
▁cost	-1304
▁All	-1305
▁lim	-1306
ole	-1307
▁areas	-1308
sy	-1309
▁Te	-1310
▁feel	-1311
▁mar	-1312
▁since	-1313
ilar	-1314
▁others	-1315
▁treatment	-1316
▁God	-1317
ret	-1318
▁scient	-1319
▁among	-1320
▁En	-1321
▁says	-1322
▁prevent	-1323
▁based	-1324
ends	-1325
though	-1326
ended	-1327
▁country	-1328
osp	-1329
▁available	-1330
2.	-1331
▁cond	-1332
ocus	-1333
sc	-1334
▁following	-1335
▁del	-1336
▁fre	-1337
▁name	-1338
▁Or	-1339
ling	-1340
elf	-1341
cing	-1342
ots	-1343
▁17	-1344
▁access	-1345
ames	-1346
,"	-1347
▁fac	-1348
port	-1349
une	-1350
▁problem	-1351
▁times	-1352
▁four	-1353
▁come	-1354
▁head	-1355
▁Some	-1356
▁struct	-1357
▁case	-1358
▁States	-1359
ably	-1360
ploy	-1361
ances	-1362
▁age	-1363
be	-1364
▁lab	-1365
▁With	-1366
▁month	-1367
▁free	-1368
aper	-1369
▁certain	-1370
▁list	-1371
to	-1372
1.	-1373
urope	-1374
ised	-1375
▁wee	-1376
▁amount	-1377
▁press	-1378
▁levels	-1379
urther	-1380
▁problems	-1381
▁rece	-1382
▁bi	-1383
▁run	-1384
▁lo	-1385
▁intern	-1386
▁object	-1387
▁conn	-1388
ggest	-1389
olution	-1390
▁type	-1391
▁put	-1392
▁creat	-1393
▁view	-1394
▁Cent	-1395
▁success	-1396
oint	-1397
ression	-1398
▁post	-1399
▁natural	-1400
▁significant	-1401
ope	-1402
ww	-1403
▁local	-1404
ring	-1405
▁gr	-1406
▁National	-1407
▁book	-1408
eg	-1409
▁vol	-1410
▁bir	-1411
▁hard	-1412
▁far	-1413
ones	-1414
▁impact	-1415
▁associ	-1416
▁little	-1417
▁mult	-1418
▁cells	-1419
▁flow	-1420
▁Fr	-1421
▁due	-1422
▁suggest	-1423
▁Af	-1424
icult	-1425
▁short	-1426
▁young	-1427
▁given	-1428
ething	-1429
work	-1430
br	-1431
▁Europe	-1432
▁focus	-1433
▁bro	-1434
▁until	-1435
▁12	-1436
▁making	-1437
por	-1438
ledge	-1439
oks	-1440
▁cho	-1441
uture	-1442
stit	-1443
▁comput	-1444
resent	-1445
atory	-1446
▁vir	-1447
ither	-1448
▁hy	-1449
▁Christ	-1450
ides	-1451
ately	-1452
▁determ	-1453
▁later	-1454
▁US	-1455
▁Wor	-1456
▁let	-1457
▁sw	-1458
ged	-1459
ortun	-1460
▁Bl	-1461
omm	-1462
▁By	-1463
▁circ	-1464
▁systems	-1465
▁turn	-1466
ication	-1467
▁invest	-1468
▁heart	-1469
aken	-1470
▁days	-1471
▁education	-1472
▁behav	-1473
▁obs	-1474
over	-1475
▁function	-1476
aps	-1477
▁Med	-1478
▁seem	-1479
10	-1480
▁likely	-1481
▁results	-1482
not	-1483
▁comb	-1484
▁16	-1485
ured	-1486
▁something	-1487
cle	-1488
▁polit	-1489
▁along	-1490
▁appear	-1491
▁teac	-1492
ohn	-1493
▁community	-1494
▁rele	-1495
face	-1496
ead	-1497
agement	-1498
▁death	-1499
ecially	-1500
▁usually	-1501
ape	-1502
▁'	-1503
hem	-1504
oph	-1505
▁course	-1506
▁language	-1507
▁technology	-1508
▁increase	-1509
▁clear	-1510
▁effective	-1511
▁$	-1512
ending	-1513
vious	-1514
▁works	-1515
▁consum	-1516
▁specific	-1517
ried	-1518
▁Ear	-1519
▁rad	-1520
▁author	-1521
▁past	-1522
▁similar	-1523
▁conditions	-1524
▁experience	-1525
▁fil	-1526
▁words	-1527
▁ill	-1528
pr	-1529
▁sing	-1530
▁parent	-1531
▁character	-1532
▁temper	-1533
▁today	-1534
▁always	-1535
▁needs	-1536
▁create	-1537
▁difficult	-1538
ators	-1539
aster	-1540
pect	-1541
▁brain	-1542
asing	-1543
▁crit	-1544
▁cr	-1545
ember	-1546
ned	-1547
especially	-1548
▁describ	-1549
▁dra	-1550
▁why	-1551
▁ey	-1552
▁enc	-1553
ptoms	-1554
▁population	-1555
▁profess	-1556
▁exist	-1557
of	-1558
▁record	-1559
▁higher	-1560
▁million	-1561
etic	-1562
▁future	-1563
▁That	-1564
▁Afric	-1565
▁various	-1566
3.	-1567
▁changes	-1568
▁give	-1569
ruction	-1570
▁cancer	-1571
▁Sy	-1572
▁century	-1573
af	-1574
ique	-1575
obal	-1576
▁space	-1577
▁Brit	-1578
ribut	-1579
▁Im	-1580
▁dam	-1581
▁er	-1582
▁(2	-1583
▁discuss	-1584
idd	-1585
app	-1586
__	-1587
▁While	-1588
mit	-1589
isc	-1590
▁necess	-1591
min	-1592
▁above	-1593
▁special	-1594
▁least	-1595
ler	-1596
orts	-1597
▁effects	-1598
aining	-1599
rug	-1600
ours	-1601
1,	-1602
▁side	-1603
▁however	-1604
reen	-1605
▁toget	-1606
▁together	-1607
▁line	-1608
▁strong	-1609
▁business	-1610
▁across	-1611
▁try	-1612
▁countries	-1613
▁applic	-1614
▁next	-1615
ilities	-1616
▁require	-1617
▁John	-1618
ox	-1619
▁prop	-1620
ored	-1621
▁improve	-1622
▁complete	-1623
▁ask	-1624
ateg	-1625
ysis	-1626
▁kind	-1627
▁estab	-1628
selves	-1629
▁respons	-1630
▁begin	-1631
▁especially	-1632
put	-1633
▁never	-1634
iation	-1635
▁working	-1636
▁mov	-1637
▁mot	-1638
▁researc	-1639
4.	-1640
▁away	-1641
most	-1642
atch	-1643
▁Dr	-1644
▁cy	-1645
▁ways	-1646
▁plants	-1647
▁tool	-1648
▁key	-1649
acy	-1650
▁enough	-1651
▁patients	-1652
ode	-1653
▁Gen	-1654
omes	-1655
▁sens	-1656
▁term	-1657
aves	-1658
▁chem	-1659
▁Ab	-1660
▁colle	-1661
5.	-1662
▁After	-1663
▁influ	-1664
▁left	-1665
▁Am	-1666
oney	-1667
amm	-1668
ilt	-1669
▁1.	-1670
▁plac	-1671
ray	-1672
▁studies	-1673
▁having	-1674
▁general	-1675
lement	-1676
nal	-1677
▁War	-1678
▁net	-1679
sw	-1680
chie	-1681
hing	-1682
▁subject	-1683
▁consider	-1684
▁types	-1685
▁tru	-1686
▁prim	-1687
▁team	-1688
ales	-1689
let	-1690
▁Germ	-1691
alf	-1692
iting	-1693
▁cases	-1694
▁going	-1695
ires	-1696
duct	-1697
acc	-1698
aring	-1699
▁knowledge	-1700
▁relations	-1701
50	-1702
thing	-1703
▁step	-1704
▁lower	-1705
aching	-1706
▁account	-1707
▁whether	-1708
ges	-1709
▁norm	-1710
▁makes	-1711
▁Go	-1712
▁protect	-1713
oman	-1714
ument	-1715
oot	-1716
▁Ne	-1717
▁self	-1718
▁full	-1719
ready	-1720
▁symptoms	-1721
▁opt	-1722
▁mind	-1723
▁role	-1724
▁polic	-1725
▁concer	-1726
▁Car	-1727
▁World	-1728
side	-1729
ley	-1730
ipp	-1731
▁Stud	-1732
▁production	-1733
▁physical	-1734
▁mic	-1735
▁z	-1736
▁198	-1737
▁question	-1738
▁sum	-1739
▁Health	-1740
▁house	-1741
istic	-1742
ae	-1743
NA	-1744
ued	-1745
apt	-1746
▁ens	-1747
▁represent	-1748
▁city	-1749
▁live	-1750
ann	-1751
ency	-1752
▁ground	-1753
▁chall	-1754
▁pred	-1755
▁further	-1756
ott	-1757
▁She	-1758
▁(19	-1759
ung	-1760
▁big	-1761
▁became	-1762
eds	-1763
▁reason	-1764
▁science	-1765
▁dig	-1766
ery	-1767
▁range	-1768
ables	-1769
▁Mar	-1770
▁sure	-1771
▁wr	-1772
aim	-1773
▁text	-1774
cul	-1775
itor	-1776
ird	-1777
sych	-1778
▁English	-1779
▁toward	-1780
▁Resear	-1781
bon	-1782
ification	-1783
verage	-1784
▁activity	-1785
▁already	-1786
▁indic	-1787
6.	-1788
▁Tr	-1789
▁employ	-1790
▁Ge	-1791
▁value	-1792
//	-1793
▁model	-1794
▁particip	-1795
ibility	-1796
▁wind	-1797
erence	-1798
iol	-1799
by	-1800
edi	-1801
▁Intern	-1802
▁eff	-1803
▁fund	-1804
aut	-1805
augh	-1806
urch	-1807
atures	-1808
▁loss	-1809
for	-1810
▁30	-1811
▁growth	-1812
▁paper	-1813
ream	-1814
ites	-1815
▁below	-1816
▁lot	-1817
▁really	-1818
▁Pr	-1819
▁achie	-1820
uation	-1821
▁nut	-1822
▁resources	-1823
▁fall	-1824
▁close	-1825
2,	-1826
▁groups	-1827
▁stat	-1828
▁skills	-1829
▁story	-1830
lo	-1831
▁quality	-1832
ee	-1833
▁according	-1834
ands	-1835
osis	-1836
overed	-1837
rel	-1838
▁Do	-1839
▁flu	-1840
▁word	-1841
▁seen	-1842
▁offic	-1843
▁activities	-1844
▁potential	-1845
▁products	-1846
▁neg	-1847
8.	-1848
▁soil	-1849
mber	-1850
etimes	-1851
7.	-1852
▁developed	-1853
▁diet	-1854
▁done	-1855
▁rather	-1856
://	-1857
▁either	-1858
▁phot	-1859
oura	-1860
▁reduce	-1861
▁recogn	-1862
▁Cal	-1863
fact	-1864
▁rate	-1865
▁ur	-1866
▁observ	-1867
unt	-1868
▁mass	-1869
▁field	-1870
▁climate	-1871
iple	-1872
amin	-1873
▁site	-1874
▁14	-1875
idered	-1876
3,	-1877
9.	-1878
▁Acc	-1879
ison	-1880
▁prob	-1881
esc	-1882
▁single	-1883
▁North	-1884
▁source	-1885
▁building	-1886
▁issues	-1887
▁init	-1888
rams	-1889
▁indust	-1890
iam	-1891
▁deg	-1892
▁once	-1893
ival	-1894
▁national	-1895
▁abs	-1896
▁introdu	-1897
▁concept	-1898
▁article	-1899
▁event	-1900
▁South	-1901
▁surface	-1902
▁America	-1903
▁researchers	-1904
▁taken	-1905
wh	-1906
▁=	-1907
▁oil	-1908
▁five	-1909
▁pressure	-1910
▁questions	-1911
▁May	-1912
▁tot	-1913
rect	-1914
▁2.	-1915
▁recomm	-1916
▁fr	-1917
ask	-1918
ivity	-1919
▁sent	-1920
▁drug	-1921
▁collect	-1922
▁Cont	-1923
▁dom	-1924
▁medical	-1925
▁bat	-1926
fficient	-1927
val	-1928
▁tradition	-1929
▁cut	-1930
▁considered	-1931
▁whole	-1932
▁address	-1933
▁red	-1934
urity	-1935
▁skin	-1936
rict	-1937
▁fri	-1938
▁frequ	-1939
utions	-1940
▁size	-1941
▁created	-1942
▁Man	-1943
▁Aust	-1944
ivil	-1945
leep	-1946
▁evidence	-1947
ER	-1948
ights	-1949
▁detail	-1950
▁animals	-1951
▁themselves	-1952
▁sal	-1953
yl	-1954
▁11	-1955
▁fail	-1956
▁Dep	-1957
eter	-1958
▁dest	-1959
▁tell	-1960
▁stress	-1961
▁sun	-1962
▁hold	-1963
▁associated	-1964
▁repl	-1965
▁Many	-1966
ule	-1967
ips	-1968
▁Rep	-1969
30	-1970
reme	-1971
▁nature	-1972
▁Act	-1973
▁doct	-1974
5,	-1975
▁market	-1976
▁members	-1977
▁came	-1978
▁relig	-1979
ublic	-1980
▁Soc	-1981
fer	-1982
roll	-1983
▁practice	-1984
▁histor	-1985
▁white	-1986
▁sound	-1987
▁Ass	-1988
▁ann	-1989
▁ver	-1990
▁understanding	-1991
▁wide	-1992
ensive	-1993
▁increased	-1994
▁upon	-1995
▁actually	-1996
▁pay	-1997
▁meet	-1998
▁Pe	-1999
▁states	-2000
ober	-2001
ym	-2002
▁simple	-2003
▁required	-2004
sequ	-2005
illed	-2006
▁cannot	-2007
▁return	-2008
reg	-2009
▁purp	-2010
▁living	-2011
ournal	-2012
▁His	-2013
▁engine	-2014
▁No	-2015
▁adult	-2016
▁related	-2017
▁needed	-2018
▁ability	-2019
▁economic	-2020
▁entire	-2021
org	-2022
▁relationship	-2023
▁famil	-2024
▁Hist	-2025
yn	-2026
itud	-2027
enn	-2028
▁healthy	-2029
ibr	-2030
▁port	-2031
▁fish	-2032
▁student	-2033
▁modern	-2034
ening	-2035
▁thought	-2036
▁opportun	-2037
▁lay	-2038
▁materials	-2039
▁political	-2040
201	-2041
▁experien	-2042
▁condition	-2043
▁complex	-2044
artment	-2045
▁services	-2046
▁published	-2047
▁black	-2048
▁Gu	-2049
▁global	-2050
▁quick	-2051
▁197	-2052
sh	-2053
".	-2054
ety	-2055
epend	-2056
eb	-2057
oses	-2058
▁doc	-2059
▁maint	-2060
ump	-2061
4,	-2062
▁week	-2063
▁arg	-2064
olic	-2065
▁Fl	-2066
▁fat	-2067
▁Co	-2068
▁parts	-2069
ores	-2070
▁X	-2071
hib	-2072
like	-2073
ences	-2074
AS	-2075
▁avoid	-2076
ications	-2077
aging	-2078
▁Most	-2079
▁idea	-2080
ney	-2081
▁factors	-2082
▁path	-2083
▁exerc	-2084
▁More	-2085
▁comes	-2086
▁analysis	-2087
▁answ	-2088
▁provides	-2089
▁Earth	-2090
▁coll	-2091
▁weight	-2092
▁York	-2093
ai	-2094
ush	-2095
▁htt	-2096
▁writing	-2097
▁vers	-2098
▁cat	-2099
eding	-2100
▁itself	-2101
acks	-2102
chan	-2103
vere	-2104
lying	-2105
▁prote	-2106
▁react	-2107
▁gas	-2108
mon	-2109
ply	-2110
▁necessary	-2111
aged	-2112
-2	-2113
itary	-2114
▁almost	-2115
):	-2116
ging	-2117
▁money	-2118
oon	-2119
▁State	-2120
▁half	-2121
▁approach	-2122
ened	-2123
▁assess	-2124
▁mor	-2125
▁bar	-2126
▁parents	-2127
▁sam	-2128
go	-2129
▁job	-2130
▁dog	-2131
gest	-2132
▁100	-2133
rad	-2134
▁rights	-2135
▁months	-2136
onse	-2137
mb	-2138
▁began	-2139
▁measure	-2140
▁management	-2141
erve	-2142
izing	-2143
▁conduct	-2144
▁Su	-2145
▁emer	-2146
emic	-2147
▁suff	-2148
▁chemical	-2149
abor	-2150
▁bur	-2151
▁arch	-2152
usion	-2153
bo	-2154
based	-2155
▁produce	-2156
▁liter	-2157
▁personal	-2158
nces	-2159
uel	-2160
▁Research	-2161
▁196	-2162
▁color	-2163
8,	-2164
▁green	-2165
▁arr	-2166
▁Although	-2167
▁computer	-2168
▁priv	-2169
▁individuals	-2170
▁reading	-2171
▁society	-2172
▁British	-2173
▁online	-2174
▁cop	-2175
▁took	-2176
utes	-2177
ume	-2178
▁Here	-2179
rown	-2180
igure	-2181
▁stop	-2182
▁clean	-2183
▁yet	-2184
▁tar	-2185
▁link	-2186
6,	-2187
irm	-2188
ze	-2189
▁super	-2190
▁shows	-2191
urs	-2192
▁increasing	-2193
▁Jew	-2194
▁farm	-2195
oll	-2196
▁ever	-2197
7,	-2198
pid	-2199
abit	-2200
▁throughout	-2201
▁ge	-2202
iddle	-2203
▁action	-2204
son	-2205
inter	-2206
ma	-2207
▁popular	-2208
estern	-2209
ising	-2210
▁structure	-2211
▁princ	-2212
ese	-2213
▁longer	-2214
▁recent	-2215
▁soft	-2216
▁anc	-2217
▁pattern	-2218
▁regard	-2219
▁total	-2220
▁separ	-2221
ID	-2222
ections	-2223
▁interact	-2224
--	-2225
▁company	-2226
apan	-2227
my	-2228
▁therap	-2229
▁heat	-2230
▁matter	-2231
▁training	-2232
▁taking	-2233
9,	-2234
erous	-2235
▁content	-2236
▁inj	-2237
ricult	-2238
▁Canad	-2239
▁50	-2240
▁ut	-2241
▁built	-2242
ches	-2243
▁Per	-2244
iction	-2245
▁rul	-2246
▁sense	-2247
▁six	-2248
astic	-2249
▁terms	-2250
ively	-2251
▁Pre	-2252
▁environmental	-2253
anced	-2254
▁temperature	-2255
▁Sec	-2256
het	-2257
ript	-2258
▁region	-2259
▁talk	-2260
iment	-2261
▁service	-2262
▁mach	-2263
empt	-2264
▁fire	-2265
▁13	-2266
▁Par	-2267
ronic	-2268
▁School	-2269
▁previous	-2270
▁industry	-2271
▁claim	-2272
▁travel	-2273
▁Me	-2274
uck	-2275
▁position	-2276
▁vari	-2277
hold	-2278
▁App	-2279
▁deb	-2280
▁According	-2281
▁diagn	-2282
▁sat	-2283
lt	-2284
ulations	-2285
▁behavior	-2286
▁surv	-2287
▁la	-2288
▁caused	-2289
▁schools	-2290
▁benefits	-2291
pro	-2292
.)	-2293
▁rev	-2294
▁Em	-2295
reng	-2296
▁Int	-2297
ES	-2298
fully	-2299
▁sex	-2300
▁Qu	-2301
yle	-2302
▁positive	-2303
▁lives	-2304
▁designed	-2305
▁ce	-2306
▁spread	-2307
▁provided	-2308
▁check	-2309
▁sleep	-2310
aily	-2311
▁shown	-2312
▁CO	-2313
▁easy	-2314
▁II	-2315
▁hours	-2316
▁Comp	-2317
▁heav	-2318
▁disord	-2319
ene	-2320
▁thing	-2321
▁bacter	-2322
vey	-2323
▁meaning	-2324
▁causes	-2325
▁Other	-2326
▁Instit	-2327
▁contact	-2328
▁ste	-2329
▁includes	-2330
▁conc	-2331
▁break	-2332
ederal	-2333
▁Your	-2334
inary	-2335
▁average	-2336
▁accept	-2337
itation	-2338
11	-2339
▁contain	-2340
aff	-2341
minist	-2342
▁Japan	-2343
▁relative	-2344
▁Ed	-2345
aving	-2346
ns	-2347
▁194	-2348
rought	-2349
▁regular	-2350
▁wild	-2351
▁From	-2352
▁carbon	-2353
ropri	-2354
hood	-2355
▁love	-2356
▁bring	-2357
▁simply	-2358
▁safe	-2359
▁reported	-2360
▁Us	-2361
▁movement	-2362
▁fru	-2363
lex	-2364
▁response	-2365
ows	-2366
AT	-2367
▁prec	-2368
istance	-2369
▁etc	-2370
▁Will	-2371
▁face	-2372
▁methods	-2373
▁poll	-2374
▁original	-2375
ufact	-2376
▁vide	-2377
ster	-2378
asc	-2379
ners	-2380
▁believe	-2381
▁culture	-2382
icles	-2383
▁viol	-2384
istics	-2385
▁Min	-2386
imately	-2387
ister	-2388
▁greater	-2389
rior	-2390
▁India	-2391
lands	-2392
▁programs	-2393
▁led	-2394
▁true	-2395
▁...	-2396
▁mechan	-2397
▁slow	-2398
AR	-2399
abet	-2400
▁Of	-2401
▁eat	-2402
ades	-2403
▁3.	-2404
▁deep	-2405
▁fem	-2406
verse	-2407
▁doing	-2408
▁lif	-2409
▁Austral	-2410
▁Not	-2411
▁King	-2412
▁earth	-2413
▁compl	-2414
▁variety	-2415
▁sometimes	-2416
gar	-2417
▁origin	-2418
▁target	-2419
▁involved	-2420
▁issue	-2421
▁sources	-2422
▁compan	-2423
aries	-2424
▁respect	-2425
▁exc	-2426
ched	-2427
▁written	-2428
ength	-2429
▁standard	-2430
ials	-2431
▁psych	-2432
▁Pres	-2433
▁subst	-2434
▁•	-2435
rench	-2436
▁events	-2437
▁damage	-2438
rast	-2439
▁micro	-2440
▁review	-2441
▁Part	-2442
▁helps	-2443
duc	-2444
▁scientists	-2445
▁0	-2446
▁demon	-2447
▁compet	-2448
▁poor	-2449
▁particularly	-2450
▁music	-2451
eration	-2452
arily	-2453
▁normal	-2454
▁camp	-2455
umb	-2456
▁uses	-2457
▁threat	-2458
▁streng	-2459
▁Cons	-2460
▁remov	-2461
rie	-2462
amed	-2463
▁Rec	-2464
▁essential	-2465
▁Science	-2466
ban	-2467
dom	-2468
know	-2469
▁Ag	-2470
▁page	-2471
aling	-2472
▁ensure	-2473
▁encoura	-2474
icine	-2475
▁identify	-2476
▁tend	-2477
rand	-2478
▁attention	-2479
oor	-2480
▁forms	-2481
▁visit	-2482
osition	-2483
▁image	-2484
▁i	-2485
▁China	-2486
▁compon	-2487
▁outside	-2488
▁aff	-2489
oles	-2490
▁tax	-2491
▁Har	-2492
▁sust	-2493
idge	-2494
▁foods	-2495
ctions	-2496
▁basic	-2497
new	-2498
uge	-2499
▁emb	-2500
▁integ	-2501
▁hyd	-2502
▁growing	-2503
▁implement	-2504
ises	-2505
▁extreme	-2506
▁refer	-2507
▁Jan	-2508
light	-2509
▁Count	-2510
▁bal	-2511
hel	-2512
issions	-2513
▁First	-2514
▁generally	-2515
▁Gl	-2516
▁feet	-2517
▁webs	-2518
▁electric	-2519
ucle	-2520
▁emot	-2521
▁select	-2522
ief	-2523
▁--	-2524
aches	-2525
▁vacc	-2526
▁teachers	-2527
▁Now	-2528
▁El	-2529
▁forest	-2530
▁wood	-2531
▁lack	-2532
▁appl	-2533
▁produced	-2534
▁late	-2535
elling	-2536
atives	-2537
▁ple	-2538
ming	-2539
▁Bec	-2540
▁virus	-2541
▁correct	-2542
▁continue	-2543
▁doesn	-2544
rated	-2545
▁cust	-2546
▁Our	-2547
▁mess	-2548
:1	-2549
room	-2550
▁lat	-2551
▁serious	-2552
▁Ke	-2553
▁harm	-2554
▁pict	-2555
▁animal	-2556
▁challeng	-2557
▁share	-2558
▁log	-2559
ana	-2560
▁takes	-2561
bor	-2562
▁included	-2563
ached	-2564
▁attempt	-2565
▁developing	-2566
▁dou	-2567
▁force	-2568
▁patient	-2569
▁numbers	-2570
▁manufact	-2571
▁displ	-2572
▁25	-2573
▁ap	-2574
▁ideas	-2575
▁probably	-2576
▁ox	-2577
▁During	-2578
▁policy	-2579
▁network	-2580
ads	-2581
imum	-2582
▁,	-2583
raft	-2584
fect	-2585
▁consist	-2586
eed	-2587
rim	-2588
▁cover	-2589
ems	-2590
▁Sm	-2591
▁Art	-2592
osing	-2593
ribution	-2594
▁kids	-2595
▁Bo	-2596
▁defin	-2597
▁print	-2598
osure	-2599
cies	-2600
set	-2601
▁attack	-2602
▁Educ	-2603
▁draw	-2604
▁Child	-2605
isions	-2606
cil	-2607
ography	-2608
▁aware	-2609
▁safety	-2610
▁Ju	-2611
▁veget	-2612
▁coun	-2613
ops	-2614
▁ir	-2615
Th	-2616
▁theory	-2617
▁independ	-2618
▁daily	-2619
▁international	-2620
uth	-2621
▁instit	-2622
▁mental	-2623
▁express	-2624
▁Aug	-2625
ided	-2626
ervation	-2627
▁cit	-2628
▁Ac	-2629
▁financ	-2630
▁performance	-2631
▁prep	-2632
iot	-2633
▁diseases	-2634
▁earl	-2635
▁sou	-2636
▁squ	-2637
ties	-2638
▁books	-2639
ground	-2640
iency	-2641
▁getting	-2642
▁My	-2643
▁commit	-2644
▁difference	-2645
▁therefore	-2646
▁fa	-2647
▁sil	-2648
▁started	-2649
▁leaders	-2650
oly	-2651
▁offer	-2652
▁tree	-2653
▁cross	-2654
IN	-2655
▁bab	-2656
vention	-2657
▁achieve	-2658
▁series	-2659
▁tur	-2660
▁easily	-2661
▁magn	-2662
▁eval	-2663
▁colon	-2664
▁night	-2665
▁media	-2666
▁someone	-2667
▁ful	-2668
haps	-2669
▁Tra	-2670
0,	-2671
▁communities	-2672
▁looking	-2673
▁Center	-2674
▁thus	-2675
▁wall	-2676
▁investig	-2677
▁estim	-2678
▁0.	-2679
ius	-2680
erson	-2681
▁sold	-2682
erg	-2683
▁nation	-2684
▁trees	-2685
rs	-2686
▁unique	-2687
ror	-2688
irit	-2689
▁European	-2690
▁capt	-2691
IS	-2692
▁sea	-2693
▁Even	-2694
▁Tw	-2695
itude	-2696
▁concent	-2697
▁progress	-2698
▁town	-2699
▁infection	-2700
▁mother	-2701
▁quite	-2702
overy	-2703
ino	-2704
rew	-2705
▁instead	-2706
na	-2707
▁added	-2708
ension	-2709
▁determine	-2710
▁dang	-2711
▁/	-2712
asons	-2713
▁allows	-2714
▁appropri	-2715
uary	-2716
ancy	-2717
cell	-2718
▁Indian	-2719
▁ago	-2720
▁warm	-2721
▁Since	-2722
▁fav	-2723
▁vit	-2724
▁reflect	-2725
▁feed	-2726
▁primary	-2727
▁companies	-2728
▁thous	-2729
▁traditional	-2730
▁French	-2731
where	-2732
▁inside	-2733
▁larger	-2734
▁Department	-2735
▁Calif	-2736
▁third	-2737
rate	-2738
▁multiple	-2739
▁div	-2740
▁decre	-2741
▁dry	-2742
▁Reg	-2743
▁Sch	-2744
▁scientific	-2745
▁Russ	-2746
▁civil	-2747
▁aud	-2748
▁immedi	-2749
▁humans	-2750
ying	-2751
▁Africa	-2752
inks	-2753
▁eth	-2754
▁reve	-2755
hy	-2756
▁eye	-2757
pril	-2758
ashing	-2759
▁compared	-2760
ender	-2761
▁West	-2762
▁held	-2763
▁tiss	-2764
ha	-2765
useum	-2766
▁rout	-2767
▁quickly	-2768
abetes	-2769
▁tools	-2770
▁highly	-2771
▁families	-2772
aly	-2773
▁Her	-2774
▁established	-2775
▁Lear	-2776
▁(200	-2777
▁speak	-2778
▁demonstr	-2779
▁front	-2780
ulate	-2781
ounds	-2782
ellow	-2783
▁extra	-2784
▁military	-2785
▁supply	-2786
▁Oct	-2787
icated	-2788
▁birth	-2789
ls	-2790
▁Read	-2791
12	-2792
▁critical	-2793
pe	-2794
elt	-2795
▁gard	-2796
▁negative	-2797
▁altern	-2798
▁additional	-2799
aces	-2800
▁bit	-2801
▁answer	-2802
▁security	-2803
▁severe	-2804
ift	-2805
iers	-2806
▁purpose	-2807
19	-2808
▁active	-2809
▁Institute	-2810
▁March	-2811
att	-2812
nov	-2813
▁Californ	-2814
▁although	-2815
den	-2816
▁directly	-2817
iques	-2818
▁analy	-2819
ille	-2820
isms	-2821
▁behind	-2822
thern	-2823
▁aim	-2824
▁drink	-2825
arr	-2826
▁document	-2827
▁accur	-2828
▁transport	-2829
rogen	-2830
▁History	-2831
anks	-2832
▁Ant	-2833
▁prior	-2834
olar	-2835
joy	-2836
term	-2837
▁proced	-2838
▁host	-2839
▁labor	-2840
▁exercise	-2841
▁central	-2842
▁Jes	-2843
▁tri	-2844
▁clin	-2845
▁points	-2846
▁obt	-2847
▁essay	-2848
▁hot	-2849
▁walk	-2850
▁International	-2851
▁40	-2852
▁Why	-2853
▁Char	-2854
▁solar	-2855
▁towards	-2856
We	-2857
▁German	-2858
▁Mus	-2859
▁bad	-2860
▁Ret	-2861
▁decl	-2862
▁values	-2863
▁har	-2864
www	-2865
▁aspect	-2866
▁useful	-2867
ON	-2868
▁Br	-2869
itis	-2870
▁stra	-2871
▁soon	-2872
gency	-2873
▁leading	-2874
▁California	-2875
undred	-2876
AN	-2877
▁hor	-2878
▁hands	-2879
▁June	-2880
▁write	-2881
▁quant	-2882
vant	-2883
fl	-2884
yond	-2885
▁acid	-2886
▁shall	-2887
▁stay	-2888
▁doctor	-2889
▁foot	-2890
▁Cor	-2891
▁seems	-2892
uries	-2893
▁Because	-2894
▁mom	-2895
oming	-2896
▁card	-2897
▁habit	-2898
▁broad	-2899
omet	-2900
▁Inc	-2901
▁minutes	-2902
cean	-2903
▁1,	-2904
▁Bar	-2905
▁Mon	-2906
▁contribut	-2907
▁impl	-2908
▁Gree	-2909
▁agricult	-2910
ils	-2911
▁situation	-2912
OR	-2913
▁pack	-2914
hern	-2915
▁custom	-2916
mar	-2917
▁limited	-2918
▁section	-2919
oes	-2920
▁Dav	-2921
▁http	-2922
▁ones	-2923
ilos	-2924
▁influence	-2925
iter	-2926
▁went	-2927
▁expect	-2928
▁Then	-2929
▁workers	-2930
▁April	-2931
▁waste	-2932
▁African	-2933
-3	-2934
▁24	-2935
▁capital	-2936
▁contains	-2937
ologies	-2938
▁importance	-2939
▁features	-2940
▁financial	-2941
▁Sept	-2942
▁lost	-2943
▁video	-2944
▁thinking	-2945
ription	-2946
ields	-2947
iber	-2948
▁beginning	-2949
▁Sw	-2950
▁length	-2951
ching	-2952
▁whose	-2953
▁teaching	-2954
▁symb	-2955
▁4.	-2956
▁Sim	-2957
▁exact	-2958
▁demand	-2959
▁August	-2960
formation	-2961
▁base	-2962
▁x	-2963
yr	-2964
▁news	-2965
▁River	-2966
hens	-2967
▁elements	-2968
▁fight	-2969
gn	-2970
▁sustain	-2971
▁strateg	-2972
▁fast	-2973
▁rates	-2974
▁protein	-2975
▁unc	-2976
”.	-2977
▁laws	-2978
imin	-2979
▁stri	-2980
lection	-2981
▁fit	-2982
▁adults	-2983
▁Are	-2984
▁fram	-2985
▁received	-2986
▁wa	-2987
wise	-2988
imal	-2989
▁block	-2990
rition	-2991
▁described	-2992
▁bacteria	-2993
▁dark	-2994
oring	-2995
inct	-2996
coh	-2997
cial	-2998
▁brought	-2999
fort	-3000
istry	-3001
▁jud	-3002
▁enjoy	-3003
ext	-3004
▁ancient	-3005
▁interp	-3006
▁carry	-3007
▁weeks	-3008
▁software	-3009
▁requires	-3010
see	-3011
▁private	-3012
izations	-3013
▁solution	-3014
▁sn	-3015
▁application	-3016
equ	-3017
▁costs	-3018
▁protection	-3019
hest	-3020
▁capac	-3021
▁decision	-3022
▁Mc	-3023
▁nearly	-3024
▁located	-3025
▁except	-3026
▁respond	-3027
▁table	-3028
▁Serv	-3029
▁jo	-3030
▁game	-3031
▁website	-3032
▁stru	-3033
▁mill	-3034
▁search	-3035
▁speed	-3036
orthern	-3037
▁tests	-3038
▁July	-3039
cks	-3040
▁images	-3041
▁season	-3042
pper	-3043
▁ult	-3044
▁mount	-3045
▁largest	-3046
▁processes	-3047
▁memory	-3048
▁Also	-3049
ipment	-3050
▁lines	-3051
▁establish	-3052
▁install	-3053
▁nucle	-3054
▁Fin	-3055
▁told	-3056
▁north	-3057
-19	-3058
▁hundred	-3059
IC	-3060
▁Let	-3061
▁Over	-3062
▁crop	-3063
▁becomes	-3064
▁mix	-3065
▁Prog	-3066
▁veh	-3067
▁Day	-3068
iles	-3069
▁cred	-3070
▁devices	-3071
▁adapt	-3072
▁rare	-3073
uman	-3074
▁else	-3075
idents	-3076
▁Jesus	-3077
▁administ	-3078
uous	-3079
▁ord	-3080
▁efforts	-3081
▁disp	-3082
entially	-3083
▁goal	-3084
▁mention	-3085
lim	-3086
▁mole	-3087
▁got	-3088
▁friends	-3089
king	-3090
rael	-3091
odies	-3092
▁People	-3093
▁places	-3094
ipl	-3095
▁ep	-3096
come	-3097
▁basis	-3098
▁south	-3099
ondon	-3100
▁Ec	-3101
rote	-3102
▁Techn	-3103
▁leaves	-3104
▁techniques	-3105
▁communication	-3106
▁room	-3107
used	-3108
ford	-3109
ding	-3110
▁egg	-3111
▁born	-3112
▁Just	-3113
▁appropriate	-3114
▁rapid	-3115
ibrary	-3116
inese	-3117
▁Use	-3118
vest	-3119
▁summer	-3120
PA	-3121
▁agree	-3122
ica	-3123
▁Press	-3124
▁projects	-3125
▁Americans	-3126
uk	-3127
▁sites	-3128
▁father	-3129
▁eating	-3130
izes	-3131
▁*	-3132
▁remain	-3133
▁typically	-3134
▁reach	-3135
▁ang	-3136
EN	-3137
▁William	-3138
IV	-3139
▁Canada	-3140
▁IS	-3141
▁accom	-3142
mission	-3143
▁citiz	-3144
▁cultural	-3145
▁adj	-3146
▁property	-3147
year	-3148
ulated	-3149
▁England	-3150
▁:	-3151
▁High	-3152
oud	-3153
▁fra	-3154
▁examples	-3155
▁beaut	-3156
▁testing	-3157
sect	-3158
▁Red	-3159
▁construction	-3160
▁teacher	-3161
▁cold	-3162
ceed	-3163
▁digital	-3164
▁remains	-3165
▁coast	-3166
▁adop	-3167
▁surround	-3168
▁vict	-3169
▁advant	-3170
resh	-3171
▁deal	-3172
▁Bi	-3173
itect	-3174
▁religious	-3175
▁Trans	-3176
oke	-3177
med	-3178
▁Govern	-3179
▁final	-3180
▁died	-3181
▁Inst	-3182
▁der	-3183
In	-3184
▁cru	-3185
▁eyes	-3186
▁Education	-3187
▁calcul	-3188
▁breat	-3189
▁Church	-3190
▁gives	-3191
▁und	-3192
▁dead	-3193
ony	-3194
iece	-3195
▁teeth	-3196
arian	-3197
▁President	-3198
ico	-3199
ira	-3200
▁cool	-3201
▁cou	-3202
▁creating	-3203
▁trade	-3204
▁Christian	-3205
80	-3206
▁miles	-3207
▁transl	-3208
▁applications	-3209
ogen	-3210
uments	-3211
▁Great	-3212
▁Dis	-3213
estic	-3214
▁therapy	-3215
▁Feb	-3216
▁saw	-3217
ellig	-3218
▁hous	-3219
bit	-3220
▁Another	-3221
▁Cong	-3222
▁Sur	-3223
▁center	-3224
▁behavi	-3225
It	-3226
aul	-3227
▁imag	-3228
▁Mod	-3229
▁monitor	-3230
▁Associ	-3231
ham	-3232
▁responsible	-3233
life	-3234
▁affected	-3235
ashington	-3236
▁ice	-3237
▁January	-3238
ype	-3239
cember	-3240
cohol	-3241
aught	-3242
▁bott	-3243
▁sequ	-3244
▁cele	-3245
▁Develop	-3246
water	-3247
▁hope	-3248
▁nothing	-3249
16	-3250
▁Pol	-3251
▁October	-3252
▁sugar	-3253
▁fuel	-3254
iar	-3255
▁Israel	-3256
head	-3257
▁everything	-3258
itable	-3259
____	-3260
▁reasons	-3261
ama	-3262
15	-3263
▁consequ	-3264
▁expected	-3265
▁autom	-3266
▁recently	-3267
▁forces	-3268
▁middle	-3269
▁City	-3270
strial	-3271
▁beyond	-3272
▁rock	-3273
▁Chinese	-3274
▁benefit	-3275
▁everyone	-3276
▁mid	-3277
▁pan	-3278
illing	-3279
▁anti	-3280
▁code	-3281
back	-3282
▁himself	-3283
▁Each	-3284
▁September	-3285
▁Commun	-3286
▁anything	-3287
▁web	-3288
▁stage	-3289
ector	-3290
▁command	-3291
▁diabetes	-3292
▁Pat	-3293
▁practices	-3294
▁screen	-3295
▁device	-3296
▁gradu	-3297
-0	-3298
ribute	-3299
ovember	-3300
▁conflic	-3301
▁older	-3302
omb	-3303
▁receive	-3304
iable	-3305
▁Once	-3306
▁cra	-3307
▁London	-3308
▁yourself	-3309
cles	-3310
▁bul	-3311
▁equipment	-3312
bur	-3313
▁professional	-3314
▁son	-3315
▁weather	-3316
▁insp	-3317
▁Journal	-3318
▁depend	-3319
▁Vir	-3320
▁choose	-3321
▁followed	-3322
▁isn	-3323
▁objects	-3324
▁differences	-3325
▁Mex	-3326
▁overall	-3327
▁providing	-3328
eal	-3329
▁king	-3330
▁smaller	-3331
▁cam	-3332
▁date	-3333
▁recommend	-3334
▁occurs	-3335
ech	-3336
▁Washington	-3337
▁Park	-3338
▁currently	-3339
mosp	-3340
▁Cur	-3341
ula	-3342
▁spirit	-3343
▁rain	-3344
▁earlier	-3345
load	-3346
▁successful	-3347
▁shape	-3348
▁pen	-3349
▁constit	-3350
▁pregn	-3351
ED	-3352
anish	-3353
aid	-3354
▁organization	-3355
▁leave	-3356
ought	-3357
▁Water	-3358
▁Arch	-3359
uff	-3360
▁federal	-3361
▁location	-3362
oe	-3363
▁rise	-3364
AC	-3365
▁System	-3366
▁models	-3367
▁hyp	-3368
40	-3369
▁commonly	-3370
▁economy	-3371
wor	-3372
enge	-3373
▁via	-3374
▁instru	-3375
▁sett	-3376
▁asked	-3377
▁swe	-3378
▁scale	-3379
▁opportunity	-3380
▁trying	-3381
▁controll	-3382
▁winter	-3383
▁exposure	-3384
▁tit	-3385
▁ten	-3386
▁won	-3387
▁collection	-3388
▁strength	-3389
▁fear	-3390
▁guid	-3391
▁hosp	-3392
▁beg	-3393
▁users	-3394
▁East	-3395
IT	-3396
▁Black	-3397
iples	-3398
▁purch	-3399
sec	-3400
▁enh	-3401
....	-3402
▁predict	-3403
▁rob	-3404
▁immune	-3405
time	-3406
▁completely	-3407
▁woman	-3408
▁193	-3409
▁legal	-3410
men	-3411
▁max	-3412
▁standards	-3413
▁categ	-3414
apter	-3415
▁reduced	-3416
▁County	-3417
ests	-3418
rees	-3419
▁Val	-3420
▁alone	-3421
▁measures	-3422
isl	-3423
iest	-3424
▁December	-3425
mitted	-3426
▁wrote	-3427
▁placed	-3428
▁electr	-3429
▁historical	-3430
▁degree	-3431
▁destro	-3432
▁visual	-3433
▁commerc	-3434
▁Tod	-3435
rieved	-3436
▁applied	-3437
▁21	-3438
aced	-3439
▁discovered	-3440
lin	-3441
▁identified	-3442
▁virt	-3443
wide	-3444
▁rules	-3445
);	-3446
amic	-3447
25	-3448
▁showed	-3449
▁billion	-3450
60	-3451
aur	-3452
▁pet	-3453
▁den	-3454
book	-3455
▁pow	-3456
▁approx	-3457
ran	-3458
▁exec	-3459
▁Don	-3460
▁perfect	-3461
▁interesting	-3462
▁mob	-3463
▁effort	-3464
▁steps	-3465
▁Cour	-3466
▁bra	-3467
▁maintain	-3468
▁fruit	-3469
▁General	-3470
▁DNA	-3471
▁San	-3472
ensity	-3473
▁constant	-3474
▁goes	-3475
▁allowed	-3476
con	-3477
▁Prof	-3478
▁Law	-3479
▁fair	-3480
icate	-3481
▁named	-3482
▁November	-3483
▁continued	-3484
▁enter	-3485
co	-3486
▁Aut	-3487
▁drugs	-3488
▁machine	-3489
▁joint	-3490
▁context	-3491
ruary	-3492
▁former	-3493
▁display	-3494
ibly	-3495
rick	-3496
ari	-3497
▁(201	-3498
▁birds	-3499
▁195	-3500
▁See	-3501
▁cry	-3502
▁poly	-3503
▁choice	-3504
▁cities	-3505
▁majority	-3506
ara	-3507
vert	-3508
▁illness	-3509
▁+	-3510
itch	-3511
ocks	-3512
reet	-3513
▁connect	-3514
▁properties	-3515
bre	-3516
▁acad	-3517
tery	-3518
▁genetic	-3519
▁stim	-3520
ss	-3521
▁ball	-3522
▁Their	-3523
▁Under	-3524
▁neigh	-3525
▁rule	-3526
▁emissions	-3527
▁gold	-3528
▁occup	-3529
▁relatively	-3530
▁sch	-3531
▁Thus	-3532
▁planet	-3533
▁Conf	-3534
▁gave	-3535
▁member	-3536
▁Rel	-3537
ocr	-3538
▁cook	-3539
▁Roman	-3540
▁symbol	-3541
▁eight	-3542
18	-3543
ste	-3544
▁version	-3545
▁dat	-3546
▁acqu	-3547
▁status	-3548
▁powerful	-3549
▁formed	-3550
can	-3551
▁note	-3552
▁track	-3553
▁miss	-3554
▁road	-3555
▁rich	-3556
▁church	-3557
edom	-3558
▁signs	-3559
▁Every	-3560
▁Children	-3561
craft	-3562
▁user	-3563
▁efficient	-3564
oration	-3565
▁belief	-3566
airs	-3567
▁tox	-3568
▁fully	-3569
▁coming	-3570
▁moment	-3571
▁actions	-3572
▁Che	-3573
▁mouth	-3574
▁limit	-3575
que	-3576
uit	-3577
aint	-3578
▁presence	-3579
ament	-3580
▁perhaps	-3581
▁60	-3582
ingu	-3583
edia	-3584
▁file	-3585
alt	-3586
gypt	-3587
irection	-3588
▁capacity	-3589
▁illust	-3590
enty	-3591
▁strugg	-3592
ords	-3593
▁rat	-3594
▁mis	-3595
▁remember	-3596
osy	-3597
▁teach	-3598
▁hon	-3599
▁Australia	-3600
▁baby	-3601
encies	-3602
▁Ro	-3603
▁mig	-3604
orge	-3605
▁task	-3606
21	-3607
▁philos	-3608
phas	-3609
▁price	-3610
iring	-3611
▁Spec	-3612
▁wond	-3613
▁vill	-3614
▁factor	-3615
▁compar	-3616
cious	-3617
▁effic	-3618
▁construct	-3619
hemat	-3620
▁nutri	-3621
▁5.	-3622
▁Prot	-3623
rig	-3624
▁asse	-3625
▁increases	-3626
▁tou	-3627
known	-3628
▁evalu	-3629
gery	-3630
▁female	-3631
bl	-3632
▁TH	-3633
▁functions	-3634
▁situ	-3635
▁appears	-3636
ees	-3637
rab	-3638
▁unit	-3639
▁patterns	-3640
aters	-3641
▁antib	-3642
▁assign	-3643
▁court	-3644
off	-3645
▁promot	-3646
force	-3647
▁anx	-3648
▁France	-3649
▁gir	-3650
▁atmosp	-3651
▁tissue	-3652
▁mut	-3653
▁Public	-3654
▁Germany	-3655
related	-3656
▁initi	-3657
▁worth	-3658
▁components	-3659
▁equal	-3660
▁evolution	-3661
▁Coun	-3662
▁peace	-3663
▁observed	-3664
ogle	-3665
▁Lat	-3666
aste	-3667
▁emp	-3668
▁river	-3669
▁significantly	-3670
▁Jewish	-3671
▁findings	-3672
▁Environment	-3673
▁existing	-3674
▁February	-3675
amb	-3676
▁hair	-3677
▁Union	-3678
▁distance	-3679
▁Today	-3680
house	-3681
ternal	-3682
▁regions	-3683
▁root	-3684
emy	-3685
▁changed	-3686
unch	-3687
▁repe	-3688
rief	-3689
▁innov	-3690
ero	-3691
▁House	-3692
▁Society	-3693
▁ing	-3694
▁susp	-3695
▁piece	-3696
▁tele	-3697
inated	-3698
▁huge	-3699
▁Inter	-3700
▁convers	-3701
▁pp	-3702
care	-3703
▁fresh	-3704
more	-3705
▁element	-3706
aled	-3707
ocol	-3708
▁contract	-3709
▁reports	-3710
rehens	-3711
▁names	-3712
▁forward	-3713
▁educational	-3714
ev	-3715
aign	-3716
▁UK	-3717
▁ast	-3718
▁iron	-3719
13	-3720
▁didn	-3721
▁incor	-3722
▁garden	-3723
▁architect	-3724
▁Retrieved	-3725
▁map	-3726
▁stories	-3727
",	-3728
▁staff	-3729
▁alcohol	-3730
▁Egypt	-3731
▁Av	-3732
▁opportunities	-3733
14	-3734
rome	-3735
▁suggests	-3736
lor	-3737
▁Des	-3738
iful	-3739
▁blue	-3740
▁Green	-3741
▁collabor	-3742
ession	-3743
▁worked	-3744
▁instance	-3745
icip	-3746
▁Pal	-3747
▁thousands	-3748
▁Ang	-3749
▁guide	-3750
▁easier	-3751
▁weak	-3752
▁assist	-3753
▁friend	-3754
▁moving	-3755
▁expand	-3756
▁transfer	-3757
70	-3758
▁Mic	-3759
▁options	-3760
rupt	-3761
▁style	-3762
▁suppl	-3763
▁defined	-3764
▁milk	-3765
▁vision	-3766
▁challenges	-3767
▁mission	-3768
▁box	-3769
resp	-3770
▁wid	-3771
▁Mor	-3772
▁experiences	-3773
ygen	-3774
EC	-3775
▁mal	-3776
▁Lord	-3777
▁offers	-3778
AL	-3779
▁qual	-3780
iences	-3781
▁Mat	-3782
ald	-3783
▁Social	-3784
abilities	-3785
odes	-3786
▁running	-3787
iding	-3788
era	-3789
▁strategies	-3790
▁Congress	-3791
iny	-3792
nes	-3793
pris	-3794
▁famous	-3795
▁resistance	-3796
▁consumption	-3797
▁foreign	-3798
hors	-3799
▁believed	-3800
▁bound	-3801
ifically	-3802
▁apply	-3803
▁survey	-3804
ux	-3805
”,	-3806
▁absor	-3807
▁Ob	-3808
▁direction	-3809
▁Bel	-3810
▁plastic	-3811
▁vo	-3812
▁save	-3813
▁explain	-3814
▁Work	-3815
▁#	-3816
asion	-3817
▁attract	-3818
▁plans	-3819
▁feature	-3820
rec	-3821
omas	-3822
▁Bra	-3823
▁Students	-3824
▁commercial	-3825
▁wrong	-3826
▁citizens	-3827
▁technologies	-3828
▁balance	-3829
▁Phil	-3830
▁fix	-3831
▁star	-3832
▁giving	-3833
▁seven	-3834
▁Vol	-3835
▁gain	-3836
▁highest	-3837
▁favor	-3838
▁office	-3839
▁Colle	-3840
pped	-3841
▁passed	-3842
▁Western	-3843
asks	-3844
▁fert	-3845
▁breast	-3846
▁structures	-3847
▁Di	-3848
▁clinical	-3849
apers	-3850
▁details	-3851
udd	-3852
▁exhib	-3853
▁immediately	-3854
▁Food	-3855
▁novel	-3856
change	-3857
▁spect	-3858
▁native	-3859
-4	-3860
uild	-3861
▁income	-3862
▁watch	-3863
▁separate	-3864
▁picture	-3865
▁planning	-3866
▁Dec	-3867
ky	-3868
▁sac	-3869
▁organizations	-3870
▁Mary	-3871
▁liqu	-3872
▁extremely	-3873
▁Rem	-3874
▁insect	-3875
eces	-3876
▁classroom	-3877
▁mo	-3878
▁bank	-3879
▁James	-3880
isation	-3881
▁Mich	-3882
▁Therefore	-3883
▁David	-3884
▁industrial	-3885
▁journal	-3886
▁util	-3887
▁spring	-3888
22	-3889
orage	-3890
▁assum	-3891
DA	-3892
▁dyn	-3893
▁disorder	-3894
▁instruct	-3895
▁figure	-3896
iox	-3897
▁generation	-3898
▁Using	-3899
▁requirements	-3900
▁Program	-3901
▁items	-3902
yd	-3903
▁happen	-3904
▁phen	-3905
▁Association	-3906
pan	-3907
▁intellig	-3908
This	-3909
▁UN	-3910
▁heavy	-3911
▁urban	-3912
▁treated	-3913
▁emphas	-3914
▁release	-3915
▁topic	-3916
igen	-3917
ulum	-3918
uing	-3919
bed	-3920
▁becoming	-3921
▁conducted	-3922
▁chance	-3923
▁challenge	-3924
▁experim	-3925
▁distribution	-3926
uls	-3927
▁Internet	-3928
▁Net	-3929
▁decades	-3930
▁male	-3931
ube	-3932
che	-3933
▁celebr	-3934
▁depression	-3935
iance	-3936
▁performed	-3937
3)	-3938
▁rot	-3939
▁goals	-3940
▁speech	-3941
▁explore	-3942
▁slight	-3943
▁eventually	-3944
▁vary	-3945
▁Japanese	-3946
▁learned	-3947
▁bodies	-3948
▁Gra	-3949
▁divid	-3950
▁cycle	-3951
▁Rev	-3952
▁Plan	-3953
▁glass	-3954
▁mer	-3955
▁presented	-3956
wards	-3957
ographic	-3958
▁pick	-3959
▁destroy	-3960
▁cand	-3961
▁plat	-3962
▁stream	-3963
erate	-3964
▁muscle	-3965
ares	-3966
part	-3967
▁bed	-3968
▁excess	-3969
▁hom	-3970
▁kid	-3971
▁serve	-3972
▁agg	-3973
urally	-3974
▁remove	-3975
enth	-3976
▁truth	-3977
imens	-3978
▁solutions	-3979
▁carried	-3980
▁board	-3981
▁resource	-3982
gment	-3983
▁bone	-3984
▁released	-3985
PS	-3986
ologist	-3987
▁reference	-3988
raw	-3989
▁flood	-3990
▁sample	-3991
▁chronic	-3992
▁Sub	-3993
▁Found	-3994
▁Human	-3995
▁approximately	-3996
▁22	-3997
▁vitamin	-3998
char	-3999
▁records	-4000
.;	-4001
▁medicine	-4002
▁experiment	-4003
▁perspect	-4004
ulf	-4005
▁connected	-4006
▁recommended	-4007
ously	-4008
▁operations	-4009
▁opin	-4010
▁Sam	-4011
▁Organ	-4012
▁fields	-4013
▁electricity	-4014
▁desp	-4015
▁email	-4016
▁alternative	-4017
▁Air	-4018
▁neu	-4019
▁tour	-4020
▁risks	-4021
▁reality	-4022
▁introduced	-4023
▁actual	-4024
ET	-4025
▁contrast	-4026
▁literature	-4027
90	-4028
II	-4029
ped	-4030
ii	-4031
▁190	-4032
porary	-4033
▁disorders	-4034
▁changing	-4035
ken	-4036
icial	-4037
▁graph	-4038
▁metal	-4039
iant	-4040
17	-4041
bal	-4042
met	-4043
▁doub	-4044
▁buildings	-4045
rant	-4046
▁legisl	-4047
▁Som	-4048
▁mag	-4049
tical	-4050
▁Test	-4051
▁store	-4052
▁clearly	-4053
▁College	-4054
▁aspects	-4055
▁happens	-4056
▁participants	-4057
▁23	-4058
▁George	-4059
EM	-4060
▁oxygen	-4061
▁temperatures	-4062
do	-4063
antic	-4064
▁Tur	-4065
▁household	-4066
▁sexual	-4067
▁Paul	-4068
▁homes	-4069
▁Web	-4070
▁Two	-4071
▁decisions	-4072
ophy	-4073
▁Phys	-4074
▁faith	-4075
▁frequently	-4076
▁injury	-4077
▁combination	-4078
AM	-4079
▁covered	-4080
St	-4081
▁Museum	-4082
ager	-4083
▁organic	-4084
▁Development	-4085
zz	-4086
▁Rober	-4087
iate	-4088
clus	-4089
cular	-4090
ingly	-4091
▁moved	-4092
ida	-4093
▁setting	-4094
ST	-4095
▁partners	-4096
▁NAS	-4097
▁estimated	-4098
ressive	-4099
▁Its	-4100
▁Tex	-4101
▁internal	-4102
oma	-4103
▁Nat	-4104
▁drive	-4105
▁trend	-4106
▁letter	-4107
▁Both	-4108
▁Council	-4109
▁populations	-4110
▁Hel	-4111
▁ves	-4112
rest	-4113
Wh	-4114
▁president	-4115
▁violence	-4116
roph	-4117
▁authors	-4118
▁tim	-4119
▁nutrition	-4120
gal	-4121
▁fig	-4122
unction	-4123
▁statement	-4124
▁widely	-4125
onds	-4126
▁dogs	-4127
▁numerous	-4128
uses	-4129
ructure	-4130
▁bottom	-4131
▁Greek	-4132
▁killed	-4133
▁technique	-4134
▁Government	-4135
▁connection	-4136
▁lived	-4137
▁Further	-4138
▁policies	-4139
▁Spanish	-4140
▁message	-4141
▁relationships	-4142
▁buy	-4143
▁burn	-4144
▁Rich	-4145
iveness	-4146
▁About	-4147
ologists	-4148
▁circum	-4149
▁gene	-4150
▁trig	-4151
▁creation	-4152
▁notes	-4153
2)	-4154
▁Def	-4155
▁cris	-4156
▁dri	-4157
olved	-4158
▁Like	-4159
▁prefer	-4160
▁isol	-4161
▁causing	-4162
▁party	-4163
▁landsc	-4164
▁minor	-4165
▁shap	-4166
▁distinct	-4167
▁discussion	-4168
ieties	-4169
▁games	-4170
▁reducing	-4171
ocal	-4172
▁failure	-4173
▁Bas	-4174
▁ign	-4175
▁scen	-4176
▁anyone	-4177
▁ded	-4178
▁film	-4179
▁hear	-4180
▁univers	-4181
▁noted	-4182
▁characteristics	-4183
▁pi	-4184
▁Off	-4185
▁esc	-4186
order	-4187
▁2010	-4188
▁Cath	-4189
cont	-4190
▁appe	-4191
erences	-4192
▁trou	-4193
anging	-4194
▁initial	-4195
▁Mr	-4196
▁replace	-4197
▁campaign	-4198
rows	-4199
▁Sun	-4200
▁drop	-4201
▁nuclear	-4202
ias	-4203
key	-4204
cast	-4205
▁detect	-4206
▁wanted	-4207
hetic	-4208
atically	-4209
▁gets	-4210
▁referred	-4211
▁exactly	-4212
▁La	-4213
▁sav	-4214
ognitive	-4215
▁Second	-4216
▁independent	-4217
▁assessment	-4218
olid	-4219
▁starting	-4220
▁thick	-4221
erved	-4222
▁infections	-4223
rosc	-4224
▁core	-4225
▁volume	-4226
▁resulting	-4227
rog	-4228
▁seed	-4229
▁turned	-4230
▁background	-4231
othes	-4232
riculum	-4233
▁feeling	-4234
▁anxiety	-4235
roup	-4236
▁186	-4237
▁dram	-4238
▁solid	-4239
▁finding	-4240
rm	-4241
▁Republic	-4242
▁conv	-4243
▁college	-4244
▁upd	-4245
ilit	-4246
▁Project	-4247
▁seeds	-4248
▁inflamm	-4249
▁surgery	-4250
tered	-4251
ressed	-4252
▁ocean	-4253
▁prepar	-4254
Ch	-4255
▁Mark	-4256
▁2,	-4257
▁thr	-4258
▁trust	-4259
▁Data	-4260
▁tooth	-4261
▁mostly	-4262
▁Fore	-4263
▁fine	-4264
works	-4265
uration	-4266
▁expression	-4267
▁religion	-4268
tee	-4269
▁horm	-4270
elines	-4271
▁institutions	-4272
▁reprodu	-4273
▁profession	-4274
▁die	-4275
▁pric	-4276
▁nor	-4277
amental	-4278
▁Mexico	-4279
▁removed	-4280
▁storage	-4281
▁grade	-4282
▁Dem	-4283
▁experienced	-4284
▁diss	-4285
▁academic	-4286
▁properly	-4287
▁Met	-4288
▁pal	-4289
▁click	-4290
▁layer	-4291
osystem	-4292
▁freedom	-4293
stitution	-4294
5%	-4295
ndrome	-4296
▁units	-4297
▁island	-4298
▁experts	-4299
onic	-4300
▁involve	-4301
▁involves	-4302
▁ready	-4303
▁belong	-4304
▁influen	-4305
▁encourage	-4306
▁option	-4307
▁Mal	-4308
▁Ser	-4309
riage	-4310
▁elimin	-4311
▁White	-4312
▁battle	-4313
▁unf	-4314
▁classes	-4315
▁Bro	-4316
▁NASA	-4317
▁amounts	-4318
▁mentioned	-4319
▁comprehens	-4320
▁vul	-4321
ij	-4322
och	-4323
urance	-4324
▁Court	-4325
▁vessel	-4326
▁degrees	-4327
▁exposed	-4328
ault	-4329
▁Step	-4330
▁territ	-4331
▁80	-4332
▁principles	-4333
▁kept	-4334
ishing	-4335
▁manufacture	-4336
▁excell	-4337
▁motor	-4338
▁advantage	-4339
▁math	-4340
▁physic	-4341
SA	-4342
▁race	-4343
200	-4344
▁win	-4345
▁dangerous	-4346
▁determined	-4347
▁genes	-4348
78	-4349
▁adjust	-4350
▁describe	-4351
▁effectively	-4352
▁6.	-4353
ping	-4354
▁pun	-4355
▁ST	-4356
ortunately	-4357
▁load	-4358
▁conflict	-4359
▁Ber	-4360
▁improved	-4361
lick	-4362
▁confirm	-4363
▁previously	-4364
▁Ev	-4365
▁Jews	-4366
▁Hen	-4367
▁Port	-4368
▁southern	-4369
ams	-4370
rum	-4371
▁grass	-4372
▁radio	-4373
▁pollution	-4374
▁Post	-4375
▁round	-4376
▁output	-4377
▁Get	-4378
▁advanced	-4379
urt	-4380
▁input	-4381
▁upper	-4382
▁victim	-4383
▁2012	-4384
▁synt	-4385
iverse	-4386
▁Mount	-4387
lease	-4388
▁helped	-4389
▁Class	-4390
▁transform	-4391
▁Cle	-4392
▁alg	-4393
▁reb	-4394
▁leads	-4395
▁reaction	-4396
ria	-4397
▁Scient	-4398
▁incorpor	-4399
▁reduction	-4400
▁Texas	-4401
RE	-4402
▁Service	-4403
▁interpret	-4404
▁tum	-4405
▁datab	-4406
▁defic	-4407
▁regarding	-4408
▁90	-4409
▁jour	-4410
▁emotional	-4411
▁beautiful	-4412
-5	-4413
anch	-4414
▁coal	-4415
ception	-4416
clusion	-4417
ributed	-4418
ategy	-4419
▁meant	-4420
▁aid	-4421
▁Treat	-4422
▁presc	-4423
▁HIV	-4424
▁vaccine	-4425
▁relevant	-4426
▁2011	-4427
▁counter	-4428
▁meeting	-4429
▁prepared	-4430
ander	-4431
▁Ben	-4432
▁lung	-4433
▁sem	-4434
▁annual	-4435
▁heard	-4436
▁helping	-4437
aughter	-4438
▁arm	-4439
rete	-4440
▁sector	-4441
▁hearing	-4442
OS	-4443
oyal	-4444
▁god	-4445
mark	-4446
▁pip	-4447
▁whom	-4448
▁volunt	-4449
▁processing	-4450
▁Sal	-4451
▁invent	-4452
▁hour	-4453
▁strategy	-4454
▁inh	-4455
▁Make	-4456
▁concepts	-4457
▁efficiency	-4458
▁linked	-4459
oking	-4460
▁wealth	-4461
orial	-4462
23	-4463
▁Mac	-4464
▁mainly	-4465
▁signal	-4466
▁sand	-4467
za	-4468
ios	-4469
▁promote	-4470
essor	-4471
▁concerns	-4472
umn	-4473
▁meat	-4474
▁depending	-4475
▁Mars	-4476
▁eggs	-4477
▁saying	-4478
comes	-4479
onomic	-4480
▁chemicals	-4481
uted	-4482
vision	-4483
▁served	-4484
▁phase	-4485
▁gender	-4486
▁Je	-4487
▁manage	-4488
▁mathemat	-4489
▁kill	-4490
▁Op	-4491
▁Lou	-4492
▁obvious	-4493
▁platform	-4494
▁spent	-4495
itz	-4496
▁10.	-4497
▁grant	-4498
▁professor	-4499
▁AD	-4500
place	-4501
rence	-4502
▁decided	-4503
▁expert	-4504
▁Asia	-4505
▁Hol	-4506
▁pret	-4507
▁sustainable	-4508
▁sort	-4509
▁languages	-4510
▁calc	-4511
▁(199	-4512
24	-4513
▁comfort	-4514
▁Sk	-4515
▁cast	-4516
▁official	-4517
ago	-4518
ifying	-4519
▁please	-4520
▁manner	-4521
▁pages	-4522
▁Island	-4523
ya	-4524
▁trib	-4525
▁operation	-4526
▁motiv	-4527
▁pieces	-4528
▁spot	-4529
▁consult	-4530
▁26	-4531
▁vegetables	-4532
▁Jer	-4533
▁Old	-4534
▁Thomas	-4535
▁engineering	-4536
▁Mart	-4537
▁owners	-4538
▁vot	-4539
▁Learning	-4540
▁Disc	-4541
▁seek	-4542
cers	-4543
ishes	-4544
▁Elect	-4545
▁Isl	-4546
▁diagnosis	-4547
▁lesson	-4548
▁tasks	-4549
ded	-4550
▁Addition	-4551
board	-4552
▁Miss	-4553
▁2009	-4554
ta	-4555
▁interested	-4556
▁concern	-4557
▁completed	-4558
ek	-4559
▁bud	-4560
▁clos	-4561
▁credit	-4562
▁Through	-4563
▁28	-4564
▁Ref	-4565
▁nit	-4566
▁Supp	-4567
▁farmers	-4568
▁ship	-4569
▁Dist	-4570
▁hospital	-4571
iling	-4572
▁fol	-4573
▁Medical	-4574
inate	-4575
alled	-4576
▁square	-4577
isher	-4578
▁frequency	-4579
▁appoint	-4580
▁discover	-4581
▁west	-4582
▁conver	-4583
▁conservation	-4584
▁purposes	-4585
▁cere	-4586
▁revolution	-4587
▁procedure	-4588
▁radiation	-4589
▁definition	-4590
uable	-4591
▁formation	-4592
▁articles	-4593
▁contribute	-4594
▁jobs	-4595
zing	-4596
▁Where	-4597
▁intended	-4598
▁atmosphere	-4599
▁2013	-4600
mat	-4601
well	-4602
▁Fre	-4603
▁youth	-4604
▁awareness	-4605
ules	-4606
ague	-4607
▁Civil	-4608
▁remained	-4609
▁ban	-4610
▁dro	-4611
bi	-4612
▁ideal	-4613
▁finally	-4614
su	-4615
▁Virgin	-4616
▁sufficient	-4617
▁drinking	-4618
▁recorded	-4619
▁focused	-4620
▁70	-4621
▁Dise	-4622
▁supported	-4623
▁Before	-4624
▁fib	-4625
▁primarily	-4626
▁Sen	-4627
▁combined	-4628
▁mort	-4629
▁northern	-4630
▁authority	-4631
-6	-4632
▁mel	-4633
▁Franc	-4634
▁proposed	-4635
▁bird	-4636
▁https	-4637
▁secret	-4638
▁practical	-4639
▁park	-4640
▁song	-4641
wood	-4642
rep	-4643
▁samples	-4644
▁looks	-4645
▁vulner	-4646
▁operating	-4647
▁electrical	-4648
▁station	-4649
▁agricultural	-4650
▁notice	-4651
ses	-4652
▁pul	-4653
▁master	-4654
▁phenomen	-4655
4)	-4656
▁Britain	-4657
▁career	-4658
rier	-4659
▁reached	-4660
▁continues	-4661
▁specifically	-4662
▁Energy	-4663
▁Central	-4664
▁indicate	-4665
▁Up	-4666
▁shared	-4667
▁nav	-4668
acters	-4669
▁conclud	-4670
nic	-4671
▁corresp	-4672
▁Any	-4673
astern	-4674
▁allowing	-4675
leg	-4676
osen	-4677
1)	-4678
▁News	-4679
▁taught	-4680
▁keeping	-4681
▁2008	-4682
▁Book	-4683
espite	-4684
▁attacks	-4685
▁hit	-4686
▁mist	-4687
▁Muslim	-4688
▁particles	-4689
▁Arab	-4690
▁extensive	-4691
akers	-4692
▁toxic	-4693
▁yellow	-4694
rates	-4695
▁liquid	-4696
▁identity	-4697
▁consequences	-4698
-8	-4699
▁Women	-4700
].	-4701
lig	-4702
itors	-4703
ball	-4704
▁Out	-4705
ears	-4706
▁flex	-4707
berg	-4708
▁Life	-4709
acific	-4710
CC	-4711
▁facts	-4712
▁wonder	-4713
▁Instead	-4714
▁coord	-4715
eria	-4716
▁army	-4717
iated	-4718
▁salt	-4719
▁technical	-4720
eline	-4721
▁Acad	-4722
▁Direct	-4723
▁Such	-4724
▁crucial	-4725
▁impacts	-4726
▁largely	-4727
▁begins	-4728
▁forced	-4729
ixt	-4730
aker	-4731
rations	-4732
▁double	-4733
pat	-4734
▁shar	-4735
▁perman	-4736
▁Medicine	-4737
▁189	-4738
osite	-4739
ulating	-4740
gl	-4741
▁Cam	-4742
▁Technology	-4743
▁Information	-4744
des	-4745
ormal	-4746
▁advance	-4747
▁renew	-4748
▁extent	-4749
▁situations	-4750
standing	-4751
AD	-4752
▁thin	-4753
▁despite	-4754
alle	-4755
▁brief	-4756
▁lib	-4757
▁Mil	-4758
▁hop	-4759
▁wet	-4760
▁subjects	-4761
▁centuries	-4762
▁Robert	-4763
itness	-4764
▁gar	-4765
▁bright	-4766
▁occurred	-4767
▁lic	-4768
▁collected	-4769
▁height	-4770
▁raised	-4771
▁fort	-4772
ounced	-4773
▁Latin	-4774
▁ecosystem	-4775
▁27	-4776
▁Ir	-4777
▁Space	-4778
▁vital	-4779
▁showing	-4780
▁straight	-4781
5)	-4782
▁Mass	-4783
▁east	-4784
▁kinds	-4785
rich	-4786
▁doll	-4787
▁maximum	-4788
▁Well	-4789
▁Exam	-4790
▁stone	-4791
▁Fam	-4792
▁digest	-4793
omin	-4794
inding	-4795
west	-4796
▁Common	-4797
▁haz	-4798
▁roll	-4799
▁spend	-4800
ags	-4801
▁storm	-4802
▁nutrients	-4803
vis	-4804
▁Bay	-4805
▁lov	-4806
▁leader	-4807
▁AN	-4808
▁letters	-4809
▁otherwise	-4810
▁external	-4811
ossible	-4812
▁emergency	-4813
AP	-4814
▁existence	-4815
▁Fe	-4816
istan	-4817
▁Expl	-4818
▁flat	-4819
▁moist	-4820
OT	-4821
oper	-4822
▁faster	-4823
▁treatments	-4824
▁foss	-4825
▁waters	-4826
rapy	-4827
▁fluid	-4828
5).	-4829
▁characters	-4830
▁Sl	-4831
inent	-4832
▁resist	-4833
tes	-4834
▁brother	-4835
▁facilities	-4836
▁Bur	-4837
▁snow	-4838
▁Army	-4839
▁cert	-4840
▁Those	-4841
▁kn	-4842
roke	-4843
ancing	-4844
▁charge	-4845
▁Land	-4846
▁vehicle	-4847
otic	-4848
▁settle	-4849
ado	-4850
▁syn	-4851
eters	-4852
EL	-4853
▁Bible	-4854
▁explan	-4855
▁proteins	-4856
ensus	-4857
olars	-4858
▁onto	-4859
othing	-4860
▁Despite	-4861
26	-4862
▁Cop	-4863
▁Russia	-4864
oughly	-4865
▁metab	-4866
▁topics	-4867
▁muscles	-4868
▁introduction	-4869
umin	-4870
▁potentially	-4871
▁certainly	-4872
▁Commission	-4873
▁surrounding	-4874
ael	-4875
▁crisis	-4876
▁2014	-4877
▁THE	-4878
▁detailed	-4879
▁Atl	-4880
▁felt	-4881
▁offered	-4882
▁familiar	-4883
▁aren	-4884
▁Psych	-4885
down	-4886
▁responsibility	-4887
▁clim	-4888
▁recy	-4889
▁wife	-4890
▁affects	-4891
▁ju	-4892
▁fif	-4893
▁quar	-4894
▁excellent	-4895
▁mere	-4896
▁Stand	-4897
roid	-4898
van	-4899
▁(18	-4900
oo	-4901
going	-4902
RI	-4903
▁motion	-4904
▁Studies	-4905
▁sin	-4906
▁nations	-4907
osc	-4908
unk	-4909
olute	-4910
▁greatest	-4911
field	-4912
rian	-4913
▁Bet	-4914
arrow	-4915
▁Know	-4916
aks	-4917
▁Jud	-4918
▁bill	-4919
▁interests	-4920
▁voice	-4921
▁periods	-4922
▁accurate	-4923
iced	-4924
▁Sum	-4925
point	-4926
▁wel	-4927
▁immun	-4928
rastructure	-4929
ails	-4930
▁Histor	-4931
▁subsequ	-4932
▁flowers	-4933
▁monitoring	-4934
▁Sat	-4935
ville	-4936
inn	-4937
▁Sea	-4938
▁smart	-4939
▁refers	-4940
▁sounds	-4941
omy	-4942
▁Flor	-4943
inger	-4944
▁neut	-4945
▁outcomes	-4946
hi	-4947
athy	-4948
tion	-4949
▁fundamental	-4950
ework	-4951
▁weap	-4952
▁phone	-4953
▁habitat	-4954
▁controlled	-4955
▁Ste	-4956
anges	-4957
▁liver	-4958
▁explained	-4959
atric	-4960
▁Whe	-4961
▁persons	-4962
▁kil	-4963
resents	-4964
▁lose	-4965
▁Del	-4966
▁grown	-4967
▁satis	-4968
▁advice	-4969
▁prison	-4970
▁Sou	-4971
▁slightly	-4972
roc	-4973
▁paint	-4974
▁Que	-4975
▁tips	-4976
▁vast	-4977
▁depth	-4978
enses	-4979
▁stock	-4980
▁Russian	-4981
▁oral	-4982
▁hyper	-4983
▁explains	-4984
▁curriculum	-4985
▁valid	-4986
▁vent	-4987
▁deliver	-4988
nel	-4989
▁crops	-4990
▁obtained	-4991
ipped	-4992
▁perspective	-4993
▁Mem	-4994
▁diam	-4995
▁studied	-4996
mp	-4997
ificial	-4998
▁tested	-4999
▁Yet	-5000
▁spl	-5001
▁surpris	-5002
ras	-5003
▁depends	-5004
▁sche	-5005
▁grand	-5006
7).	-5007
hips	-5008
▁floor	-5009
▁divided	-5010
▁deaths	-5011
▁morning	-5012
▁rail	-5013
▁chann	-5014
▁western	-5015
▁suggested	-5016
28	-5017
gra	-5018
▁Nor	-5019
celer	-5020
▁governments	-5021
▁tro	-5022
▁recognized	-5023
▁disapp	-5024
▁police	-5025
DF	-5026
utive	-5027
▁nerv	-5028
▁represents	-5029
li	-5030
▁Smith	-5031
▁goods	-5032
▁km	-5033
▁immig	-5034
▁request	-5035
band	-5036
iled	-5037
▁cognitive	-5038
stood	-5039
verty	-5040
yright	-5041
▁Charles	-5042
▁Foundation	-5043
atever	-5044
▁Figure	-5045
ION	-5046
▁increasingly	-5047
▁Ox	-5048
▁trial	-5049
▁prices	-5050
▁Mont	-5051
▁poverty	-5052
▁girls	-5053
▁Catholic	-5054
▁bow	-5055
▁Good	-5056
▁send	-5057
▁sed	-5058
▁minimum	-5059
▁officials	-5060
▁investment	-5061
▁du	-5062
▁sen	-5063
▁walls	-5064
▁component	-5065
▁Jose	-5066
▁interview	-5067
▁Pacific	-5068
▁consists	-5069
▁Engine	-5070
▁comment	-5071
▁pregnancy	-5072
▁7.	-5073
▁rural	-5074
igenous	-5075
▁playing	-5076
▁links	-5077
BC	-5078
▁decrease	-5079
▁instrument	-5080
▁Carol	-5081
▁Google	-5082
▁selected	-5083
▁blog	-5084
▁pump	-5085
▁containing	-5086
▁Lake	-5087
▁stars	-5088
▁accompl	-5089
▁continuous	-5090
▁views	-5091
▁neighbor	-5092
col	-5093
▁pig	-5094
▁fruits	-5095
▁concerned	-5096
▁biological	-5097
▁instruction	-5098
▁typical	-5099
▁Pub	-5100
▁stem	-5101
▁tried	-5102
stronom	-5103
▁Att	-5104
▁cardi	-5105
▁syndrome	-5106
▁played	-5107
29	-5108
oviet	-5109
▁measured	-5110
▁lik	-5111
▁reform	-5112
▁looked	-5113
▁closely	-5114
RO	-5115
ht	-5116
▁>	-5117
▁rein	-5118
name	-5119
▁harvest	-5120
▁employees	-5121
racy	-5122
▁format	-5123
MS	-5124
ye	-5125
▁Only	-5126
▁firm	-5127
▁convent	-5128
?”	-5129
▁justice	-5130
▁returned	-5131
▁Middle	-5132
▁director	-5133
▁thoughts	-5134
▁naturally	-5135
▁protected	-5136
6).	-5137
which	-5138
▁medium	-5139
▁od	-5140
▁Inf	-5141
▁188	-5142
▁Wind	-5143
tenance	-5144
▁proport	-5145
▁expensive	-5146
▁recovery	-5147
osa	-5148
▁valuable	-5149
▁suffering	-5150
▁apparent	-5151
▁contem	-5152
▁couple	-5153
▁(3	-5154
▁2000	-5155
▁Environmental	-5156
right	-5157
ellect	-5158
▁title	-5159
▁Federal	-5160
BN	-5161
▁simpl	-5162
▁CD	-5163
▁wear	-5164
▁circumst	-5165
▁Louis	-5166
▁follows	-5167
▁BC	-5168
▁Wild	-5169
▁therm	-5170
▁Please	-5171
indu	-5172
▁Henry	-5173
▁Keep	-5174
▁happened	-5175
▁rand	-5176
▁ingred	-5177
▁appearance	-5178
▁internet	-5179
ario	-5180
chers	-5181
▁appeared	-5182
▁leaving	-5183
▁Prov	-5184
▁argument	-5185
▁approaches	-5186
▁Nav	-5187
▁substant	-5188
ffee	-5189
▁lessons	-5190
▁helpful	-5191
▁Control	-5192
▁businesses	-5193
▁procedures	-5194
▁hundreds	-5195
▁satell	-5196
6)	-5197
75	-5198
’.	-5199
▁mit	-5200
▁elev	-5201
▁paid	-5202
▁assemb	-5203
TS	-5204
▁files	-5205
bert	-5206
▁alt	-5207
zy	-5208
▁latest	-5209
▁fle	-5210
▁train	-5211
fall	-5212
▁Ess	-5213
▁Have	-5214
▁rapidly	-5215
asure	-5216
▁prevention	-5217
icks	-5218
CO	-5219
lar	-5220
▁leadership	-5221
abil	-5222
burg	-5223
▁Vis	-5224
▁Kore	-5225
▁sick	-5226
▁advoc	-5227
▁residents	-5228
▁chief	-5229
▁pil	-5230
▁random	-5231
▁agriculture	-5232
▁exchange	-5233
▁conscious	-5234
▁discussed	-5235
itage	-5236
anguage	-5237
▁driving	-5238
▁millions	-5239
▁Id	-5240
▁gun	-5241
ING	-5242
▁Saf	-5243
▁sides	-5244
▁behaviour	-5245
▁Bre	-5246
▁adding	-5247
▁supplement	-5248
▁Review	-5249
7)	-5250
win	-5251
ooth	-5252
▁soldiers	-5253
▁intelligence	-5254
active	-5255
▁roots	-5256
▁Follow	-5257
▁Soviet	-5258
▁Ham	-5259
▁Power	-5260
state	-5261
▁portion	-5262
what	-5263
▁secure	-5264
▁diversity	-5265
rolog	-5266
▁Take	-5267
▁boost	-5268
umber	-5269
▁Rights	-5270
▁medications	-5271
▁Note	-5272
▁colors	-5273
▁inches	-5274
▁precise	-5275
▁dut	-5276
▁29	-5277
▁extract	-5278
▁feelings	-5279
bing	-5280
▁Ext	-5281
▁pray	-5282
▁visible	-5283
▁discovery	-5284
▁Ca	-5285
ola	-5286
tr	-5287
▁moral	-5288
▁claims	-5289
▁regularly	-5290
▁Add	-5291
▁sets	-5292
ascular	-5293
alysis	-5294
▁Group	-5295
CS	-5296
▁stret	-5297
▁correspond	-5298
▁infrastructure	-5299
dden	-5300
mas	-5301
cript	-5302
▁healthcare	-5303
▁Mo	-5304
▁capable	-5305
liam	-5306
▁horse	-5307
▁phr	-5308
▁documents	-5309
ota	-5310
▁knew	-5311
▁domestic	-5312
▁Constitution	-5313
▁concentration	-5314
icit	-5315
▁suffer	-5316
▁infected	-5317
100	-5318
▁recip	-5319
▁Ap	-5320
▁incl	-5321
▁laun	-5322
▁abuse	-5323
being	-5324
▁dial	-5325
▁Columb	-5326
▁Global	-5327
▁creative	-5328
ca	-5329
▁Div	-5330
▁purs	-5331
▁Micro	-5332
▁enhance	-5333
▁database	-5334
▁Wil	-5335
▁dental	-5336
▁entirely	-5337
▁mobile	-5338
stream	-5339
▁parties	-5340
▁describes	-5341
▁san	-5342
▁touch	-5343
▁stated	-5344
US	-5345
▁Ter	-5346
▁distingu	-5347
▁spiritual	-5348
▁pu	-5349
▁myth	-5350
▁wire	-5351
ulin	-5352
free	-5353
▁Alex	-5354
▁band	-5355
▁landscape	-5356
▁aircraft	-5357
anes	-5358
▁<	-5359
▁Budd	-5360
▁hunt	-5361
▁param	-5362
▁Design	-5363
▁intake	-5364
▁Management	-5365
abric	-5366
▁corpor	-5367
▁Company	-5368
▁library	-5369
ga	-5370
▁tal	-5371
inet	-5372
▁principle	-5373
▁impossible	-5374
4).	-5375
▁185	-5376
▁brown	-5377
▁talking	-5378
2).	-5379
▁Who	-5380
▁ble	-5381
fe	-5382
flow	-5383
ny	-5384
lers	-5385
agers	-5386
cling	-5387
▁recognize	-5388
ada	-5389
▁Form	-5390
▁adequ	-5391
anged	-5392
▁plate	-5393
▁possibly	-5394
▁massive	-5395
▁Virginia	-5396
IL	-5397
▁prem	-5398
▁sudden	-5399
▁Library	-5400
▁ages	-5401
ava	-5402
▁3,	-5403
ifies	-5404
▁calls	-5405
▁movements	-5406
orith	-5407
▁suitable	-5408
▁IN	-5409
▁Fact	-5410
▁diverse	-5411
▁improving	-5412
▁steel	-5413
aser	-5414
▁fertil	-5415
▁Emp	-5416
▁Nature	-5417
osal	-5418
▁poet	-5419
▁pure	-5420
ka	-5421
osph	-5422
▁survival	-5423
road	-5424
▁191	-5425
alian	-5426
▁accepted	-5427
▁producing	-5428
▁35	-5429
ibilities	-5430
▁Bat	-5431
▁rub	-5432
▁pref	-5433
▁shel	-5434
▁Professor	-5435
asp	-5436
isp	-5437
▁PC	-5438
cules	-5439
▁Last	-5440
▁sensitive	-5441
▁Ill	-5442
▁raise	-5443
▁apart	-5444
▁formal	-5445
▁substance	-5446
▁computers	-5447
▁discrim	-5448
pping	-5449
▁readers	-5450
▁restrict	-5451
▁allerg	-5452
▁originally	-5453
▁nan	-5454
▁Labor	-5455
uilding	-5456
raction	-5457
▁traffic	-5458
▁possibility	-5459
▁routine	-5460
VID	-5461
▁narr	-5462
▁gather	-5463
▁marriage	-5464
ki	-5465
▁candid	-5466
▁era	-5467
rants	-5468
▁secondary	-5469
▁Long	-5470
▁closed	-5471
oral	-5472
▁tow	-5473
erals	-5474
liament	-5475
olester	-5476
▁Florida	-5477
▁manufacturing	-5478
▁label	-5479
olve	-5480
ocratic	-5481
long	-5482
▁Early	-5483
▁Though	-5484
▁nurs	-5485
▁unlike	-5486
▁normally	-5487
▁Exp	-5488
▁2015	-5489
▁stages	-5490
▁universe	-5491
▁gall	-5492
alse	-5493
▁absolute	-5494
▁comprehensive	-5495
▁facilit	-5496
nam	-5497
uke	-5498
▁mamm	-5499
ushing	-5500
▁village	-5501
▁beneficial	-5502
la	-5503
▁trad	-5504
▁Exper	-5505
▁solve	-5506
▁opinion	-5507
▁worldwide	-5508
▁window	-5509
▁understood	-5510
▁ancest	-5511
▁chapter	-5512
▁inflammation	-5513
▁Phot	-5514
▁Writ	-5515
▁opened	-5516
▁repeated	-5517
▁sell	-5518
▁domin	-5519
▁funding	-5520
idden	-5521
▁chain	-5522
▁houses	-5523
▁Tem	-5524
▁consid	-5525
vironments	-5526
3).	-5527
▁adopted	-5528
▁courses	-5529
kin	-5530
▁cars	-5531
▁Finally	-5532
esity	-5533
▁AI	-5534
▁recon	-5535
▁pretty	-5536
▁networks	-5537
▁speaking	-5538
mic	-5539
▁leaf	-5540
▁revealed	-5541
1).	-5542
▁mac	-5543
▁selection	-5544
▁bones	-5545
▁acts	-5546
▁Cre	-5547
▁ax	-5548
▁Cult	-5549
▁fill	-5550
▁minim	-5551
▁Stat	-5552
▁antibiot	-5553
▁Ken	-5554
▁worse	-5555
▁narrow	-5556
▁acceler	-5557
olesterol	-5558
▁transition	-5559
▁dream	-5560
▁cultiv	-5561
▁Australian	-5562
27	-5563
▁Det	-5564
▁Time	-5565
▁plays	-5566
ropical	-5567
▁wildlife	-5568
▁Rad	-5569
▁lifest	-5570
ypes	-5571
▁Diff	-5572
apping	-5573
▁doctors	-5574
omach	-5575
▁abund	-5576
▁stick	-5577
▁listed	-5578
▁pictures	-5579
▁toler	-5580
▁prepare	-5581
▁Canadian	-5582
▁struggle	-5583
If	-5584
aria	-5585
▁generate	-5586
▁vehicles	-5587
▁Home	-5588
▁ISBN	-5589
onia	-5590
▁flight	-5591
▁aqu	-5592
▁achieved	-5593
ship	-5594
▁arms	-5595
▁afford	-5596
▁medication	-5597
teries	-5598
▁Disease	-5599
▁budget	-5600
▁aer	-5601
abits	-5602
▁fell	-5603
▁Office	-5604
pass	-5605
asive	-5606
▁Care	-5607
▁answers	-5608
▁stored	-5609
500	-5610
ua	-5611
ona	-5612
agues	-5613
▁harmful	-5614
▁expressed	-5615
mary	-5616
▁tun	-5617
faces	-5618
ashion	-5619
▁outl	-5620
▁possess	-5621
with	-5622
pet	-5623
throp	-5624
▁decline	-5625
ctic	-5626
▁sod	-5627
38	-5628
▁Gold	-5629
orter	-5630
▁Learn	-5631
lements	-5632
ester	-5633
▁Nations	-5634
▁professionals	-5635
urd	-5636
iology	-5637
▁latter	-5638
ala	-5639
▁Ann	-5640
born	-5641
▁USA	-5642
▁starts	-5643
obe	-5644
▁Sometimes	-5645
▁figures	-5646
war	-5647
▁filled	-5648
▁imper	-5649
▁electronic	-5650
▁Frank	-5651
▁seeing	-5652
▁OF	-5653
othe	-5654
▁cloud	-5655
▁apprec	-5656
ects	-5657
▁Hall	-5658
▁Paris	-5659
▁Report	-5660
▁decade	-5661
▁experiments	-5662
▁shell	-5663
▁accounts	-5664
▁Mad	-5665
▁kit	-5666
igation	-5667
▁warming	-5668
▁af	-5669
▁childhood	-5670
inder	-5671
▁moon	-5672
▁catch	-5673
45	-5674
▁tells	-5675
▁187	-5676
▁twice	-5677
ican	-5678
inity	-5679
orrow	-5680
▁choices	-5681
35	-5682
▁Cat	-5683
▁inject	-5684
ansion	-5685
▁Peter	-5686
▁truly	-5687
▁injuries	-5688
▁engage	-5689
▁wave	-5690
▁Natural	-5691
▁500	-5692
▁amb	-5693
▁museum	-5694
▁obtain	-5695
▁studying	-5696
olf	-5697
▁sentence	-5698
▁circumstances	-5699
▁traum	-5700
arant	-5701
▁audience	-5702
▁maintenance	-5703
organ	-5704
prise	-5705
▁Pers	-5706
▁index	-5707
aph	-5708
▁Study	-5709
▁Ma	-5710
▁discipl	-5711
▁agreement	-5712
▁suc	-5713
anda	-5714
oted	-5715
▁tail	-5716
▁Street	-5717
▁sports	-5718
▁witness	-5719
UR	-5720
▁aw	-5721
▁Dan	-5722
▁error	-5723
CT	-5724
iform	-5725
▁remaining	-5726
rors	-5727
▁Clin	-5728
▁Among	-5729
▁indeed	-5730
▁replaced	-5731
▁regional	-5732
▁intellect	-5733
mun	-5734
▁agencies	-5735
HO	-5736
lets	-5737
▁creates	-5738
▁district	-5739
▁Wood	-5740
ocracy	-5741
▁Richard	-5742
▁survive	-5743
▁journey	-5744
▁algorith	-5745
▁mountain	-5746
▁interaction	-5747
▁environments	-5748
▁Haw	-5749
rem	-5750
▁critic	-5751
zen	-5752
ivalent	-5753
▁Free	-5754
gent	-5755
izer	-5756
▁Joseph	-5757
▁2016	-5758
▁doubt	-5759
▁derived	-5760
▁molecules	-5761
▁administration	-5762
exp	-5763
.|	-5764
stone	-5765
▁edge	-5766
▁scholars	-5767
▁regulations	-5768
▁remote	-5769
▁sequence	-5770
imer	-5771
irus	-5772
▁sweet	-5773
▁Commit	-5774
▁composition	-5775
▁produces	-5776
▁wants	-5777
▁colour	-5778
▁unless	-5779
▁mixed	-5780
▁fasc	-5781
▁guidelines	-5782
▁www	-5783
▁download	-5784
EP	-5785
eper	-5786
▁lots	-5787
▁forests	-5788
99	-5789
▁cultures	-5790
tage	-5791
▁bio	-5792
▁gal	-5793
▁raw	-5794
spec	-5795
▁carefully	-5796
inations	-5797
▁generated	-5798
ogue	-5799
▁door	-5800
▁dust	-5801
▁depos	-5802
ribed	-5803
▁Tor	-5804
▁chart	-5805
▁unknown	-5806
ums	-5807
stein	-5808
▁Vict	-5809
▁coffee	-5810
oned	-5811
▁Rob	-5812
▁Camp	-5813
acing	-5814
icians	-5815
▁chosen	-5816
▁successfully	-5817
▁skill	-5818
▁battery	-5819
▁permanent	-5820
▁assistance	-5821
▁greatly	-5822
▁tiny	-5823
▁indicates	-5824
rid	-5825
erent	-5826
ivery	-5827
▁Find	-5828
▁Lab	-5829
▁hero	-5830
▁lands	-5831
▁purchase	-5832
gans	-5833
▁End	-5834
▁Pract	-5835
▁opening	-5836
▁wish	-5837
▁Quest	-5838
▁2020	-5839
▁waves	-5840
▁fossil	-5841
▁Northern	-5842
▁foundation	-5843
▁perce	-5844
inction	-5845
oster	-5846
▁inhib	-5847
itative	-5848
wing	-5849
▁optim	-5850
▁extended	-5851
▁supplies	-5852
▁locations	-5853
▁Chem	-5854
▁failed	-5855
▁princip	-5856
▁laboratory	-5857
▁ultimately	-5858
gu	-5859
▁8.	-5860
▁fly	-5861
▁Kh	-5862
▁gluc	-5863
▁slowly	-5864
▁insects	-5865
▁mechanism	-5866
▁cart	-5867
▁copy	-5868
▁newsp	-5869
▁fabric	-5870
▁opposite	-5871
icide	-5872
▁sight	-5873
▁machines	-5874
▁consistent	-5875
▁noise	-5876
▁description	-5877
8).	-5878
▁Bank	-5879
▁mild	-5880
▁grav	-5881
▁volunte	-5882
▁Str	-5883
▁pull	-5884
▁papers	-5885
ato	-5886
▁Dig	-5887
▁hus	-5888
▁ratio	-5889
▁enable	-5890
▁Oh	-5891
▁uns	-5892
▁Southern	-5893
▁authorities	-5894
itudes	-5895
▁circuit	-5896
▁implementation	-5897
▁decide	-5898
▁highlight	-5899
▁intervention	-5900
▁attend	-5901
▁Agricult	-5902
normal	-5903
▁Italy	-5904
▁daughter	-5905
uts	-5906
▁writer	-5907
▁signals	-5908
ita	-5909
▁institution	-5910
▁doi	-5911
▁Rome	-5912
▁transmission	-5913
body	-5914
▁Mill	-5915
▁Three	-5916
’,	-5917
▁tea	-5918
▁yield	-5919
no	-5920
kes	-5921
▁reject	-5922
▁fewer	-5923
▁stomach	-5924
▁corn	-5925
▁diox	-5926
▁preval	-5927
▁feeding	-5928
▁calcium	-5929
▁pra	-5930
▁trials	-5931
▁Current	-5932
▁exists	-5933
▁thor	-5934
▁conclusion	-5935
▁COVID	-5936
▁responses	-5937
▁mechanisms	-5938
▁organisms	-5939
36	-5940
cel	-5941
ini	-5942
▁sky	-5943
▁dedicated	-5944
.’	-5945
▁Penn	-5946
▁nine	-5947
▁acids	-5948
▁respir	-5949
▁Michael	-5950
▁consumers	-5951
abul	-5952
last	-5953
▁remark	-5954
hand	-5955
azing	-5956
▁roof	-5957
ston	-5958
▁emotions	-5959
▁Sol	-5960
-7	-5961
reland	-5962
▁reserv	-5963
TM	-5964
▁happy	-5965
▁marine	-5966
▁managed	-5967
▁Meth	-5968
▁accum	-5969
▁fiber	-5970
▁hydrogen	-5971
▁broken	-5972
▁listen	-5973
▁marked	-5974
▁reader	-5975
hma	-5976
▁limits	-5977
▁density	-5978
▁constitution	-5979
▁Sever	-5980
zil	-5981
▁unp	-5982
usal	-5983
▁300	-5984
luding	-5985
▁troops	-5986
▁Climate	-5987
▁eld	-5988
▁voc	-5989
▁Check	-5990
sey	-5991
ribe	-5992
▁habits	-5993
9).	-5994
▁cholesterol	-5995
ront	-5996
struct	-5997
▁programming	-5998
ena	-5999
▁alle	-6000
▁flav	-6001
▁brand	-6002
▁vessels	-6003
As	-6004
▁Cap	-6005
▁framework	-6006
▁immediate	-6007
▁conventional	-6008
zed	-6009
▁regul	-6010
▁necessarily	-6011
add	-6012
▁breathing	-6013
▁202	-6014
▁organized	-6015
▁Cancer	-6016
aped	-6017
▁supporting	-6018
▁represented	-6019
anta	-6020
reed	-6021
▁fixed	-6022
ella	-6023
▁Unf	-6024
antly	-6025
▁pron	-6026
▁Color	-6027
▁cutting	-6028
▁acknow	-6029
ocy	-6030
using	-6031
▁whereas	-6032
▁Administ	-6033
fish	-6034
yles	-6035
▁difficulty	-6036
▁lies	-6037
rating	-6038
▁housing	-6039
▁stands	-6040
▁variable	-6041
ifications	-6042
ml	-6043
▁agency	-6044
▁younger	-6045
umes	-6046
avery	-6047
▁destroyed	-6048
9)	-6049
▁Sing	-6050
icago	-6051
▁concrete	-6052
tic	-6053
itan	-6054
▁shift	-6055
▁sharing	-6056
▁Fort	-6057
▁photograph	-6058
▁communicate	-6059
utch	-6060
riers	-6061
▁ends	-6062
▁evaluation	-6063
▁2007	-6064
▁university	-6065
▁Creat	-6066
▁Native	-6067
▁Ireland	-6068
▁Revolution	-6069
▁desire	-6070
▁Moreover	-6071
33	-6072
▁handle	-6073
▁pup	-6074
▁underlying	-6075
▁transportation	-6076
cher	-6077
▁closer	-6078
▁walking	-6079
▁bear	-6080
▁Ocean	-6081
▁multi	-6082
▁standing	-6083
▁subs	-6084
▁Times	-6085
▁nerve	-6086
▁ethnic	-6087
▁participate	-6088
hist	-6089
▁Back	-6090
▁thousand	-6091
▁PM	-6092
▁rid	-6093
ctive	-6094
▁confidence	-6095
stract	-6096
▁regist	-6097
▁workshe	-6098
▁philosophy	-6099
▁Sign	-6100
Americ	-6101
bour	-6102
phone	-6103
▁powers	-6104
▁Cr	-6105
▁Look	-6106
▁cm	-6107
▁Mag	-6108
orses	-6109
▁gone	-6110
▁capture	-6111
▁cos	-6112
▁fighting	-6113
▁competition	-6114
ictionary	-6115
een	-6116
▁row	-6117
▁pool	-6118
▁Scot	-6119
▁dent	-6120
▁IP	-6121
eck	-6122
▁biggest	-6123
▁founded	-6124
ett	-6125
▁AS	-6126
tering	-6127
▁stable	-6128
▁attached	-6129
▁lifestyle	-6130
ints	-6131
▁prove	-6132
▁Gard	-6133
inating	-6134
▁married	-6135
▁whatever	-6136
▁shot	-6137
▁feedback	-6138
▁vulnerable	-6139
inking	-6140
▁Table	-6141
▁stimul	-6142
sis	-6143
▁zone	-6144
▁Eth	-6145
orous	-6146
▁comparison	-6147
▁inner	-6148
▁smoking	-6149
8)	-6150
▁crow	-6151
▁guarant	-6152
▁greenhouse	-6153
▁improvement	-6154
▁184	-6155
▁Big	-6156
▁Access	-6157
LA	-6158
▁Equ	-6159
▁rising	-6160
▁persist	-6161
▁occasion	-6162
▁colleagues	-6163
▁Top	-6164
▁flo	-6165
▁Plant	-6166
▁demonstrated	-6167
tra	-6168
▁turns	-6169
▁outbre	-6170
ache	-6171
▁Bab	-6172
ipping	-6173
▁relax	-6174
allel	-6175
▁Click	-6176
▁ourselves	-6177
▁36	-6178
▁45	-6179
▁Vit	-6180
▁epid	-6181
▁protocol	-6182
▁contamin	-6183
▁1990	-6184
▁overl	-6185
▁prompt	-6186
▁·	-6187
ait	-6188
abled	-6189
▁border	-6190
ading	-6191
▁Scott	-6192
▁arrived	-6193
▁resolution	-6194
▁Brown	-6195
▁estimates	-6196
▁Researchers	-6197
▁instruments	-6198
omic	-6199
▁medic	-6200
▁layers	-6201
▁Language	-6202
▁painting	-6203
▁List	-6204
▁join	-6205
▁shut	-6206
▁virtual	-6207
▁electron	-6208
▁Conn	-6209
▁Spain	-6210
▁unable	-6211
▁beliefs	-6212
▁territory	-6213
▁debate	-6214
itivity	-6215
isters	-6216
▁ships	-6217
▁Carolina	-6218
▁recognition	-6219
▁compounds	-6220
What	-6221
▁Non	-6222
heast	-6223
▁tank	-6224
▁reactions	-6225
inson	-6226
▁Does	-6227
▁architecture	-6228
-9	-6229
▁legs	-6230
▁Forest	-6231
struction	-6232
icon	-6233
▁Sil	-6234
▁entry	-6235
▁employment	-6236
▁2017	-6237
▁Teac	-6238
▁substances	-6239
▁bot	-6240
▁Open	-6241
▁grew	-6242
▁fract	-6243
ione	-6244
rine	-6245
▁Royal	-6246
▁artificial	-6247
▁functional	-6248
▁Pan	-6249
▁dioxide	-6250
▁psychological	-6251
▁false	-6252
▁Family	-6253
▁recept	-6254
▁politics	-6255
▁independence	-6256
▁Pop	-6257
▁membr	-6258
▁Special	-6259
exam	-6260
level	-6261
▁veter	-6262
▁clust	-6263
anches	-6264
▁eastern	-6265
▁Unfortunately	-6266
hered	-6267
▁Committee	-6268
▁Furthermore	-6269
▁4,	-6270
teen	-6271
▁zero	-6272
▁consumer	-6273
asters	-6274
▁chrom	-6275
▁drain	-6276
▁Comput	-6277
▁delivery	-6278
agon	-6279
▁taste	-6280
ups	-6281
then	-6282
▁Main	-6283
▁resulted	-6284
▁Additionally	-6285
itt	-6286
▁Age	-6287
▁supports	-6288
bra	-6289
▁Cy	-6290
▁Est	-6291
▁centre	-6292
how	-6293
ora	-6294
▁percentage	-6295
▁horiz	-6296
▁drawing	-6297
▁magnetic	-6298
There	-6299
under	-6300
▁Article	-6301
▁nearby	-6302
▁willing	-6303
▁frequent	-6304
▁Gal	-6305
esis	-6306
▁administr	-6307
▁customers	-6308
▁observations	-6309
cycl	-6310
▁Effect	-6311
▁twenty	-6312
▁Mel	-6313
elled	-6314
▁partner	-6315
▁carb	-6316
▁cryst	-6317
erior	-6318
▁vote	-6319
▁Similar	-6320
▁instructions	-6321
hop	-6322
▁Start	-6323
▁explo	-6324
▁smoke	-6325
▁markets	-6326
LE	-6327
▁mos	-6328
▁knows	-6329
▁define	-6330
occ	-6331
oding	-6332
called	-6333
▁surve	-6334
▁examine	-6335
IP	-6336
▁ru	-6337
▁cav	-6338
▁teen	-6339
▁Valley	-6340
▁bridge	-6341
▁accident	-6342
aud	-6343
▁Works	-6344
▁obesity	-6345
▁Board	-6346
▁neck	-6347
▁tall	-6348
▁relation	-6349
▁contained	-6350
rd	-6351
but	-6352
▁ment	-6353
▁matters	-6354
▁demonstrate	-6355
ureau	-6356
▁unus	-6357
▁scene	-6358
▁Less	-6359
bridge	-6360
▁distur	-6361
▁prev	-6362
▁cats	-6363
▁nest	-6364
▁connections	-6365
▁equivalent	-6366
DP	-6367
▁fu	-6368
▁hole	-6369
▁debt	-6370
umps	-6371
▁Adv	-6372
etime	-6373
▁tract	-6374
osion	-6375
plant	-6376
▁poison	-6377
such	-6378
▁delay	-6379
ugh	-6380
hesis	-6381
nee	-6382
▁Down	-6383
▁maps	-6384
earing	-6385
▁bread	-6386
▁Chicago	-6387
irds	-6388
▁boys	-6389
▁undert	-6390
▁burning	-6391
▁diagnosed	-6392
▁objective	-6393
▁supposed	-6394
▁expansion	-6395
▁presentation	-6396
▁Low	-6397
▁shop	-6398
▁employed	-6399
▁behaviors	-6400
▁pair	-6401
▁crime	-6402
▁fashion	-6403
▁accessible	-6404
▁department	-6405
▁EU	-6406
▁Empire	-6407
▁legislation	-6408
▁III	-6409
▁Lar	-6410
▁Four	-6411
▁camera	-6412
▁positions	-6413
espread	-6414
▁challenging	-6415
opy	-6416
▁mice	-6417
▁organs	-6418
irt	-6419
hav	-6420
▁din	-6421
▁sole	-6422
▁spok	-6423
ployment	-6424
▁maintaining	-6425
▁fever	-6426
▁Brazil	-6427
▁Several	-6428
▁trained	-6429
BS	-6430
▁MS	-6431
▁vs	-6432
▁1:	-6433
irty	-6434
▁defe	-6435
▁fer	-6436
▁interactions	-6437
▁ahead	-6438
▁joined	-6439
▁kidney	-6440
▁withd	-6441
▁issued	-6442
▁categories	-6443
▁Dar	-6444
▁Word	-6445
▁accuracy	-6446
isk	-6447
▁insurance	-6448
▁funds	-6449
▁reven	-6450
▁operate	-6451
▁192	-6452
▁players	-6453
▁hypothes	-6454
▁bond	-6455
▁swim	-6456
▁declared	-6457
▁everyday	-6458
▁Prop	-6459
icious	-6460
▁Italian	-6461
▁mand	-6462
▁server	-6463
▁cup	-6464
ushed	-6465
▁Bus	-6466
▁committed	-6467
▁thy	-6468
gments	-6469
▁Georg	-6470
▁ended	-6471
ifest	-6472
▁none	-6473
▁Young	-6474
ishment	-6475
▁reliable	-6476
weight	-6477
▁sheet	-6478
▁meal	-6479
▁1/	-6480
ritis	-6481
▁lect	-6482
▁refuge	-6483
▁destruction	-6484
▁Hill	-6485
▁chick	-6486
▁holid	-6487
▁comments	-6488
gon	-6489
▁ath	-6490
itely	-6491
▁astronom	-6492
▁explanation	-6493
orph	-6494
▁generations	-6495
fit	-6496
aked	-6497
▁Wik	-6498
rovers	-6499
▁rig	-6500
▁runs	-6501
▁spending	-6502
▁Resp	-6503
▁neur	-6504
▁negot	-6505
▁compare	-6506
▁involving	-6507
▁Hy	-6508
word	-6509
while	-6510
▁Orig	-6511
▁arrange	-6512
▁offering	-6513
You	-6514
▁vac	-6515
▁flag	-6516
ih	-6517
▁scan	-6518
▁Oxford	-6519
▁mining	-6520
▁industries	-6521
roduction	-6522
▁theories	-6523
otes	-6524
▁earthqu	-6525
▁(4	-6526
▁shif	-6527
▁participation	-6528
gical	-6529
top	-6530
▁align	-6531
▁voltage	-6532
IG	-6533
▁danger	-6534
▁Sciences	-6535
▁constructed	-6536
▁enemy	-6537
▁Author	-6538
▁smooth	-6539
▁exercises	-6540
▁Jo	-6541
eless	-6542
▁wasn	-6543
▁blocks	-6544
▁Eastern	-6545
▁hem	-6546
▁Guide	-6547
ented	-6548
▁passage	-6549
▁glucose	-6550
▁9.	-6551
gov	-6552
▁insulin	-6553
ults	-6554
▁ped	-6555
ourage	-6556
▁adequate	-6557
▁division	-6558
▁aband	-6559
▁Academy	-6560
eenth	-6561
▁photo	-6562
▁conven	-6563
▁launched	-6564
itter	-6565
▁oblig	-6566
▁covers	-6567
▁stroke	-6568
reek	-6569
▁calories	-6570
▁variables	-6571
▁Mean	-6572
▁award	-6573
▁usage	-6574
▁historic	-6575
39	-6576
▁dys	-6577
iability	-6578
▁Chapter	-6579
▁receiving	-6580
▁Holy	-6581
▁minerals	-6582
▁string	-6583
▁putting	-6584
▁bath	-6585
▁wait	-6586
ady	-6587
▁holding	-6588
▁widespread	-6589
▁interf	-6590
▁sections	-6591
OC	-6592
▁mode	-6593
▁electro	-6594
▁installed	-6595
▁evaluate	-6596
ymph	-6597
▁damaged	-6598
▁significance	-6599
ey	-6600
▁turning	-6601
▁Mer	-6602
▁rank	-6603
forcement	-6604
idity	-6605
▁Year	-6606
▁cards	-6607
ether	-6608
▁route	-6609
▁Mult	-6610
▁Viet	-6611
▁mm	-6612
scale	-6613
▁agreed	-6614
▁trip	-6615
▁sacr	-6616
making	-6617
▁match	-6618
▁moisture	-6619
net	-6620
otton	-6621
▁blow	-6622
▁intellectual	-6623
Is	-6624
▁nob	-6625
rooms	-6626
▁reduces	-6627
▁criteria	-6628
▁association	-6629
▁complicated	-6630
gs	-6631
▁150	-6632
aming	-6633
▁furn	-6634
▁tight	-6635
▁analys	-6636
rite	-6637
▁facing	-6638
▁forget	-6639
▁ongoing	-6640
▁gap	-6641
▁brings	-6642
▁meters	-6643
▁nitrogen	-6644
▁tissues	-6645
▁street	-6646
apse	-6647
▁county	-6648
▁ske	-6649
ittle	-6650
abulary	-6651
▁Indians	-6652
▁Py	-6653
▁script	-6654
▁Polic	-6655
▁Martin	-6656
65	-6657
IA	-6658
▁Community	-6659
▁Men	-6660
RA	-6661
iah	-6662
xts	-6663
▁AP	-6664
dule	-6665
34	-6666
omp	-6667
▁Ver	-6668
▁Irish	-6669
▁banks	-6670
idential	-6671
▁Kingdom	-6672
▁Centre	-6673
▁Victor	-6674
ediatric	-6675
▁composed	-6676
▁ingredients	-6677
▁holds	-6678
▁volcan	-6679
▁seeking	-6680
▁indicated	-6681
sen	-6682
▁breath	-6683
▁physics	-6684
▁weapons	-6685
oples	-6686
▁rely	-6687
▁Never	-6688
▁artist	-6689
▁designs	-6690
▁approved	-6691
▁surfaces	-6692
nat	-6693
ulty	-6694
▁hun	-6695
▁beings	-6696
▁coastal	-6697
opes	-6698
▁Nut	-6699
ighter	-6700
▁victims	-6701
CD	-6702
uh	-6703
emia	-6704
▁tube	-6705
▁contemporary	-6706
▁collaboration	-6707
▁blind	-6708
▁earn	-6709
▁proof	-6710
▁babies	-6711
▁slavery	-6712
▁measurements	-6713
she	-6714
▁crim	-6715
▁fulf	-6716
▁plenty	-6717
▁rivers	-6718
▁breeding	-6719
▁Resources	-6720
▁category	-6721
▁pregnant	-6722
▁settings	-6723
37	-6724
oven	-6725
ocation	-6726
▁Indust	-6727
▁merely	-6728
▁artists	-6729
▁estimate	-6730
▁publication	-6731
herent	-6732
▁centers	-6733
▁controls	-6734
▁constantly	-6735
▁frame	-6736
▁neither	-6737
▁trouble	-6738
▁rocks	-6739
▁metabol	-6740
▁recommendations	-6741
oln	-6742
▁Ep	-6743
▁missing	-6744
▁satellite	-6745
▁Dou	-6746
▁stre	-6747
▁election	-6748
▁Cho	-6749
▁outcome	-6750
▁strongly	-6751
agram	-6752
▁1980	-6753
▁mood	-6754
▁Party	-6755
▁tons	-6756
▁integrated	-6757
roat	-6758
▁respectively	-6759
RC	-6760
▁Try	-6761
ivered	-6762
▁Next	-6763
▁push	-6764
▁Face	-6765
▁pand	-6766
▁domain	-6767
▁entered	-6768
▁manip	-6769
▁theme	-6770
▁careful	-6771
▁Po	-6772
alls	-6773
▁1970	-6774
rene	-6775
agraph	-6776
rowing	-6777
▁Which	-6778
▁forth	-6779
▁roles	-6780
azine	-6781
▁dischar	-6782
UN	-6783
car	-6784
▁relief	-6785
aded	-6786
▁arts	-6787
▁Method	-6788
▁opposed	-6789
hent	-6790
▁acute	-6791
▁depart	-6792
▁Without	-6793
ibl	-6794
▁Naz	-6795
▁husband	-6796
▁succeed	-6797
rency	-6798
▁aims	-6799
▁ille	-6800
▁ring	-6801
▁considering	-6802
▁examination	-6803
▁tub	-6804
▁fold	-6805
▁Asian	-6806
▁Change	-6807
Go	-6808
10.	-6809
▁facility	-6810
▁principal	-6811
▁distributed	-6812
that	-6813
elesc	-6814
urric	-6815
▁viruses	-6816
▁announced	-6817
rot	-6818
hyth	-6819
▁boy	-6820
▁Super	-6821
▁molecular	-6822
▁commission	-6823
▁subsequent	-6824
esides	-6825
▁column	-6826
▁drawn	-6827
▁loved	-6828
▁sharp	-6829
▁orient	-6830
▁favorite	-6831
rial	-6832
▁Fund	-6833
▁wound	-6834
▁agents	-6835
▁influenced	-6836
rey	-6837
▁circle	-6838
▁guidance	-6839
airy	-6840
▁dose	-6841
▁repair	-6842
▁mortality	-6843
greg	-6844
▁beauty	-6845
▁radical	-6846
▁Atlantic	-6847
▁Security	-6848
df	-6849
vard	-6850
▁Christmas	-6851
Al	-6852
-18	-6853
▁intest	-6854
▁biology	-6855
▁detection	-6856
▁Rom	-6857
▁fro	-6858
▁strict	-6859
▁carrying	-6860
▁31	-6861
onomy	-6862
▁Islam	-6863
▁worry	-6864
akistan	-6865
▁asking	-6866
▁confirmed	-6867
▁mechanical	-6868
▁proportion	-6869
▁spaces	-6870
▁Network	-6871
▁clothing	-6872
aired	-6873
▁intense	-6874
▁flower	-6875
▁fourth	-6876
▁incred	-6877
▁Services	-6878
▁renewable	-6879
▁conversation	-6880
▁TV	-6881
ctor	-6882
▁archae	-6883
▁nervous	-6884
abeth	-6885
▁screening	-6886
cons	-6887
▁2006	-6888
▁Light	-6889
▁discrimination	-6890
yal	-6891
quit	-6892
▁Liter	-6893
▁seemed	-6894
▁desired	-6895
operation	-6896
▁messages	-6897
▁uncertain	-6898
▁Bill	-6899
▁Princ	-6900
▁arrest	-6901
▁pounds	-6902
▁essays	-6903
-10	-6904
▁forg	-6905
▁copper	-6906
▁Leg	-6907
▁Set	-6908
▁gram	-6909
▁Grand	-6910
etics	-6911
health	-6912
iana	-6913
▁Sym	-6914
olving	-6915
▁phosph	-6916
ventions	-6917
heric	-6918
▁compris	-6919
▁Hosp	-6920
▁rice	-6921
▁parallel	-6922
▁gut	-6923
asty	-6924
▁Type	-6925
▁phenomenon	-6926
▁mixt	-6927
▁fairly	-6928
▁realize	-6929
▁attempts	-6930
▁effectiveness	-6931
▁Den	-6932
▁1960	-6933
▁signed	-6934
▁Jul	-6935
▁silver	-6936
▁heating	-6937
cyclop	-6938
▁texts	-6939
▁focuses	-6940
▁imagine	-6941
▁somewhat	-6942
pes	-6943
▁2018	-6944
▁Desc	-6945
▁Secret	-6946
▁dependent	-6947
rary	-6948
iration	-6949
▁preventing	-6950
hyd	-6951
kins	-6952
incoln	-6953
▁horses	-6954
▁Perhaps	-6955
▁advantages	-6956
▁concerning	-6957
▁measurement	-6958
▁Pet	-6959
▁Yes	-6960
itals	-6961
istical	-6962
raining	-6963
va	-6964
▁Key	-6965
▁item	-6966
▁farming	-6967
▁District	-6968
ani	-6969
▁jump	-6970
▁paras	-6971
SS	-6972
▁400	-6973
▁correl	-6974
▁visitors	-6975
▁preparation	-6976
sts	-6977
▁hazard	-6978
oir	-6979
chen	-6980
▁crew	-6981
▁peak	-6982
▁moves	-6983
▁shock	-6984
▁edition	-6985
▁serving	-6986
▁grain	-6987
▁Reading	-6988
▁branches	-6989
▁characterized	-6990
▁2005	-6991
▁Modern	-6992
▁knowing	-6993
▁writers	-6994
▁controvers	-6995
▁Kar	-6996
▁score	-6997
▁trends	-6998
▁Administration	-6999
▁empt	-7000
▁Johnson	-7001
▁varieties	-7002
OL	-7003
▁bomb	-7004
▁advert	-7005
▁delivered	-7006
gers	-7007
▁honor	-7008
▁outer	-7009
▁dollars	-7010
onn	-7011
thritis	-7012
▁theore	-7013
CE	-7014
bles	-7015
peror	-7016
▁inher	-7017
▁Scientists	-7018
amins	-7019
▁soul	-7020
▁cleaning	-7021
▁implemented	-7022
▁Cast	-7023
▁biod	-7024
▁sought	-7025
▁session	-7026
▁officers	-7027
▁irrit	-7028
▁microb	-7029
▁disaster	-7030
▁statistics	-7031
▁respiratory	-7032
▁plus	-7033
▁thanks	-7034
▁Gr	-7035
▁interpretation	-7036
lvan	-7037
▁Rock	-7038
ortion	-7039
▁Tre	-7040
▁guard	-7041
▁photos	-7042
▁roughly	-7043
▁Columbia	-7044
isdom	-7045
▁AND	-7046
▁Sund	-7047
▁infect	-7048
oga	-7049
example	-7050
▁Prevention	-7051
ailed	-7052
▁butter	-7053
▁dealing	-7054
▁television	-7055
acco	-7056
▁Agency	-7057
▁remind	-7058
▁Sup	-7059
▁senior	-7060
▁presents	-7061
▁treating	-7062
He	-7063
▁Er	-7064
▁flour	-7065
▁rarely	-7066
▁absence	-7067
pling	-7068
▁rose	-7069
▁judge	-7070
▁passing	-7071
▁targets	-7072
igan	-7073
▁fed	-7074
▁inn	-7075
▁roads	-7076
rox	-7077
ounce	-7078
▁Init	-7079
▁Zeal	-7080
▁remed	-7081
▁Coll	-7082
▁observation	-7083
▁considerable	-7084
▁breed	-7085
▁Engineering	-7086
▁gained	-7087
▁anywhere	-7088
▁captured	-7089
▁spectrum	-7090
▁Swed	-7091
ovascular	-7092
▁gradually	-7093
▁falls	-7094
▁criminal	-7095
▁prominent	-7096
▁Eliz	-7097
▁marks	-7098
▁happening	-7099
▁Hand	-7100
▁Angel	-7101
▁combat	-7102
▁launch	-7103
▁prohib	-7104
▁reward	-7105
rous	-7106
▁Wall	-7107
▁maintained	-7108
▁Lib	-7109
▁5,	-7110
▁mg	-7111
▁exclus	-7112
▁switch	-7113
▁females	-7114
▁removal	-7115
▁mathematics	-7116
eness	-7117
uality	-7118
essions	-7119
ilation	-7120
▁proven	-7121
▁Remember	-7122
▁printing	-7123
95	-7124
MP	-7125
▁32	-7126
▁ye	-7127
olesc	-7128
▁chest	-7129
▁males	-7130
▁sales	-7131
▁shapes	-7132
▁islands	-7133
▁encouraged	-7134
sylvan	-7135
----	-7136
ommod	-7137
▁essentially	-7138
iral	-7139
medi	-7140
▁Sir	-7141
▁overw	-7142
▁teams	-7143
▁Having	-7144
▁assume	-7145
▁elected	-7146
▁nose	-7147
▁pharm	-7148
▁pestic	-7149
▁initially	-7150
%)	-7151
▁owner	-7152
▁stronger	-7153
▁investigation	-7154
▁Heb	-7155
________	-7156
eren	-7157
▁unw	-7158
rison	-7159
▁deeper	-7160
mes	-7161
outs	-7162
▁Pot	-7163
▁galax	-7164
lishing	-7165
▁Source	-7166
▁Zealand	-7167
▁id	-7168
▁Dev	-7169
▁defend	-7170
▁filter	-7171
▁proved	-7172
▁Ol	-7173
ruption	-7174
oom	-7175
sell	-7176
▁Page	-7177
▁decor	-7178
▁eliminate	-7179
ura	-7180
illa	-7181
▁Sand	-7182
▁clar	-7183
▁Contin	-7184
▁learners	-7185
▁formula	-7186
▁consideration	-7187
▁Sar	-7188
amics	-7189
icing	-7190
▁Safety	-7191
▁drought	-7192
tles	-7193
▁chlor	-7194
▁Person	-7195
▁engaged	-7196
▁turb	-7197
▁slaves	-7198
▁transp	-7199
▁tut	-7200
▁universal	-7201
▁2:	-7202
▁lake	-7203
orders	-7204
▁newly	-7205
▁observe	-7206
▁180	-7207
▁Bul	-7208
▁Lincoln	-7209
▁defense	-7210
▁tropical	-7211
▁stead	-7212
iological	-7213
▁informed	-7214
▁(198	-7215
▁spin	-7216
▁panel	-7217
▁asthma	-7218
▁Cell	-7219
▁lights	-7220
▁finished	-7221
▁pit	-7222
gence	-7223
heimer	-7224
▁satisf	-7225
▁disrupt	-7226
▁planned	-7227
▁bringing	-7228
IDS	-7229
▁Bu	-7230
▁MD	-7231
arsh	-7232
▁Jac	-7233
ostic	-7234
▁usual	-7235
▁seconds	-7236
▁statements	-7237
rane	-7238
▁alter	-7239
ogether	-7240
▁escape	-7241
▁temple	-7242
▁structural	-7243
32	-7244
ano	-7245
▁Whether	-7246
▁printed	-7247
▁windows	-7248
▁Pakistan	-7249
▁Organization	-7250
▁fung	-7251
▁Coast	-7252
▁implications	-7253
theless	-7254
%.	-7255
ohyd	-7256
▁mold	-7257
▁inspired	-7258
▁Neu	-7259
rance	-7260
▁Jeff	-7261
▁evil	-7262
▁cooking	-7263
▁evolved	-7264
▁difficulties	-7265
▁Rh	-7266
ograp	-7267
▁healing	-7268
▁kilomet	-7269
▁intensity	-7270
▁Lo	-7271
▁Pennsylvan	-7272
44	-7273
UT	-7274
aska	-7275
otype	-7276
▁adds	-7277
ogenic	-7278
▁brows	-7279
▁amazing	-7280
▁scar	-7281
▁Based	-7282
▁equally	-7283
osh	-7284
▁Ask	-7285
▁stability	-7286
▁adm	-7287
adder	-7288
ultane	-7289
▁hormone	-7290
▁detected	-7291
▁interpre	-7292
▁gro	-7293
ptions	-7294
▁branch	-7295
semb	-7296
▁wine	-7297
▁holes	-7298
▁dynamic	-7299
▁insert	-7300
▁microsc	-7301
▁complications	-7302
77	-7303
ontal	-7304
▁intent	-7305
HD	-7306
oric	-7307
▁van	-7308
atial	-7309
▁maybe	-7310
▁sport	-7311
▁bigger	-7312
AA	-7313
eut	-7314
iat	-7315
▁abnormal	-7316
▁Tim	-7317
▁encoun	-7318
▁Ut	-7319
▁Lim	-7320
oston	-7321
▁driven	-7322
opic	-7323
icted	-7324
▁cort	-7325
▁fishing	-7326
▁ordered	-7327
▁warning	-7328
▁neighborhood	-7329
bar	-7330
▁trigger	-7331
▁grid	-7332
▁Cross	-7333
▁corner	-7334
▁Pen	-7335
alm	-7336
▁caught	-7337
eli	-7338
▁Math	-7339
coming	-7340
▁transact	-7341
▁biom	-7342
▁terror	-7343
▁excessive	-7344
▁Oper	-7345
▁Scotland	-7346
▁plane	-7347
▁Online	-7348
▁abilities	-7349
▁engineers	-7350
▁(5	-7351
oids	-7352
▁Far	-7353
▁Lead	-7354
▁split	-7355
▁minute	-7356
▁recover	-7357
riend	-7358
effect	-7359
▁decay	-7360
▁consume	-7361
/0	-7362
▁fest	-7363
▁editor	-7364
▁racial	-7365
▁adverse	-7366
▁worst	-7367
▁laid	-7368
▁conqu	-7369
▁Ident	-7370
▁finds	-7371
▁demands	-7372
▁innovation	-7373
igue	-7374
▁Fire	-7375
ipedia	-7376
▁Heart	-7377
▁serves	-7378
▁Following	-7379
▁cab	-7380
▁videos	-7381
▁Director	-7382
▁provider	-7383
▁reaching	-7384
▁Treatment	-7385
▁Imp	-7386
▁Tom	-7387
oured	-7388
ali	-7389
▁py	-7390
▁stuff	-7391
▁Edward	-7392
▁Survey	-7393
▁reveal	-7394
▁literacy	-7395
▁bacterial	-7396
▁variation	-7397
▁sup	-7398
▁strain	-7399
▁examined	-7400
Ph	-7401
itory	-7402
iture	-7403
▁Palest	-7404
▁cattle	-7405
▁writes	-7406
▁Minister	-7407
▁conference	-7408
▁Pennsylvania	-7409
brid	-7410
▁subt	-7411
▁infant	-7412
▁earliest	-7413
▁comfortable	-7414
48	-7415
EE	-7416
iary	-7417
▁mineral	-7418
▁Ohio	-7419
▁angle	-7420
▁isolated	-7421
bec	-7422
▁lie	-7423
▁client	-7424
▁traditions	-7425
sm	-7426
▁Again	-7427
▁granted	-7428
IR	-7429
▁View	-7430
▁stores	-7431
▁claimed	-7432
▁assigned	-7433
▁compound	-7434
otal	-7435
▁pros	-7436
▁dates	-7437
▁config	-7438
▁inhabit	-7439
▁TO	-7440
▁modified	-7441
isco	-7442
▁laser	-7443
▁accommod	-7444
▁Nov	-7445
ieval	-7446
▁threats	-7447
▁suffered	-7448
▁listening	-7449
▁indigenous	-7450
▁vocabulary	-7451
fts	-7452
riz	-7453
▁processed	-7454
▁innovative	-7455
▁inequ	-7456
archy	-7457
▁Star	-7458
American	-7459
▁DO	-7460
▁sus	-7461
etary	-7462
▁ampl	-7463
▁Policy	-7464
▁Vitamin	-7465
▁overcome	-7466
▁regulation	-7467
▁antibiotics	-7468
oli	-7469
▁cash	-7470
▁diameter	-7471
▁scientist	-7472
▁coron	-7473
century	-7474
▁Mah	-7475
▁plot	-7476
▁Windows	-7477
▁peoples	-7478
▁exception	-7479
▁measuring	-7480
NS	-7481
▁ov	-7482
▁Lee	-7483
▁grows	-7484
▁channel	-7485
▁quantity	-7486
▁rac	-7487
ercury	-7488
▁sitting	-7489
▁pandemic	-7490
▁commitment	-7491
▁Parent	-7492
▁errors	-7493
▁unusual	-7494
▁decreased	-7495
▁uncom	-7496
athered	-7497
▁correctly	-7498
vin	-7499
ested	-7500
▁phrase	-7501
▁accompan	-7502
▁occurring	-7503
Ar	-7504
▁Ven	-7505
▁mur	-7506
▁agent	-7507
▁Elizabeth	-7508
▁providers	-7509
▁farms	-7510
itarian	-7511
▁preced	-7512
▁dietary	-7513
▁restric	-7514
An	-7515
▁aged	-7516
▁uniform	-7517
▁cham	-7518
HS	-7519
▁Ur	-7520
:10.	-7521
gien	-7522
produ	-7523
unicip	-7524
▁paragraph	-7525
rays	-7526
▁Moon	-7527
▁sensitivity	-7528
onym	-7529
▁faced	-7530
▁descript	-7531
▁Did	-7532
▁flows	-7533
angered	-7534
rav	-7535
soft	-7536
ude	-7537
▁Alz	-7538
haust	-7539
▁gases	-7540
ucky	-7541
ioxid	-7542
▁Dutch	-7543
▁calling	-7544
including	-7545
▁personality	-7546
▁pin	-7547
▁rab	-7548
▁neutral	-7549
▁coverage	-7550
▁substantial	-7551
▁hence	-7552
▁democracy	-7553
▁contributed	-7554
▁Obs	-7555
▁musical	-7556
▁protective	-7557
▁technological	-7558
▁)	-7559
▁poem	-7560
▁honey	-7561
atively	-7562
▁Polit	-7563
▁quiet	-7564
▁compens	-7565
▁AM	-7566
▁meals	-7567
▁neuro	-7568
cient	-7569
▁enorm	-7570
▁Indeed	-7571
▁experimental	-7572
mod	-7573
▁protecting	-7574
▁epis	-7575
▁contribution	-7576
hea	-7577
class	-7578
▁ceremon	-7579
▁mir	-7580
elfare	-7581
▁wheat	-7582
▁moderate	-7583
▁stations	-7584
▁(20	-7585
▁elder	-7586
▁reporting	-7587
ptom	-7588
▁Var	-7589
▁Road	-7590
▁physician	-7591
urated	-7592
▁identification	-7593
46	-7594
▁Ly	-7595
just	-7596
▁conj	-7597
▁buried	-7598
▁driver	-7599
▁cooling	-7600
har	-7601
▁ton	-7602
▁seat	-7603
▁heavily	-7604
▁schedule	-7605
76	-7606
cking	-7607
▁sizes	-7608
▁player	-7609
▁emphasis	-7610
icy	-7611
print	-7612
▁Boston	-7613
▁Analysis	-7614
CA	-7615
▁Assess	-7616
▁initiative	-7617
▁objectives	-7618
▁manufacturers	-7619
asant	-7620
igate	-7621
azon	-7622
opher	-7623
usive	-7624
▁narrative	-7625
▁Christians	-7626
▁deficiency	-7627
New	-7628
▁Due	-7629
▁Him	-7630
▁Harvard	-7631
▁strengthen	-7632
ishop	-7633
▁thermal	-7634
ENT	-7635
orted	-7636
▁1950	-7637
▁argue	-7638
▁mixture	-7639
▁Business	-7640
▁Division	-7641
▁Facebook	-7642
HA	-7643
▁coc	-7644
▁Force	-7645
▁desert	-7646
▁Mot	-7647
▁heads	-7648
▁forming	-7649
▁proceed	-7650
▁simultane	-7651
▁union	-7652
▁experiencing	-7653
▁manifest	-7654
▁weakness	-7655
▁productivity	-7656
▁ven	-7657
igare	-7658
▁advent	-7659
▁vertical	-7660
55	-7661
▁;	-7662
isted	-7663
ailable	-7664
▁Father	-7665
▁Spring	-7666
ette	-7667
▁tor	-7668
▁vel	-7669
▁Avoid	-7670
▁Later	-7671
▁Hebrew	-7672
▁Supreme	-7673
▁suscept	-7674
▁colonial	-7675
▁covering	-7676
▁Hospital	-7677
▁chemistry	-7678
▁Pur	-7679
▁Way	-7680
usalem	-7681
▁Being	-7682
▁trauma	-7683
▁Georgia	-7684
▁directed	-7685
dr	-7686
yer	-7687
▁pH	-7688
▁asc	-7689
plete	-7690
▁programme	-7691
inf	-7692
▁Hor	-7693
▁6,	-7694
▁Ins	-7695
▁Alzheimer	-7696
irth	-7697
reated	-7698
ustain	-7699
▁educators	-7700
▁Card	-7701
▁viewed	-7702
▁worship	-7703
writ	-7704
▁perm	-7705
▁Building	-7706
▁Conservation	-7707
▁fatty	-7708
▁imaging	-7709
▁visited	-7710
▁regarded	-7711
▁regardless	-7712
▁functioning	-7713
▁identifying	-7714
▁automatically	-7715
amps	-7716
▁falling	-7717
apor	-7718
urches	-7719
▁acres	-7720
▁stake	-7721
▁cotton	-7722
ba	-7723
anger	-7724
▁Incre	-7725
▁Solar	-7726
▁superior	-7727
▁translation	-7728
▁interventions	-7729
▁array	-7730
▁acquired	-7731
▁emerging	-7732
▁IV	-7733
door	-7734
endment	-7735
▁tables	-7736
▁counsel	-7737
▁stopped	-7738
▁sunlight	-7739
▁affecting	-7740
▁achievement	-7741
▁smell	-7742
▁Battle	-7743
▁Justice	-7744
IM	-7745
adow	-7746
▁taxes	-7747
▁towns	-7748
▁autism	-7749
▁concentrations	-7750
from	-7751
▁Unlike	-7752
▁vaccines	-7753
▁Cambridge	-7754
How	-7755
▁les	-7756
▁Blue	-7757
▁Books	-7758
▁aimed	-7759
▁hardware	-7760
▁appointed	-7761
49	-7762
▁IT	-7763
▁conserv	-7764
▁insight	-7765
▁concluded	-7766
ema	-7767
▁McC	-7768
▁Invest	-7769
ographical	-7770
▁availability	-7771
mers	-7772
ochem	-7773
▁surge	-7774
▁extend	-7775
▁scores	-7776
▁customer	-7777
▁Parliament	-7778
▁behavioral	-7779
ansas	-7780
berry	-7781
▁Iran	-7782
▁wheel	-7783
▁societies	-7784
▁Drug	-7785
▁sect	-7786
▁prosp	-7787
▁urine	-7788
▁thereby	-7789
uum	-7790
▁1)	-7791
▁75	-7792
amine	-7793
▁mosquit	-7794
▁lists	-7795
real	-7796
borne	-7797
▁Help	-7798
▁substit	-7799
▁supplements	-7800
▁disabilities	-7801
▁48	-7802
trans	-7803
▁Model	-7804
aws	-7805
una	-7806
uset	-7807
acts	-7808
uten	-7809
▁athlet	-7810
raq	-7811
▁audio	-7812
▁dimens	-7813
▁profit	-7814
▁Digital	-7815
neum	-7816
rical	-7817
▁Queen	-7818
▁calculated	-7819
mm	-7820
▁AL	-7821
ulpt	-7822
htt	-7823
▁Corn	-7824
▁bees	-7825
rolled	-7826
▁slave	-7827
▁button	-7828
▁consumed	-7829
zer	-7830
▁mine	-7831
▁conce	-7832
▁Little	-7833
▁sensors	-7834
▁Iss	-7835
▁alph	-7836
▁Jerusalem	-7837
▁variations	-7838
.'	-7839
▁UV	-7840
usetts	-7841
▁relie	-7842
▁robot	-7843
▁killing	-7844
▁Michigan	-7845
▁incident	-7846
▁ordinary	-7847
PR	-7848
night	-7849
▁Stan	-7850
▁girl	-7851
achusetts	-7852
▁characteristic	-7853
31	-7854
▁comprom	-7855
▁preserve	-7856
adel	-7857
pled	-7858
▁Play	-7859
▁planting	-7860
▁introduce	-7861
▁physically	-7862
advant	-7863
▁believes	-7864
-12	-7865
hus	-7866
▁Circ	-7867
▁Saint	-7868
▁lungs	-7869
quir	-7870
▁ran	-7871
▁herb	-7872
▁Korea	-7873
▁Small	-7874
▁perception	-7875
▁psychology	-7876
▁representation	-7877
angle	-7878
▁parameters	-7879
?"	-7880
▁AC	-7881
▁tap	-7882
ima	-7883
ruit	-7884
▁resid	-7885
▁authent	-7886
▁Protection	-7887
▁interactive	-7888
▁Mach	-7889
▁alive	-7890
▁cyber	-7891
▁hidden	-7892
▁charged	-7893
▁Lin	-7894
▁owned	-7895
▁oldest	-7896
▁vitamins	-7897
▁settlement	-7898
▁10,	-7899
▁quarter	-7900
For	-7901
▁cure	-7902
▁logic	-7903
▁orbit	-7904
▁steam	-7905
▁overwhel	-7906
▁addressed	-7907
▁expectations	-7908
79	-7909
▁asp	-7910
enger	-7911
▁Economic	-7912
asts	-7913
▁polar	-7914
holders	-7915
▁linear	-7916
▁withdraw	-7917
▁mountains	-7918
zym	-7919
▁duty	-7920
▁rect	-7921
▁Still	-7922
▁mathematical	-7923
▁Wal	-7924
▁plain	-7925
▁Gar	-7926
▁pointed	-7927
▁Colorado	-7928
▁equation	-7929
▁heritage	-7930
itual	-7931
lines	-7932
▁royal	-7933
▁losses	-7934
eor	-7935
▁38	-7936
▁Gall	-7937
▁poetry	-7938
▁stones	-7939
▁planets	-7940
▁temporary	-7941
▁permission	-7942
▁reasonable	-7943
▁Max	-7944
▁bag	-7945
▁dress	-7946
▁summary	-7947
▁Consider	-7948
66	-7949
erman	-7950
▁fought	-7951
▁sodium	-7952
▁expanded	-7953
▁Agriculture	-7954
BT	-7955
▁nice	-7956
▁determining	-7957
▁65	-7958
bean	-7959
▁chap	-7960
▁lymph	-7961
▁Scholar	-7962
▁migration	-7963
quar	-7964
▁argued	-7965
otherapy	-7966
▁exhaust	-7967
▁sentences	-7968
▁Sunday	-7969
▁cas	-7970
▁propag	-7971
-20	-7972
mann	-7973
▁EPA	-7974
▁cord	-7975
forest	-7976
▁clock	-7977
▁ensuring	-7978
▁computing	-7979
▁creatures	-7980
aus	-7981
▁boat	-7982
icular	-7983
▁2019	-7984
▁Gulf	-7985
▁abstract	-7986
▁exciting	-7987
Un	-7988
▁Head	-7989
▁analyze	-7990
▁duration	-7991
▁communications	-7992
TP	-7993
ami	-7994
▁Van	-7995
▁infants	-7996
▁humanity	-7997
▁marketing	-7998
MA	-7999
▁bless	-8000
▁tumor	-8001
▁updated	-8002
▁Physical	-8003
▁rational	-8004
▁Systems	-8005
▁mothers	-8006
ols	-8007
▁dism	-8008
▁keeps	-8009
▁scope	-8010
amination	-8011
▁Massachusetts	-8012
▁tob	-8013
rection	-8014
▁dominant	-8015
▁tick	-8016
▁Level	-8017
▁wonderful	-8018
▁?	-8019
rob	-8020
ptic	-8021
▁2004	-8022
▁fuels	-8023
▁Confed	-8024
▁Thanks	-8025
▁enables	-8026
eting	-8027
▁gast	-8028
▁harder	-8029
▁dramatic	-8030
irms	-8031
▁ecological	-8032
▁cardiovascular	-8033
▁Within	-8034
▁devast	-8035
▁||	-8036
ricts	-8037
▁sched	-8038
▁waiting	-8039
ao	-8040
omer	-8041
▁eru	-8042
▁gent	-8043
▁tong	-8044
▁Gener	-8045
▁Impro	-8046
▁flying	-8047
▁Section	-8048
▁chances	-8049
ician	-8050
▁Hawai	-8051
▁priority	-8052
▁interface	-8053
▁researcher	-8054
],	-8055
▁fats	-8056
▁AR	-8057
▁explicit	-8058
▁nutrient	-8059
▁investigate	-8060
▁advis	-8061
▁assets	-8062
▁focusing	-8063
uits	-8064
▁shed	-8065
▁exhibit	-8066
▁settled	-8067
▁extension	-8068
html	-8069
▁illegal	-8070
▁swit	-8071
▁saving	-8072
EF	-8073
▁SS	-8074
DS	-8075
neys	-8076
▁dim	-8077
▁fellow	-8078
▁transmit	-8079
ugg	-8080
▁Bang	-8081
▁tens	-8082
▁opposition	-8083
▁quantum	-8084
ogy	-8085
anted	-8086
ecess	-8087
▁metals	-8088
▁versus	-8089
▁interior	-8090
▁directions	-8091
Sp	-8092
ipe	-8093
▁(1)	-8094
▁drivers	-8095
▁exploration	-8096
▁myst	-8097
▁emotion	-8098
▁attitude	-8099
▁membrane	-8100
▁executive	-8101
jo	-8102
oul	-8103
▁fur	-8104
iments	-8105
▁begun	-8106
▁giant	-8107
▁manual	-8108
▁performing	-8109
aka	-8110
ket	-8111
▁Nob	-8112
▁lens	-8113
▁Major	-8114
alities	-8115
▁grains	-8116
▁thread	-8117
▁Process	-8118
▁managing	-8119
▁promoting	-8120
▁remarkable	-8121
▁corresponding	-8122
▁Pain	-8123
▁courts	-8124
▁carbohyd	-8125
▁colonies	-8126
▁elsewhere	-8127
▁definitely	-8128
▁capabilities	-8129
▁Iraq	-8130
▁marg	-8131
▁dance	-8132
▁anticip	-8133
▁symbols	-8134
▁Farm	-8135
▁faces	-8136
▁hunting	-8137
▁literary	-8138
▁separated	-8139
▁prey	-8140
▁versions	-8141
▁Ram	-8142
▁empty	-8143
▁finger	-8144
▁engaging	-8145
asy	-8146
▁rhyth	-8147
▁tempor	-8148
▁evident	-8149
▁officer	-8150
▁tobacco	-8151
▁arguments	-8152
▁medicines	-8153
agan	-8154
▁tip	-8155
▁peer	-8156
▁labour	-8157
▁hormones	-8158
▁removing	-8159
▁batteries	-8160
▁integration	-8161
▁establishment	-8162
▁34	-8163
▁Li	-8164
ivest	-8165
▁shaped	-8166
▁entering	-8167
▁boundaries	-8168
▁vegetation	-8169
rix	-8170
▁2003	-8171
▁spray	-8172
▁Arctic	-8173
▁lowest	-8174
▁pill	-8175
▁parad	-8176
▁sensor	-8177
▁entertain	-8178
▁lock	-8179
▁1,000	-8180
▁movie	-8181
▁shoot	-8182
▁digestive	-8183
rize	-8184
▁Crit	-8185
def	-8186
▁resil	-8187
▁classical	-8188
▁Christianity	-8189
68	-8190
IF	-8191
rus	-8192
kind	-8193
▁Put	-8194
▁Given	-8195
▁watching	-8196
▁differently	-8197
aren	-8198
iger	-8199
▁jur	-8200
▁exped	-8201
▁fires	-8202
▁differ	-8203
▁streets	-8204
▁telling	-8205
▁balanced	-8206
oto	-8207
▁cough	-8208
▁geomet	-8209
▁antioxid	-8210
▁container	-8211
▁involvement	-8212
▁tack	-8213
▁atoms	-8214
cyclopedia	-8215
▁dies	-8216
▁acting	-8217
▁traits	-8218
▁manager	-8219
▁Pass	-8220
▁chair	-8221
▁cancers	-8222
▁universities	-8223
urning	-8224
▁embra	-8225
▁Copyright	-8226
ogs	-8227
▁37	-8228
▁scr	-8229
▁addiction	-8230
▁continuing	-8231
▁households	-8232
vi	-8233
iva	-8234
▁Poly	-8235
▁Right	-8236
▁guess	-8237
▁wisdom	-8238
▁passion	-8239
▁contributions	-8240
iner	-8241
▁deeply	-8242
▁ethical	-8243
▁gravity	-8244
AB	-8245
iop	-8246
▁lip	-8247
▁Place	-8248
▁Greece	-8249
▁adolesc	-8250
▁engines	-8251
▁raising	-8252
▁sustainability	-8253
▁Fig	-8254
▁Gre	-8255
ashes	-8256
▁Point	-8257
▁wider	-8258
▁styles	-8259
▁Francisco	-8260
▁2)	-8261
▁Often	-8262
▁orders	-8263
▁Writing	-8264
▁Symptoms	-8265
▁Alexander	-8266
▁spr	-8267
▁Interest	-8268
',	-8269
Med	-8270
▁CH	-8271
▁Ott	-8272
▁conclus	-8273
▁disability	-8274
▁improvements	-8275
erty	-8276
▁2001	-8277
▁Code	-8278
▁ranging	-8279
▁assembly	-8280
ati	-8281
uther	-8282
▁Kids	-8283
▁celebrated	-8284
hire	-8285
▁Media	-8286
▁spoken	-8287
▁ash	-8288
lights	-8289
▁meaningful	-8290
▁consciousness	-8291
elve	-8292
▁oxid	-8293
▁Ve	-8294
▁Moses	-8295
▁ease	-8296
▁assert	-8297
▁Laboratory	-8298
▁transmitted	-8299
▁7,	-8300
thod	-8301
▁Fred	-8302
▁Move	-8303
▁Blood	-8304
▁sevent	-8305
▁Examples	-8306
▁flexible	-8307
▁lighting	-8308
▁newspaper	-8309
▁classified	-8310
wan	-8311
▁fing	-8312
▁Muslims	-8313
▁violent	-8314
▁applying	-8315
▁sessions	-8316
▁threatened	-8317
▁requirement	-8318
▁Ok	-8319
▁attribut	-8320
▁Testament	-8321
erts	-8322
▁RNA	-8323
▁ears	-8324
▁Behav	-8325
▁preferred	-8326
/201	-8327
unct	-8328
▁feels	-8329
▁fisher	-8330
▁promise	-8331
▁attach	-8332
ivestock	-8333
▁gathered	-8334
▁ecosystems	-8335
zo	-8336
agen	-8337
▁cub	-8338
▁dil	-8339
▁gly	-8340
aints	-8341
ourse	-8342
▁glac	-8343
▁tone	-8344
▁transc	-8345
▁lifetime	-8346
▁probability	-8347
▁strike	-8348
lock	-8349
▁Navy	-8350
▁powder	-8351
▁Islamic	-8352
▁fatigue	-8353
▁barriers	-8354
▁Hard	-8355
▁beat	-8356
utation	-8357
▁degrad	-8358
RNA	-8359
▁suit	-8360
▁ritual	-8361
▁compost	-8362
▁converted	-8363
▁resistant	-8364
▁SP	-8365
▁1930	-8366
▁Cost	-8367
▁Town	-8368
▁aging	-8369
▁spots	-8370
▁Amazon	-8371
▁Daniel	-8372
rag	-8373
sor	-8374
ipher	-8375
▁enormous	-8376
▁engagement	-8377
▁33	-8378
▁DC	-8379
asma	-8380
▁Support	-8381
▁outbreak	-8382
▁scenario	-8383
icity	-8384
▁Spirit	-8385
▁grades	-8386
▁sculpt	-8387
▁Philipp	-8388
.).	-8389
enced	-8390
▁Much	-8391
▁hall	-8392
▁libr	-8393
▁craft	-8394
▁trick	-8395
▁clients	-8396
ila	-8397
▁$1	-8398
bell	-8399
made	-8400
giene	-8401
▁Islands	-8402
▁painful	-8403
▁copyright	-8404
lete	-8405
▁(2)	-8406
▁hat	-8407
▁weigh	-8408
▁adapted	-8409
▁grounds	-8410
▁websites	-8411
▁Los	-8412
▁orb	-8413
▁Between	-8414
▁evening	-8415
▁wearing	-8416
▁replacement	-8417
raine	-8418
▁minds	-8419
▁pilot	-8420
▁myself	-8421
lu	-8422
avirus	-8423
▁saved	-8424
▁actively	-8425
▁perceived	-8426
▁Cub	-8427
ranean	-8428
▁Bureau	-8429
▁joints	-8430
▁Standard	-8431
▁hospitals	-8432
opl	-8433
endar	-8434
▁entit	-8435
▁optimal	-8436
ologically	-8437
47	-8438
▁loose	-8439
▁accord	-8440
▁restaur	-8441
esh	-8442
▁Ice	-8443
▁prox	-8444
▁sail	-8445
▁irrig	-8446
▁pione	-8447
▁barrier	-8448
▁recycling	-8449
▁dating	-8450
nut	-8451
play	-8452
▁embry	-8453
fulness	-8454
▁Conference	-8455
▁representative	-8456
▁ho	-8457
▁Ell	-8458
▁Mur	-8459
▁Hindu	-8460
▁pupils	-8461
▁reverse	-8462
▁Wildlife	-8463
▁equality	-8464
▁qualities	-8465
▁Understanding	-8466
And	-8467
▁Bal	-8468
gener	-8469
▁Short	-8470
▁soils	-8471
▁accompanied	-8472
eping	-8473
raham	-8474
istant	-8475
▁haven	-8476
▁Independ	-8477
▁opinions	-8478
▁prevalence	-8479
box	-8480
▁beans	-8481
▁dairy	-8482
▁safely	-8483
▁Vietnam	-8484
▁disadvant	-8485
tw	-8486
ois	-8487
onal	-8488
▁Hum	-8489
▁Mid	-8490
▁Should	-8491
▁Hyd	-8492
encing	-8493
▁province	-8494
▁Historical	-8495
▁discussions	-8496
inois	-8497
▁sulf	-8498
▁verb	-8499
▁planted	-8500
▁victory	-8501
▁indirect	-8502
CH	-8503
rh	-8504
▁chose	-8505
▁reign	-8506
▁returns	-8507
▁associate	-8508
▁attitudes	-8509
▁intention	-8510
asm	-8511
ouds	-8512
flamm	-8513
▁Emer	-8514
▁uncle	-8515
▁convey	-8516
▁holiday	-8517
▁Norm	-8518
▁sale	-8519
▁soph	-8520
▁photographs	-8521
▁rh	-8522
▁cul	-8523
ogens	-8524
▁genome	-8525
▁losing	-8526
▁clothes	-8527
▁club	-8528
thew	-8529
thon	-8530
zyme	-8531
▁dipl	-8532
▁juice	-8533
▁panels	-8534
▁varied	-8535
▁existed	-8536
▁fet	-8537
▁joy	-8538
olves	-8539
▁Prim	-8540
▁bleeding	-8541
▁seriously	-8542
ais	-8543
oons	-8544
▁drinks	-8545
▁acknowled	-8546
bel	-8547
books	-8548
▁armed	-8549
CP	-8550
▁ham	-8551
▁flash	-8552
ocolate	-8553
▁Proble	-8554
▁Convention	-8555
▁apparently	-8556
▁limitations	-8557
arn	-8558
iday	-8559
▁Area	-8560
▁Self	-8561
akespe	-8562
▁2010.	-8563
elescope	-8564
▁complexity	-8565
OM	-8566
olk	-8567
apes	-8568
oves	-8569
allow	-8570
▁alarm	-8571
▁stood	-8572
▁Working	-8573
▁handling	-8574
▁cow	-8575
▁cann	-8576
▁Field	-8577
▁prime	-8578
▁Portug	-8579
▁noticed	-8580
▁savings	-8581
▁shorter	-8582
acent	-8583
▁friendly	-8584
▁trem	-8585
▁Santa	-8586
operative	-8587
▁MA	-8588
When	-8589
plate	-8590
▁Chief	-8591
▁diarr	-8592
▁frust	-8593
section	-8594
▁tribes	-8595
▁kingdom	-8596
▁neurons	-8597
▁severity	-8598
▁influences	-8599
sembly	-8600
▁throat	-8601
▁Mond	-8602
▁Offic	-8603
▁dense	-8604
▁Biology	-8605
▁constra	-8606
obile	-8607
▁Arts	-8608
mentia	-8609
▁veloc	-8610
▁viral	-8611
reprene	-8612
▁ID	-8613
idal	-8614
▁coat	-8615
▁appeal	-8616
▁assumed	-8617
▁solving	-8618
▁varying	-8619
▁insights	-8620
▁Introduction	-8621
▁Rest	-8622
▁Image	-8623
▁council	-8624
▁graduate	-8625
▁exploring	-8626
▁circulation	-8627
'.	-8628
edu	-8629
unc	-8630
▁buff	-8631
▁churches	-8632
▁hypothesis	-8633
▁Occ	-8634
▁Music	-8635
akespeare	-8636
▁nutritional	-8637
apped	-8638
izers	-8639
▁Diet	-8640
▁enthus	-8641
▁scheme	-8642
▁literally	-8643
▁Fil	-8644
ackson	-8645
▁emerged	-8646
▁realized	-8647
▁expertise	-8648
▁Dam	-8649
▁Hence	-8650
▁Andrew	-8651
▁virtually	-8652
mia	-8653
▁tab	-8654
▁embed	-8655
▁mature	-8656
▁spinal	-8657
▁creativity	-8658
Sh	-8659
fast	-8660
▁12.	-8661
earch	-8662
▁occas	-8663
▁Import	-8664
▁integr	-8665
▁analyses	-8666
▁breaking	-8667
▁sciences	-8668
▁facilitate	-8669
▁specialized	-8670
▁Wed	-8671
▁paying	-8672
▁surgical	-8673
Ex	-8674
▁3:	-8675
▁Gh	-8676
▁caps	-8677
▁Relig	-8678
▁burden	-8679
▁contents	-8680
▁Wikipedia	-8681
▁prescribed	-8682
▁CA	-8683
▁Ide	-8684
western	-8685
▁pollut	-8686
▁immigrants	-8687
▁scat	-8688
adelph	-8689
▁Clean	-8690
▁bonds	-8691
▁committee	-8692
▁Rab	-8693
zymes	-8694
▁targeted	-8695
▁biodiversity	-8696
▁developments	-8697
▁(6	-8698
▁funded	-8699
▁purchased	-8700
uber	-8701
▁choosing	-8702
▁Secretary	-8703
▁celebrate	-8704
▁8,	-8705
▁Ba	-8706
▁178	-8707
Google	-8708
icating	-8709
specific	-8710
▁cooperation	-8711
▁NO	-8712
They	-8713
▁sad	-8714
▁persu	-8715
▁trail	-8716
▁Indones	-8717
▁habitats	-8718
▁occupied	-8719
awn	-8720
aware	-8721
▁sheep	-8722
▁package	-8723
▁districts	-8724
▁worksheets	-8725
TH	-8726
▁Lew	-8727
itting	-8728
▁orange	-8729
atus	-8730
▁Mess	-8731
▁tact	-8732
irable	-8733
▁Nutrition	-8734
izz	-8735
▁Ast	-8736
▁pel	-8737
esium	-8738
▁classic	-8739
▁convert	-8740
▁suddenly	-8741
▁11.	-8742
▁Illinois	-8743
EG	-8744
sex	-8745
▁Uk	-8746
▁gum	-8747
▁Near	-8748
▁Colon	-8749
▁welfare	-8750
▁references	-8751
▁kg	-8752
▁Die	-8753
world	-8754
shaped	-8755
▁crown	-8756
▁doses	-8757
▁shore	-8758
▁tends	-8759
▁Mexican	-8760
▁spatial	-8761
▁incidence	-8762
▁aggressive	-8763
▁controlling	-8764
cut	-8765
elect	-8766
▁Local	-8767
▁finish	-8768
▁heaven	-8769
▁notion	-8770
▁sacred	-8771
▁municip	-8772
▁annually	-8773
▁basically	-8774
olt	-8775
▁resc	-8776
▁Tradition	-8777
▁addressing	-8778
▁soy	-8779
▁sediment	-8780
▁possibilities	-8781
CR	-8782
umer	-8783
▁11,	-8784
▁50%	-8785
▁span	-8786
▁curve	-8787
▁thesis	-8788
▁FDA	-8789
▁Full	-8790
aternal	-8791
▁happiness	-8792
▁illnesses	-8793
▁personnel	-8794
▁Aff	-8795
issipp	-8796
▁wouldn	-8797
▁analyzed	-8798
▁calculate	-8799
▁specified	-8800
bury	-8801
disc	-8802
▁sees	-8803
▁Creek	-8804
▁cheap	-8805
▁hydro	-8806
▁Rather	-8807
▁dropped	-8808
▁reveals	-8809
▁streams	-8810
▁discipline	-8811
oded	-8812
▁gods	-8813
unning	-8814
▁crypt	-8815
▁currency	-8816
▁wat	-8817
chain	-8818
▁wooden	-8819
▁readily	-8820
▁earthquake	-8821
▁competitive	-8822
▁nom	-8823
▁wal	-8824
▁obst	-8825
▁till	-8826
▁wars	-8827
▁Ministry	-8828
imp	-8829
▁Fish	-8830
▁buying	-8831
▁Abraham	-8832
▁chromos	-8833
Gen	-8834
▁bare	-8835
▁anger	-8836
▁unlikely	-8837
▁reflected	-8838
words	-8839
▁spoke	-8840
▁regime	-8841
▁Different	-8842
▁strategic	-8843
▁workplace	-8844
▁Pu	-8845
▁Fed	-8846
▁Call	-8847
▁Watch	-8848
▁vegetable	-8849
▁quantities	-8850
rub	-8851
uan	-8852
ifice	-8853
▁Obama	-8854
adelphia	-8855
▁Connect	-8856
▁restore	-8857
▁develops	-8858
▁overview	-8859
▁everywhere	-8860
▁Capt	-8861
▁mouse	-8862
agnetic	-8863
▁Century	-8864
▁particle	-8865
▁preparing	-8866
But	-8867
aya	-8868
swe	-8869
orig	-8870
▁pace	-8871
▁ster	-8872
▁dimin	-8873
▁legit	-8874
▁accomplish	-8875
▁specialist	-8876
▁fo	-8877
ifier	-8878
▁2011.	-8879
▁blank	-8880
oca	-8881
▁55	-8882
▁gift	-8883
▁Applic	-8884
▁Contact	-8885
UL	-8886
flu	-8887
rait	-8888
▁incent	-8889
▁precip	-8890
▁citizen	-8891
▁gardens	-8892
▁privile	-8893
▁profound	-8894
▁Microsoft	-8895
▁vibr	-8896
▁Const	-8897
▁recre	-8898
▁subsc	-8899
riendly	-8900
▁compos	-8901
▁120	-8902
claim	-8903
eutic	-8904
▁2013.	-8905
iations	-8906
▁varies	-8907
▁worker	-8908
▁suicide	-8909
▁dimensions	-8910
▁Hit	-8911
green	-8912
▁globe	-8913
▁penet	-8914
outheast	-8915
▁documented	-8916
▁partnership	-8917
▁CE	-8918
roud	-8919
▁pets	-8920
▁tort	-8921
▁songs	-8922
▁ownership	-8923
▁provision	-8924
▁intr	-8925
▁sons	-8926
▁Jacob	-8927
▁fifth	-8928
▁origins	-8929
▁minority	-8930
▁restoration	-8931
▁hal	-8932
▁attributed	-8933
▁conversion	-8934
▁metabolism	-8935
▁Third	-8936
▁assignment	-8937
awa	-8938
ceans	-8939
▁2002	-8940
▁Print	-8941
cin	-8942
iano	-8943
▁Ren	-8944
▁bron	-8945
▁wing	-8946
42	-8947
uis	-8948
foot	-8949
▁Essay	-8950
▁Select	-8951
ilst	-8952
ensed	-8953
▁Line	-8954
urrent	-8955
▁2012.	-8956
▁Friday	-8957
▁breaks	-8958
▁tongue	-8959
▁judgment	-8960
▁regulate	-8961
▁distinguish	-8962
!”	-8963
lav	-8964
▁ol	-8965
cule	-8966
requ	-8967
▁gif	-8968
▁Action	-8969
▁default	-8970
▁predicted	-8971
▁Dictionary	-8972
▁collective	-8973
rue	-8974
▁Fair	-8975
issance	-8976
▁productive	-8977
▁dict	-8978
▁Similarly	-8979
▁restricted	-8980
▁simultaneously	-8981
mble	-8982
uled	-8983
▁reef	-8984
▁Wales	-8985
▁alert	-8986
▁profile	-8987
▁Clinical	-8988
▁accurately	-8989
▁PDF	-8990
athan	-8991
▁knee	-8992
ometer	-8993
▁deploy	-8994
▁themes	-8995
▁Mississipp	-8996
86	-8997
nia	-8998
eries	-8999
▁Kent	-9000
vation	-9001
economic	-9002
▁chicken	-9003
▁restrictions	-9004
▁OS	-9005
oline	-9006
ocated	-9007
▁draft	-9008
▁registered	-9009
▁bias	-9010
▁2010,	-9011
▁diets	-9012
▁borrow	-9013
▁visits	-9014
▁minimal	-9015
▁Computer	-9016
▁motivation	-9017
▁transferred	-9018
▁dramatically	-9019
No	-9020
OP	-9021
uity	-9022
▁Paper	-9023
▁hybrid	-9024
ceptions	-9025
▁Teachers	-9026
▁cellular	-9027
▁ultimate	-9028
▁conflicts	-9029
▁inhabitants	-9030
▁installation	-9031
▁developmental	-9032
▁dish	-9033
▁Sustain	-9034
▁Material	-9035
▁Teaching	-9036
▁channels	-9037
▁forecast	-9038
▁addresses	-9039
▁sister	-9040
▁villages	-9041
iterranean	-9042
▁designated	-9043
▁enforcement	-9044
▁fascinating	-9045
▁representing	-9046
lymp	-9047
orus	-9048
▁invention	-9049
▁preserved	-9050
▁practition	-9051
ffe	-9052
▁179	-9053
▁Neg	-9054
▁ion	-9055
▁oils	-9056
Figure	-9057
▁reaches	-9058
▁transplant	-9059
▁consequence	-9060
▁rod	-9061
worth	-9062
▁canal	-9063
▁Marine	-9064
▁absorb	-9065
▁thyroid	-9066
▁utility	-9067
▁livestock	-9068
▁Best	-9069
▁maxim	-9070
▁teens	-9071
▁Senate	-9072
▁payment	-9073
▁CP	-9074
▁Ha	-9075
▁Sus	-9076
▁Trust	-9077
▁pairs	-9078
▁Master	-9079
▁Ancient	-9080
▁Typ	-9081
▁tom	-9082
▁puzz	-9083
▁pneum	-9084
uscript	-9085
▁Altern	-9086
▁subsid	-9087
▁Jackson	-9088
▁strange	-9089
▁suggesting	-9090
▁establishing	-9091
EA	-9092
ouses	-9093
▁Bell	-9094
▁abandoned	-9095
▁elementary	-9096
▁efficiently	-9097
▁Nic	-9098
▁Mind	-9099
▁trace	-9100
▁Practice	-9101
▁algorithm	-9102
▁candidate	-9103
OD	-9104
plo	-9105
▁inch	-9106
▁summar	-9107
isations	-9108
▁electrons	-9109
▁instances	-9110
▁PL	-9111
▁surveys	-9112
▁satisfact	-9113
▁1920	-9114
▁clay	-9115
▁colony	-9116
▁perfectly	-9117
▁volunteers	-9118
▁Tit	-9119
power	-9120
▁Origin	-9121
▁mammals	-9122
▁prosper	-9123
▁displayed	-9124
▁acceptable	-9125
▁Map	-9126
▁sug	-9127
▁Answ	-9128
ective	-9129
▁couldn	-9130
▁estate	-9131
▁minimize	-9132
▁achieving	-9133
ught	-9134
▁Squ	-9135
▁Prom	-9136
▁wash	-9137
▁isolation	-9138
▁Individual	-9139
▁evolutionary	-9140
▁shr	-9141
▁Student	-9142
▁suggestions	-9143
%,	-9144
oked	-9145
▁NOT	-9146
bered	-9147
▁fluor	-9148
▁rooms	-9149
▁winds	-9150
▁debris	-9151
▁symptom	-9152
▁influenza	-9153
▁statistical	-9154
1–	-9155
▁39	-9156
igned	-9157
▁socio	-9158
▁compass	-9159
▁certific	-9160
▁invasion	-9161
▁whenever	-9162
▁initiatives	-9163
▁reproductive	-9164
eath	-9165
▁Hem	-9166
▁stere	-9167
▁permit	-9168
▁swelling	-9169
▁recording	-9170
▁Philadelphia	-9171
ouri	-9172
▁gest	-9173
▁Think	-9174
▁inherent	-9175
▁CS	-9176
text	-9177
▁unem	-9178
abling	-9179
▁favour	-9180
▁scales	-9181
▁optical	-9182
)|	-9183
)||	-9184
bow	-9185
mal	-9186
▁Ult	-9187
▁mask	-9188
aneous	-9189
▁prayer	-9190
▁neglect	-9191
▁fraction	-9192
▁flexibility	-9193
anz	-9194
▁arise	-9195
▁ruled	-9196
▁perpet	-9197
▁salmon	-9198
mega	-9199
inces	-9200
ospel	-9201
▁puts	-9202
terior	-9203
▁Order	-9204
▁sovere	-9205
▁managers	-9206
▁Tri	-9207
iders	-9208
press	-9209
regon	-9210
▁cream	-9211
▁Commons	-9212
▁anthrop	-9213
▁ancestors	-9214
dd	-9215
▁Fer	-9216
mented	-9217
profit	-9218
▁Garden	-9219
▁invasive	-9220
-201	-9221
ideo	-9222
▁Antar	-9223
▁entitled	-9224
▁Questions	-9225
▁CDC	-9226
orters	-9227
through	-9228
▁divine	-9229
▁repeat	-9230
▁applies	-9231
▁preserv	-9232
▁totally	-9233
▁discharge	-9234
▁translated	-9235
icts	-9236
thur	-9237
unar	-9238
child	-9239
▁Turn	-9240
▁pert	-9241
▁amino	-9242
ictions	-9243
▁sectors	-9244
▁paintings	-9245
▁3-	-9246
▁eleph	-9247
▁posts	-9248
▁outdoor	-9249
▁magnitude	-9250
▁Mississippi	-9251
mail	-9252
▁vig	-9253
▁revers	-9254
▁Egyptian	-9255
ika	-9256
ubble	-9257
▁glob	-9258
icking	-9259
▁requiring	-9260
▁Mediterranean	-9261
rowth	-9262
▁encl	-9263
▁crimes	-9264
▁exclud	-9265
1),	-9266
▁4:	-9267
aque	-9268
ifer	-9269
mond	-9270
otypes	-9271
▁Others	-9272
mentation	-9273
▁advances	-9274
▁collections	-9275
omed	-9276
zone	-9277
▁Bol	-9278
▁rom	-9279
▁hier	-9280
assium	-9281
▁merch	-9282
▁medieval	-9283
▁spacecraft	-9284
43	-9285
▁precisely	-9286
rose	-9287
after	-9288
▁Pope	-9289
▁Rail	-9290
▁passes	-9291
▁dynamics	-9292
▁candidates	-9293
85	-9294
▁copies	-9295
▁descend	-9296
▁corporate	-9297
▁9,	-9298
▁CT	-9299
ethe	-9300
▁15,	-9301
iblical	-9302
▁elderly	-9303
▁contributing	-9304
1/	-9305
stru	-9306
▁gate	-9307
▁bears	-9308
▁relate	-9309
▁strains	-9310
▁attended	-9311
▁alongside	-9312
Sc	-9313
▁ft	-9314
▁holy	-9315
▁nuts	-9316
▁2015.	-9317
▁Olymp	-9318
▁alumin	-9319
▁exceed	-9320
gr	-9321
▁250	-9322
▁Log	-9323
▁Name	-9324
▁remem	-9325
▁logical	-9326
▁operated	-9327
▁abundance	-9328
▁pesticides	-9329
amil	-9330
▁Walk	-9331
▁Peace	-9332
▁celeb	-9333
▁Berlin	-9334
▁1000	-9335
▁noun	-9336
▁adopt	-9337
▁broke	-9338
▁peers	-9339
▁Prince	-9340
▁weaken	-9341
▁Ont	-9342
▁lingu	-9343
▁impair	-9344
▁phones	-9345
▁stabil	-9346
▁contamination	-9347
rics	-9348
atoes	-9349
function	-9350
▁accounting	-9351
enda	-9352
oler	-9353
▁wise	-9354
▁zones	-9355
▁consent	-9356
▁arthritis	-9357
akh	-9358
▁Sn	-9359
aven	-9360
elly	-9361
rypt	-9362
▁Week	-9363
regular	-9364
▁surprise	-9365
▁diagnostic	-9366
▁ranges	-9367
▁amongst	-9368
▁visiting	-9369
inth	-9370
▁Ent	-9371
▁Text	-9372
▁straw	-9373
▁honest	-9374
▁fitness	-9375
sk	-9376
▁auto	-9377
▁inev	-9378
▁Oregon	-9379
▁segment	-9380
▁elections	-9381
aine	-9382
acles	-9383
▁bought	-9384
▁lecture	-9385
▁tension	-9386
▁evaluated	-9387
▁identical	-9388
▁oste	-9389
▁refused	-9390
▁meetings	-9391
▁separation	-9392
▁Nevertheless	-9393
ador	-9394
▁978	-9395
▁Bern	-9396
▁cited	-9397
▁plates	-9398
▁proposal	-9399
:||	-9400
▁(“	-9401
rint	-9402
▁Fac	-9403
ateral	-9404
ivation	-9405
▁Assembly	-9406
▁reflection	-9407
▁Unit	-9408
▁calm	-9409
▁Brain	-9410
urricane	-9411
▁underground	-9412
▁Encyclopedia	-9413
67	-9414
▁12,	-9415
▁axis	-9416
▁Proper	-9417
▁bottle	-9418
▁arrival	-9419
▁Training	-9420
▁encounter	-9421
▁absorption	-9422
▁developers	-9423
▁susceptible	-9424
dep	-9425
pre	-9426
▁grace	-9427
▁Wilson	-9428
▁endangered	-9429
2),	-9430
▁Product	-9431
Cl	-9432
▁Jr	-9433
▁bee	-9434
▁resemb	-9435
▁disturb	-9436
▁enjoyed	-9437
▁extraord	-9438
pdf	-9439
▁unn	-9440
▁privacy	-9441
▁employee	-9442
▁transformation	-9443
▁semi	-9444
▁cable	-9445
▁rainfall	-9446
▁attractive	-9447
ods	-9448
▁SC	-9449
olph	-9450
onents	-9451
▁Below	-9452
▁excav	-9453
▁valve	-9454
▁collapse	-9455
▁allergies	-9456
▁absolutely	-9457
ugs	-9458
eller	-9459
enter	-9460
▁Ariz	-9461
▁Need	-9462
isting	-9463
▁erect	-9464
▁hygiene	-9465
▁kitchen	-9466
69	-9467
▁es	-9468
▁Mrs	-9469
▁Iron	-9470
▁wings	-9471
▁reflects	-9472
▁survived	-9473
imensional	-9474
▁Scientific	-9475
imic	-9476
▁600	-9477
▁Spe	-9478
sters	-9479
▁Object	-9480
▁module	-9481
▁Culture	-9482
▁Station	-9483
▁Univers	-9484
▁regulatory	-9485
▁surprising	-9486
▁occasionally	-9487
▁dried	-9488
▁empire	-9489
▁diagram	-9490
▁pipe	-9491
astics	-9492
▁burned	-9493
▁erosion	-9494
▁Assessment	-9495
▁theoretical	-9496
1:	-9497
http	-9498
ashed	-9499
▁bull	-9500
▁doors	-9501
▁cycles	-9502
▁Adam	-9503
▁Tool	-9504
▁lakes	-9505
▁enzymes	-9506
▁selling	-9507
▁infectious	-9508
▁imagination	-9509
BM	-9510
urse	-9511
▁Luc	-9512
▁rib	-9513
ighth	-9514
▁spons	-9515
duction	-9516
▁duties	-9517
▁injured	-9518
▁revenue	-9519
▁welcome	-9520
burn	-9521
ocial	-9522
▁ending	-9523
▁binding	-9524
▁combine	-9525
▁systematic	-9526
▁Marc	-9527
▁disag	-9528
▁numer	-9529
▁aggreg	-9530
▁factory	-9531
▁sending	-9532
ieth	-9533
quiry	-9534
▁Cond	-9535
▁width	-9536
quality	-9537
▁deposits	-9538
▁sleeping	-9539
▁classification	-9540
rin	-9541
arks	-9542
▁hol	-9543
▁Risk	-9544
▁repet	-9545
ivities	-9546
▁Turkey	-9547
▁Matthew	-9548
▁Heritage	-9549
▁dementia	-9550
ker	-9551
▁bell	-9552
▁throw	-9553
▁clouds	-9554
▁beneath	-9555
▁herself	-9556
▁atmospheric	-9557
eem	-9558
▁1.5	-9559
▁Tar	-9560
▁sensory	-9561
isticated	-9562
▁reserved	-9563
▁residential	-9564
▁Ho	-9565
▁Doc	-9566
▁Unt	-9567
ATION	-9568
▁hung	-9569
▁schem	-9570
▁Philos	-9571
▁Schools	-9572
▁painted	-9573
isd	-9574
▁legend	-9575
▁faculty	-9576
▁minister	-9577
▁attempted	-9578
▁distinction	-9579
▁ow	-9580
gebra	-9581
ologic	-9582
▁Monday	-9583
▁gentle	-9584
▁Besides	-9585
▁Twitter	-9586
▁broader	-9587
Ps	-9588
fire	-9589
obic	-9590
ropol	-9591
mental	-9592
▁neural	-9593
▁expanding	-9594
▁guarantee	-9595
▁describing	-9596
▁punishment	-9597
▁vaccination	-9598
page	-9599
▁tag	-9600
▁hurt	-9601
▁Theory	-9602
▁register	-9603
▁relating	-9604
▁velocity	-9605
▁Meanwhile	-9606
▁algorithms	-9607
▁physicians	-9608
▁alternatives	-9609
▁Ash	-9610
rible	-9611
▁Temple	-9612
▁Angeles	-9613
▁engineer	-9614
▁spreading	-9615
▁Isa	-9616
▁1999	-9617
▁memor	-9618
▁Alaska	-9619
▁Williams	-9620
▁Available	-9621
▁Redu	-9622
▁hopes	-9623
▁enzyme	-9624
▁myster	-9625
imm	-9626
▁18,	-9627
▁reh	-9628
reens	-9629
▁fant	-9630
▁codes	-9631
▁offices	-9632
ayer	-9633
▁Death	-9634
▁Exerc	-9635
▁morph	-9636
▁abundant	-9637
")	-9638
88	-9639
▁Six	-9640
iative	-9641
▁Enter	-9642
▁onset	-9643
etically	-9644
▁dentist	-9645
▁entreprene	-9646
▁popularity	-9647
▁definitions	-9648
mn	-9649
▁ES	-9650
aver	-9651
even	-9652
▁cyl	-9653
aping	-9654
arten	-9655
▁cuts	-9656
▁Write	-9657
ipation	-9658
▁enhanced	-9659
▁tendency	-9660
▁administrative	-9661
▁rays	-9662
▁striking	-9663
▁philosoph	-9664
▁Jon	-9665
▁Sud	-9666
▁apps	-9667
▁Large	-9668
GE	-9669
found	-9670
▁Talk	-9671
▁Mountain	-9672
▁healthier	-9673
▁appointment	-9674
▁nic	-9675
▁pine	-9676
nesota	-9677
▁2011,	-9678
isition	-9679
▁Jersey	-9680
▁murder	-9681
▁stretch	-9682
Ind	-9683
oning	-9684
▁Cred	-9685
urable	-9686
▁encouraging	-9687
▁Hitler	-9688
▁freely	-9689
▁Francis	-9690
▁distant	-9691
▁prolong	-9692
▁homework	-9693
▁synthetic	-9694
▁containers	-9695
▁incorporated	-9696
▁Hig	-9697
emies	-9698
▁bite	-9699
▁cosm	-9700
▁disk	-9701
▁2014.	-9702
olds	-9703
worm	-9704
▁Apple	-9705
▁Trade	-9706
▁partial	-9707
▁scholar	-9708
▁officially	-9709
anol	-9710
▁Dyn	-9711
inery	-9712
▁recall	-9713
▁chocolate	-9714
▁returning	-9715
▁2012,	-9716
▁elevated	-9717
OW	-9718
uct	-9719
▁Integ	-9720
▁Mental	-9721
▁Mother	-9722
▁robust	-9723
▁nursing	-9724
▁prevents	-9725
dess	-9726
▁Son	-9727
▁Jones	-9728
▁approval	-9729
▁democratic	-9730
▁Script	-9731
▁tumors	-9732
gregation	-9733
▁memories	-9734
▁Currently	-9735
▁contaminated	-9736
On	-9737
itic	-9738
▁vom	-9739
▁Defin	-9740
▁Create	-9741
▁invented	-9742
iph	-9743
▁42	-9744
▁prol	-9745
▁incom	-9746
▁Number	-9747
▁Arizona	-9748
▁aside	-9749
ceeding	-9750
▁divide	-9751
▁adjacent	-9752
▁confident	-9753
▁ul	-9754
also	-9755
▁Path	-9756
▁pose	-9757
▁intra	-9758
▁contrad	-9759
▁liberal	-9760
▁metabolic	-9761
▁Shakespeare	-9762
da	-9763
iy	-9764
erb	-9765
▁crack	-9766
▁Corpor	-9767
▁posted	-9768
▁utilized	-9769
▁partially	-9770
▁Bh	-9771
▁PhD	-9772
▁wake	-9773
erness	-9774
▁grams	-9775
▁Future	-9776
▁sequences	-9777
▁Dun	-9778
engers	-9779
▁films	-9780
▁tomat	-9781
▁Stephen	-9782
▁continent	-9783
Be	-9784
▁LED	-9785
▁folk	-9786
ulates	-9787
▁Missouri	-9788
▁assessed	-9789
▁entrance	-9790
▁platforms	-9791
▁reputation	-9792
▁conclusions	-9793
.1	-9794
ghan	-9795
▁penal	-9796
▁spark	-9797
▁consisting	-9798
▁busy	-9799
▁camps	-9800
▁cloth	-9801
▁ninet	-9802
expected	-9803
▁finance	-9804
▁improves	-9805
▁Minnesota	-9806
▁prisoners	-9807
▁somewhere	-9808
▁assessments	-9809
best	-9810
▁13,	-9811
otion	-9812
▁fallen	-9813
▁neighb	-9814
▁speakers	-9815
▁swimming	-9816
▁phenomena	-9817
▁fertilizer	-9818
▁subsequently	-9819
▁44	-9820
stic	-9821
▁lob	-9822
▁germ	-9823
▁grad	-9824
▁pink	-9825
▁consuming	-9826
▁integrity	-9827
▁irrigation	-9828
DL	-9829
▁Ah	-9830
thal	-9831
itzer	-9832
▁Living	-9833
▁retain	-9834
▁twelve	-9835
▁affairs	-9836
▁shelter	-9837
▁tracking	-9838
▁confusion	-9839
▁exhibition	-9840
▁Sav	-9841
adequ	-9842
burgh	-9843
▁Tues	-9844
▁eaten	-9845
▁struck	-9846
▁predators	-9847
▁implementing	-9848
.),	-9849
cho	-9850
uro	-9851
imen	-9852
pert	-9853
rium	-9854
▁0.0	-9855
▁yes	-9856
▁loud	-9857
▁Grade	-9858
efficient	-9859
rological	-9860
▁operational	-9861
-15	-9862
▁gray	-9863
▁browser	-9864
▁deliber	-9865
▁grammar	-9866
effective	-9867
▁appreciate	-9868
▁horizontal	-9869
▁CR	-9870
▁Cook	-9871
▁loan	-9872
▁10,000	-9873
▁portray	-9874
isons	-9875
▁Turk	-9876
▁seal	-9877
▁worn	-9878
▁toile	-9879
▁oceans	-9880
▁("	-9881
▁Han	-9882
▁Allah	-9883
▁Event	-9884
▁thank	-9885
▁campus	-9886
▁flavor	-9887
▁weekly	-9888
▁allergic	-9889
▁bullying	-9890
▁reasoning	-9891
▁collecting	-9892
▁extinction	-9893
step	-9894
ermat	-9895
▁spine	-9896
▁brains	-9897
▁placing	-9898
▁calendar	-9899
▁flooding	-9900
▁consistently	-9901
▁participating	-9902
vy	-9903
▁fles	-9904
▁Benef	-9905
▁brush	-9906
berries	-9907
▁Parents	-9908
▁boundary	-9909
▁Indigenous	-9910
▁incorporate	-9911
AF	-9912
yes	-9913
rons	-9914
▁Ele	-9915
▁cave	-9916
▁Animal	-9917
▁assault	-9918
▁trading	-9919
▁absorbed	-9920
▁surrounded	-9921
ori	-9922
date	-9923
eras	-9924
▁Aud	-9925
▁brid	-9926
▁mile	-9927
▁Making	-9928
▁divers	-9929
velength	-9930
▁organism	-9931
▁intensive	-9932
▁prevented	-9933
▁promising	-9934
ji	-9935
▁Cra	-9936
inian	-9937
▁Club	-9938
▁dying	-9939
▁Nether	-9940
▁shallow	-9941
▁equipped	-9942
▁kilometers	-9943
▁manuscript	-9944
bage	-9945
▁muc	-9946
▁wage	-9947
formed	-9948
▁Carib	-9949
▁Guard	-9950
▁fault	-9951
▁shade	-9952
▁tourism	-9953
▁complement	-9954
▁convenient	-9955
Our	-9956
▁NY	-9957
▁Hot	-9958
▁Jun	-9959
ivate	-9960
▁Real	-9961
estone	-9962
▁cigare	-9963
wa	-9964
ylon	-9965
▁Java	-9966
▁Tenn	-9967
▁abol	-9968
utical	-9969
▁thres	-9970
▁shares	-9971
▁molecule	-9972
▁producers	-9973
▁intelligent	-9974
,’	-9975
▁Sab	-9976
▁Tay	-9977
▁Tro	-9978
▁ber	-9979
▁pest	-9980
▁assistant	-9981
▁attributes	-9982
itate	-9983
▁mart	-9984
teenth	-9985
elihood	-9986
▁malaria	-9987
▁multipl	-9988
▁Maryland	-9989
▁magazine	-9990
▁sampling	-9991
▁thoroughly	-9992
▁sophisticated	-9993
▁183	-9994
▁Opt	-9995
illance	-9996
▁Volume	-9997
▁export	-9998
▁retail	-9999
▁bearing	-10000
▁representatives	-10001
2:	-10002
▁Carl	-10003
▁Cold	-10004
▁deer	-10005
▁beach	-10006
▁impressive	-10007
▁Na	-10008
iler	-10009
▁16,	-10010
▁WHO	-10011
▁loop	-10012
▁partly	-10013
▁fingers	-10014
▁arranged	-10015
▁3)	-10016
▁Zh	-10017
itus	-10018
▁fan	-10019
osaur	-10020
▁keys	-10021
▁panc	-10022
iously	-10023
▁Story	-10024
▁femin	-10025
▁reservoir	-10026
▁historians	-10027
ref	-10028
▁GDP	-10029
▁Five	-10030
▁prone	-10031
▁avoiding	-10032
▁brothers	-10033
▁Standards	-10034
.:	-10035
TC	-10036
aze	-10037
▁Davis	-10038
▁Governor	-10039
▁adaptation	-10040
BA	-10041
▁17,	-10042
oting	-10043
▁stems	-10044
▁arrive	-10045
▁Ontario	-10046
▁speaker	-10047
▁Additional	-10048
▁independently	-10049
2-	-10050
Hz	-10051
300	-10052
See	-10053
doi	-10054
iac	-10055
▁vag	-10056
oving	-10057
▁cycl	-10058
▁seiz	-10059
▁Chall	-10060
ositive	-10061
▁mirror	-10062
chnology	-10063
▁accidents	-10064
jud	-10065
inch	-10066
plex	-10067
aning	-10068
▁emit	-10069
▁rent	-10070
▁fatal	-10071
compass	-10072
▁priest	-10073
friendly	-10074
▁intermedi	-10075
PDF	-10076
alog	-10077
inar	-10078
duate	-10079
▁robots	-10080
▁Depending	-10081
▁accomplished	-10082
▁Kn	-10083
/10.	-10084
ctors	-10085
otten	-10086
▁mail	-10087
▁timing	-10088
........	-10089
▁Centers	-10090
▁chamber	-10091
▁monthly	-10092
▁obviously	-10093
nings	-10094
▁depr	-10095
forced	-10096
▁Photo	-10097
▁treaty	-10098
▁Ak	-10099
▁ON	-10100
▁bind	-10101
▁rats	-10102
▁missions	-10103
▁antibodies	-10104
!!	-10105
74	-10106
▁20,	-10107
▁sel	-10108
about	-10109
▁Lower	-10110
▁shoulder	-10111
▁therapeutic	-10112
▁concentrated	-10113
orer	-10114
author	-10115
▁Lewis	-10116
▁tower	-10117
▁Luther	-10118
▁receives	-10119
▁inflammatory	-10120
achel	-10121
▁edges	-10122
▁Poland	-10123
▁Yellow	-10124
▁license	-10125
▁orientation	-10126
Pl	-10127
▁Bio	-10128
▁Enc	-10129
▁Jim	-10130
arios	-10131
▁acquire	-10132
▁diarrhea	-10133
▁displays	-10134
▁economics	-10135
▁affordable	-10136
▁destination	-10137
▁investments	-10138
▁NE	-10139
▁Num	-10140
ontin	-10141
▁exch	-10142
owered	-10143
▁Wednes	-10144
▁fiction	-10145
▁washing	-10146
▁embedded	-10147
▁criticism	-10148
PP	-10149
arded	-10150
iotic	-10151
▁fibers	-10152
▁pursue	-10153
▁surviv	-10154
▁valley	-10155
▁weapon	-10156
My	-10157
▁bags	-10158
▁substr	-10159
▁thirty	-10160
▁charges	-10161
▁predomin	-10162
▁tolerance	-10163
ela	-10164
owa	-10165
umns	-10166
▁Cit	-10167
▁Kim	-10168
▁Nep	-10169
▁Marsh	-10170
▁Darwin	-10171
▁speeds	-10172
istically	-10173
▁distress	-10174
▁writings	-10175
▁submitted	-10176
▁GM	-10177
▁Sem	-10178
eling	-10179
▁Anne	-10180
▁pale	-10181
▁2016.	-10182
▁designing	-10183
▁libraries	-10184
▁occupation	-10185
▁NG	-10186
▁Nation	-10187
▁commod	-10188
▁drives	-10189
▁Discuss	-10190
▁awarded	-10191
▁founder	-10192
▁civilization	-10193
▁BM	-10194
▁tough	-10195
healthy	-10196
▁sheets	-10197
▁steady	-10198
▁termin	-10199
▁altered	-10200
▁inflation	-10201
73	-10202
▁Cut	-10203
thodox	-10204
uclear	-10205
▁genus	-10206
natural	-10207
▁patent	-10208
▁Tuesday	-10209
▁avoided	-10210
▁14,	-10211
▁Jack	-10212
▁pock	-10213
▁Certain	-10214
▁landing	-10215
▁pleasure	-10216
di	-10217
enh	-10218
ttes	-10219
▁sew	-10220
thood	-10221
▁guns	-10222
iances	-10223
▁tanks	-10224
▁educated	-10225
▁Statistics	-10226
▁likelihood	-10227
bul	-10228
raid	-10229
▁Flow	-10230
▁Mand	-10231
▁loyal	-10232
▁protest	-10233
▁adolescents	-10234
▁manufacturer	-10235
psy	-10236
▁Case	-10237
▁proud	-10238
▁Korean	-10239
esthetic	-10240
▁seasonal	-10241
▁Generally	-10242
▁Ty	-10243
▁ADHD	-10244
▁frag	-10245
▁lasting	-10246
▁athletes	-10247
▁decreases	-10248
▁pediatric	-10249
▁publ	-10250
▁2009,	-10251
▁rough	-10252
▁deadly	-10253
▁Quality	-10254
▁reviews	-10255
▁Patients	-10256
▁refugees	-10257
▁highlights	-10258
RL	-10259
grade	-10260
▁Germans	-10261
aceutical	-10262
▁contrary	-10263
generation	-10264
▁Jefferson	-10265
▁Democratic	-10266
▁indicating	-10267
ja	-10268
pany	-10269
▁Sac	-10270
▁gaps	-10271
▁2009.	-10272
▁discom	-10273
▁vacuum	-10274
▁hazards	-10275
▁immunity	-10276
▁inequality	-10277
Fig	-10278
you	-10279
▁Du	-10280
list	-10281
▁blo	-10282
▁regen	-10283
▁meteor	-10284
64	-10285
uting	-10286
▁elabor	-10287
▁Protest	-10288
▁excited	-10289
▁confront	-10290
▁Psychology	-10291
Os	-10292
▁Basic	-10293
▁toxins	-10294
▁resolve	-10295
▁mistakes	-10296
▁mobility	-10297
▁severely	-10298
▁prescription	-10299
cal	-10300
han	-10301
atin	-10302
yard	-10303
onics	-10304
▁poorly	-10305
▁reviewed	-10306
▁Hu	-10307
▁mi	-10308
coin	-10309
emor	-10310
▁Sweden	-10311
▁jurisd	-10312
▁borders	-10313
▁defines	-10314
▁artistic	-10315
▁humidity	-10316
▁Wednesday	-10317
▁irregular	-10318
▁mutations	-10319
▁1998	-10320
omatic	-10321
onomous	-10322
▁labels	-10323
▁courage	-10324
▁essence	-10325
▁Electric	-10326
▁gathering	-10327
▁searching	-10328
gered	-10329
ricks	-10330
▁appet	-10331
▁diver	-10332
▁wages	-10333
▁settlers	-10334
▁Depression	-10335
98	-10336
▁Arm	-10337
commun	-10338
▁parks	-10339
▁indoor	-10340
▁legacy	-10341
To	-10342
case	-10343
▁Balt	-10344
▁Bush	-10345
▁cerv	-10346
▁gran	-10347
iscons	-10348
▁census	-10349
▁Emperor	-10350
▁traveling	-10351
III	-10352
▁UC	-10353
▁Hom	-10354
▁wed	-10355
▁1900	-10356
▁2008.	-10357
▁2015,	-10358
▁Sleep	-10359
▁potassium	-10360
▁occurrence	-10361
▁constitutional	-10362
agger	-10363
▁beet	-10364
spring	-10365
▁Daily	-10366
▁mapping	-10367
▁indicators	-10368
▁struggling	-10369
▁correlation	-10370
▁importantly	-10371
nals	-10372
▁arc	-10373
▁pou	-10374
▁Cape	-10375
▁Corps	-10376
▁Prime	-10377
▁milit	-10378
▁pests	-10379
▁submit	-10380
▁Species	-10381
▁devoted	-10382
Bl	-10383
onin	-10384
▁jew	-10385
▁drops	-10386
▁metres	-10387
ecessary	-10388
▁instant	-10389
▁Diabetes	-10390
Le	-10391
isconsin	-10392
▁dangers	-10393
▁mercury	-10394
▁threshold	-10395
▁celebration	-10396
Ed	-10397
▁Ce	-10398
conn	-10399
▁Sens	-10400
▁lact	-10401
▁enlar	-10402
▁talks	-10403
▁refrig	-10404
▁update	-10405
▁colored	-10406
▁forever	-10407
▁adoption	-10408
▁circular	-10409
▁hazardous	-10410
▁perspectives	-10411
ctu	-10412
▁HP	-10413
idae	-10414
ques	-10415
▁rend	-10416
▁2008,	-10417
▁Index	-10418
▁plasma	-10419
▁dispers	-10420
▁enabled	-10421
▁wavelength	-10422
▁illustrated	-10423
RS	-10424
uv	-10425
omal	-10426
▁10%	-10427
iking	-10428
▁hardly	-10429
▁multip	-10430
▁Question	-10431
▁confused	-10432
▁completion	-10433
▁Netherlands	-10434
Cs	-10435
▁vice	-10436
entieth	-10437
▁render	-10438
▁yields	-10439
▁unexpected	-10440
▁Hop	-10441
▁verse	-10442
▁distribut	-10443
▁sacrifice	-10444
▁continuously	-10445
2/	-10446
olly	-10447
▁anat	-10448
▁elig	-10449
▁Years	-10450
▁shoes	-10451
▁stiff	-10452
▁solely	-10453
▁workshop	-10454
▁relatives	-10455
▁CN	-10456
▁Gir	-10457
▁Samuel	-10458
TA	-10459
▁Belg	-10460
▁tape	-10461
▁Search	-10462
▁Particip	-10463
▁monument	-10464
▁fertility	-10465
cled	-10466
▁13.	-10467
eland	-10468
▁Dougl	-10469
▁Thurs	-10470
develop	-10471
verages	-10472
▁Econom	-10473
▁scenes	-10474
▁categor	-10475
▁outline	-10476
▁teaches	-10477
▁tremend	-10478
▁attacked	-10479
▁contributes	-10480
6%	-10481
All	-10482
arium	-10483
▁radi	-10484
▁argues	-10485
▁earned	-10486
▁broadcast	-10487
▁pathogens	-10488
Ad	-10489
vol	-10490
▁Sep	-10491
▁Grant	-10492
▁algae	-10493
▁Wisconsin	-10494
▁injection	-10495
action	-10496
▁Types	-10497
▁coral	-10498
▁verte	-10499
ergarten	-10500
▁suspect	-10501
▁distances	-10502
▁recommends	-10503
▁extraordinary	-10504
ERS	-10505
▁WW	-10506
▁bin	-10507
▁heal	-10508
person	-10509
▁deleg	-10510
▁atomic	-10511
▁attain	-10512
▁hunger	-10513
▁Present	-10514
▁carries	-10515
sequently	-10516
▁marginal	-10517
▁parliament	-10518
▁organisations	-10519
▁hide	-10520
▁cataly	-10521
▁enabling	-10522
dimensional	-10523
BI	-10524
–19	-10525
cult	-10526
type	-10527
▁Job	-10528
leton	-10529
▁Nazi	-10530
▁asks	-10531
▁desk	-10532
▁Front	-10533
▁safer	-10534
dominal	-10535
▁pushed	-10536
quarters	-10537
▁classrooms	-10538
3:	-10539
▁PA	-10540
anas	-10541
grad	-10542
▁Rub	-10543
▁boxes	-10544
▁Scottish	-10545
▁drainage	-10546
▁promotes	-10547
▁discomfort	-10548
▁electronics	-10549
▁Rose	-10550
▁implies	-10551
▁encourages	-10552
LC	-10553
igm	-10554
▁Fall	-10555
▁misc	-10556
▁aster	-10557
▁discl	-10558
▁obser	-10559
▁Period	-10560
▁modeling	-10561
▁sustained	-10562
▁Throughout	-10563
▁progressive	-10564
neg	-10565
acle	-10566
▁Bit	-10567
▁Earl	-10568
ronaut	-10569
▁Charl	-10570
▁dollar	-10571
▁Behavior	-10572
▁execution	-10573
3%	-10574
”)	-10575
▁Soft	-10576
▁quad	-10577
▁pathways	-10578
▁wireless	-10579
▁Industrial	-10580
Co	-10581
▁Oil	-10582
▁Marx	-10583
▁perf	-10584
icides	-10585
▁Romans	-10586
▁defeat	-10587
▁golden	-10588
▁ruling	-10589
▁Caribbean	-10590
▁capability	-10591
▁STEM	-10592
antine	-10593
atories	-10594
inflamm	-10595
▁Primary	-10596
▁bladder	-10597
▁mystery	-10598
▁Transport	-10599
▁influential	-10600
▁reproduction	-10601
anth	-10602
role	-10603
insula	-10604
▁alike	-10605
▁brill	-10606
original	-10607
▁cluster	-10608
▁Intellig	-10609
▁inclusion	-10610
▁scenarios	-10611
▁PH	-10612
▁Imag	-10613
▁gear	-10614
▁spir	-10615
swered	-10616
▁Usually	-10617
▁Download	-10618
▁password	-10619
aft	-10620
law	-10621
inite	-10622
▁Poll	-10623
▁Sher	-10624
▁buck	-10625
▁fate	-10626
▁vine	-10627
▁Linux	-10628
▁ought	-10629
▁League	-10630
▁Amendment	-10631
▁arrangement	-10632
▁distinctive	-10633
▁inspiration	-10634
▁configuration	-10635
▁(10	-10636
▁800	-10637
▁Pap	-10638
▁alk	-10639
▁Greg	-10640
▁cope	-10641
▁utilize	-10642
▁featured	-10643
▁magnesium	-10644
▁conducting	-10645
arer	-10646
pson	-10647
▁Bor	-10648
ceeds	-10649
sized	-10650
onymous	-10651
▁fluids	-10652
iversary	-10653
▁epidemic	-10654
▁Wars	-10655
▁hill	-10656
▁pond	-10657
▁Month	-10658
▁Bridge	-10659
▁Things	-10660
▁notable	-10661
▁comparing	-10662
▁equations	-10663
▁meditation	-10664
▁Ib	-10665
income	-10666
▁caffe	-10667
PD	-10668
QL	-10669
Pro	-10670
nea	-10671
vae	-10672
▁5:	-10673
rise	-10674
▁Pay	-10675
istent	-10676
▁routes	-10677
▁Mathemat	-10678
▁publications	-10679
asa	-10680
ococc	-10681
▁1800	-10682
▁AIDS	-10683
▁Hung	-10684
▁Overall	-10685
▁accompany	-10686
▁suspected	-10687
▁synthesis	-10688
▁bark	-10689
▁irre	-10690
▁mira	-10691
▁tied	-10692
▁2007,	-10693
▁firms	-10694
▁snake	-10695
reement	-10696
▁cheese	-10697
▁phases	-10698
▁racism	-10699
▁inadequ	-10700
▁controversial	-10701
▁@	-10702
▁1997	-10703
▁Duke	-10704
▁horn	-10705
▁gains	-10706
▁meter	-10707
▁matrix	-10708
ibration	-10709
▁generating	-10710
▁administered	-10711
▁Es	-10712
▁Tax	-10713
▁Exec	-10714
▁tribe	-10715
▁extrem	-10716
▁columns	-10717
▁Chemical	-10718
▁simulation	-10719
▁transformed	-10720
▁PR	-10721
▁Body	-10722
▁frog	-10723
▁Trump	-10724
▁yeast	-10725
▁Observ	-10726
3),	-10727
fly	-10728
▁Hay	-10729
▁Hon	-10730
▁Rus	-10731
doors	-10732
ooked	-10733
▁100%	-10734
▁Rand	-10735
iosity	-10736
▁frozen	-10737
▁diagnose	-10738
▁historian	-10739
▁surprised	-10740
▁progression	-10741
oa	-10742
ulsion	-10743
▁Along	-10744
▁Until	-10745
▁Kansas	-10746
▁chains	-10747
▁Healthy	-10748
▁mistake	-10749
▁undergo	-10750
▁imperial	-10751
▁potatoes	-10752
▁uncertainty	-10753
▁%	-10754
cor	-10755
agle	-10756
uble	-10757
▁apple	-10758
▁Carbon	-10759
▁combust	-10760
▁distinguished	-10761
▁°	-10762
fold	-10763
▁soap	-10764
iatric	-10765
▁Python	-10766
▁thrive	-10767
ognition	-10768
▁Example	-10769
▁Movement	-10770
▁rejected	-10771
▁specimens	-10772
▁conservative	-10773
▁organisation	-10774
sub	-10775
▁Kat	-10776
atile	-10777
▁Barb	-10778
▁Guid	-10779
▁nort	-10780
ancial	-10781
▁Begin	-10782
▁afraid	-10783
▁makers	-10784
▁methane	-10785
▁disappear	-10786
▁stimulate	-10787
▁therapies	-10788
cr	-10789
inea	-10790
▁Fem	-10791
▁Ten	-10792
▁mes	-10793
uster	-10794
▁beam	-10795
▁lift	-10796
▁nodes	-10797
▁reson	-10798
▁timber	-10799
▁situated	-10800
▁economies	-10801
▁permitted	-10802
ECT	-10803
▁Date	-10804
school	-10805
▁Afghan	-10806
▁Miller	-10807
stration	-10808
▁provisions	-10809
▁groundwater	-10810
▁traditionally	-10811
rip	-10812
▁Fram	-10813
▁Love	-10814
▁anch	-10815
ternoon	-10816
▁Thursday	-10817
▁necessity	-10818
▁compliance	-10819
▁persistent	-10820
▁assumptions	-10821
▁associations	-10822
▁overwhelming	-10823
cts	-10824
ocent	-10825
osity	-10826
▁1940	-10827
▁2013,	-10828
▁Buddh	-10829
▁harsh	-10830
▁shouldn	-10831
▁originated	-10832
▁discoveries	-10833
▁coordination	-10834
▁Jean	-10835
▁chip	-10836
▁zinc	-10837
▁artif	-10838
▁deals	-10839
▁opens	-10840
▁Recent	-10841
▁compat	-10842
▁vomiting	-10843
▁qualified	-10844
▁connecting	-10845
▁carbohydrates	-10846
UC	-10847
azz	-10848
▁Fa	-10849
velt	-10850
▁bills	-10851
▁declined	-10852
▁doctrine	-10853
▁Indonesia	-10854
▁calculations	-10855
▁”	-10856
alo	-10857
▁49	-10858
▁21,	-10859
▁Dra	-10860
▁crust	-10861
▁thinks	-10862
ropriate	-10863
▁100,000	-10864
▁invited	-10865
▁explored	-10866
▁governor	-10867
▁acceptance	-10868
▁Educational	-10869
FS	-10870
uns	-10871
gged	-10872
omon	-10873
anium	-10874
▁anten	-10875
▁Taylor	-10876
▁thickness	-10877
DR	-10878
uz	-10879
▁SO	-10880
high	-10881
▁28,	-10882
▁Imm	-10883
▁por	-10884
▁Jane	-10885
▁rear	-10886
hester	-10887
▁Prior	-10888
▁masses	-10889
▁rocket	-10890
▁tracks	-10891
▁Therapy	-10892
▁ensures	-10893
▁stressed	-10894
▁packaging	-10895
abilitation	-10896
59	-10897
atre	-10898
orks	-10899
▁Ara	-10900
▁Has	-10901
▁Mos	-10902
▁Tib	-10903
screen	-10904
▁coins	-10905
▁expend	-10906
▁conversations	-10907
ez	-10908
this	-10909
ogram	-10910
▁Show	-10911
enders	-10912
icting	-10913
isphere	-10914
▁hypert	-10915
heastern	-10916
▁coordin	-10917
▁succeeded	-10918
▁extraction	-10919
▁MP	-10920
▁jaw	-10921
there	-10922
▁torn	-10923
▁Chronic	-10924
▁answered	-10925
▁deterior	-10926
▁RE	-10927
nedy	-10928
▁Flu	-10929
▁ride	-10930
abetic	-10931
▁Facts	-10932
▁Related	-10933
▁admitted	-10934
▁supplied	-10935
▁stakeholders	-10936
lam	-10937
othy	-10938
▁FOR	-10939
▁Fle	-10940
chron	-10941
▁Comb	-10942
▁Stone	-10943
▁Always	-10944
41	-10945
Ref	-10946
▁Az	-10947
inton	-10948
▁rubber	-10949
▁preservation	-10950
56	-10951
▁(9	-10952
orie	-10953
lings	-10954
▁Chap	-10955
▁Lind	-10956
isible	-10957
▁circles	-10958
▁expenses	-10959
▁incredible	-10960
yan	-10961
▁Polish	-10962
▁viable	-10963
▁dialogue	-10964
▁reserves	-10965
▁receptors	-10966
▁demonstrates	-10967
fare	-10968
▁20%	-10969
▁lig	-10970
asses	-10971
dated	-10972
▁cavity	-10973
▁phrases	-10974
▁executed	-10975
▁advertising	-10976
▁immigration	-10977
▁AT	-10978
▁Fat	-10979
▁Opp	-10980
▁Rout	-10981
▁coinc	-10982
feeding	-10983
▁casual	-10984
▁whilst	-10985
▁locally	-10986
▁seasons	-10987
▁Published	-10988
▁encompass	-10989
arts	-10990
emed	-10991
▁30,	-10992
▁Mes	-10993
icked	-10994
▁menu	-10995
▁patri	-10996
▁emerge	-10997
▁namely	-10998
▁nerves	-10999
▁storms	-11000
▁Reserve	-11001
▁defects	-11002
▁moments	-11003
▁employers	-11004
▁prevalent	-11005
▁investigated	-11006
tte	-11007
▁NC	-11008
-200	-11009
▁bits	-11010
ochond	-11011
rophic	-11012
▁shortly	-11013
Pub	-11014
▁(3)	-11015
▁hip	-11016
ishers	-11017
▁Adams	-11018
▁heter	-11019
osevelt	-11020
▁Census	-11021
▁senses	-11022
▁meanings	-11023
▁spelling	-11024
▁dominated	-11025
▁revolutionary	-11026
phal	-11027
▁22,	-11028
▁Win	-11029
ysical	-11030
▁pries	-11031
▁Choose	-11032
afe	-11033
▁Os	-11034
▁Sa	-11035
lear	-11036
▁Rog	-11037
▁flesh	-11038
▁ignore	-11039
▁Architect	-11040
▁newspapers	-11041
▁Ni	-11042
urday	-11043
▁counties	-11044
▁belonging	-11045
▁accordance	-11046
7%	-11047
iser	-11048
▁Ray	-11049
▁Deep	-11050
▁Video	-11051
▁hills	-11052
▁stops	-11053
atching	-11054
thening	-11055
▁checking	-11056
▁distract	-11057
▁consensus	-11058
EST	-11059
asal	-11060
oved	-11061
rell	-11062
uine	-11063
▁vow	-11064
ammad	-11065
front	-11066
▁Give	-11067
▁foster	-11068
▁cameras	-11069
▁rotation	-11070
▁recovered	-11071
▁determines	-11072
LS	-11073
IST	-11074
▁Had	-11075
▁sle	-11076
▁Very	-11077
▁epidem	-11078
▁cardiac	-11079
▁emission	-11080
▁counterpart	-11081
orney	-11082
▁Conc	-11083
▁Requ	-11084
▁beds	-11085
▁enact	-11086
▁analog	-11087
▁discussing	-11088
▁respective	-11089
who	-11090
keys	-11091
▁Sex	-11092
angel	-11093
ivals	-11094
onent	-11095
▁Thank	-11096
▁fifty	-11097
▁skull	-11098
▁tubes	-11099
▁Account	-11100
▁Physics	-11101
▁Victoria	-11102
▁worksheet	-11103
▁overweight	-11104
3–	-11105
uty	-11106
hard	-11107
▁Bad	-11108
▁Pow	-11109
▁leak	-11110
▁scal	-11111
rology	-11112
▁dehyd	-11113
▁Hispan	-11114
▁boards	-11115
▁exclusively	-11116
ikes	-11117
▁Nap	-11118
arter	-11119
▁Nich	-11120
▁bulk	-11121
▁hepat	-11122
▁tired	-11123
▁volumes	-11124
De	-11125
Re	-11126
auc	-11127
oil	-11128
▁Dor	-11129
▁2021	-11130
▁Magn	-11131
▁2007.	-11132
▁arbit	-11133
▁quote	-11134
▁prophe	-11135
▁acknowledge	-11136
▁EM	-11137
eous	-11138
illy	-11139
▁gau	-11140
▁Eval	-11141
▁Leon	-11142
▁insu	-11143
▁Taking	-11144
▁Kennedy	-11145
▁Franklin	-11146
▁protects	-11147
▁investors	-11148
▁collaborative	-11149
▁institutional	-11150
▁(8	-11151
▁Ra	-11152
warf	-11153
▁Dat	-11154
▁meets	-11155
▁sorts	-11156
▁retire	-11157
▁subtle	-11158
▁disposal	-11159
▁incredibly	-11160
BD	-11161
Do	-11162
Se	-11163
400	-11164
▁cha	-11165
▁dow	-11166
▁Tree	-11167
▁Utah	-11168
▁unto	-11169
▁2014,	-11170
▁Arthur	-11171
▁catast	-11172
▁strand	-11173
▁chapters	-11174
▁damaging	-11175
▁Knowledge	-11176
▁discusses	-11177
▁expressions	-11178
▁determination	-11179
esy	-11180
rels	-11181
rock	-11182
▁Mit	-11183
▁Draw	-11184
▁Diagn	-11185
▁flies	-11186
▁poems	-11187
▁galaxy	-11188
▁Perform	-11189
▁fragment	-11190
▁integral	-11191
▁Louisiana	-11192
▁repeatedly	-11193
▁considerably	-11194
ili	-11195
▁64	-11196
▁Rod	-11197
▁bom	-11198
rying	-11199
▁1995	-11200
owners	-11201
▁loans	-11202
▁voting	-11203
▁Monitor	-11204
▁filters	-11205
▁Mountains	-11206
▁expedition	-11207
yo	-11208
non	-11209
000.	-11210
plan	-11211
▁Vers	-11212
▁bands	-11213
▁rhythm	-11214
▁vector	-11215
▁updates	-11216
▁indicator	-11217
▁unemployment	-11218
▁Teacher	-11219
▁payments	-11220
▁peripher	-11221
▁thorough	-11222
▁Roosevelt	-11223
▁nineteenth	-11224
iki	-11225
▁Pit	-11226
ocaust	-11227
▁Syria	-11228
▁behalf	-11229
▁dispar	-11230
▁accessed	-11231
▁caffeine	-11232
▁incidents	-11233
▁precision	-11234
▁devastating	-11235
▁photography	-11236
rat	-11237
acon	-11238
emet	-11239
seud	-11240
ausea	-11241
flies	-11242
▁gums	-11243
▁hack	-11244
orient	-11245
▁2017.	-11246
▁datas	-11247
▁pipes	-11248
ructive	-11249
▁Treaty	-11250
▁Cultural	-11251
▁Evolution	-11252
▁impression	-11253
58	-11254
That	-11255
▁Nig	-11256
▁odd	-11257
▁ric	-11258
▁Urban	-11259
▁picked	-11260
▁portions	-11261
▁symbolic	-11262
▁Bru	-11263
▁feas	-11264
makers	-11265
▁condem	-11266
▁pulled	-11267
▁colleges	-11268
▁commands	-11269
▁globally	-11270
At	-11271
irs	-11272
▁2-	-11273
▁24,	-11274
▁1996	-11275
▁belt	-11276
instein	-11277
▁abroad	-11278
▁Military	-11279
▁aluminum	-11280
▁antibiotic	-11281
cat	-11282
vals	-11283
▁Ark	-11284
riction	-11285
▁gastro	-11286
▁residence	-11287
▁comparable	-11288
Con	-11289
arth	-11290
rets	-11291
▁orn	-11292
▁Ages	-11293
▁Core	-11294
▁Marg	-11295
asures	-11296
▁Clear	-11297
▁alien	-11298
▁gland	-11299
▁afternoon	-11300
▁operators	-11301
1-	-11302
▁Compar	-11303
▁magnet	-11304
▁programmes	-11305
▁transactions	-11306
rac	-11307
grim	-11308
▁Ger	-11309
phones	-11310
▁paths	-11311
▁vapor	-11312
▁belongs	-11313
▁organize	-11314
cm	-11315
gic	-11316
▁LG	-11317
arest	-11318
▁Virt	-11319
▁hang	-11320
arding	-11321
hedral	-11322
▁powered	-11323
▁genetics	-11324
▁frequencies	-11325
!)	-11326
▁OR	-11327
anna	-11328
osynt	-11329
▁mini	-11330
▁pride	-11331
▁Golden	-11332
▁nurses	-11333
▁mutation	-11334
▁republic	-11335
▁examining	-11336
▁inherited	-11337
▁applicable	-11338
▁toys	-11339
opathy	-11340
▁overse	-11341
▁shadow	-11342
▁referring	-11343
▁assumption	-11344
▁dictionary	-11345
▁politicians	-11346
rust	-11347
▁Dom	-11348
▁Mig	-11349
acher	-11350
urred	-11351
▁nick	-11352
▁traveled	-11353
▁Republican	-11354
yt	-11355
▁Site	-11356
▁uter	-11357
▁empower	-11358
▁markers	-11359
▁pathway	-11360
▁consisted	-11361
▁pressures	-11362
GS	-11363
don	-11364
▁FA	-11365
igma	-11366
olas	-11367
▁boats	-11368
▁cooked	-11369
▁mutual	-11370
▁efficacy	-11371
fn	-11372
▁pap	-11373
▁lying	-11374
TML	-11375
▁ic	-11376
▁bor	-11377
ordan	-11378
▁Smart	-11379
▁nurse	-11380
▁Visual	-11381
essional	-11382
▁Personal	-11383
▁conclude	-11384
▁crossing	-11385
▁shipping	-11386
▁Represent	-11387
▁designers	-11388
▁disasters	-11389
▁pollutants	-11390
:00	-11391
▁wool	-11392
▁denied	-11393
▁allergy	-11394
▁limiting	-11395
▁volcanic	-11396
▁incorrect	-11397
▁160	-11398
▁25,	-11399
▁que	-11400
imals	-11401
▁beer	-11402
▁yard	-11403
▁Armen	-11404
▁aspir	-11405
▁bowel	-11406
▁digit	-11407
▁lunch	-11408
▁guides	-11409
▁Mission	-11410
▁feather	-11411
▁Relations	-11412
▁prolonged	-11413
▁explaining	-11414
▁illustrate	-11415
▁Sustainable	-11416
▁19,	-11417
▁Bow	-11418
▁mud	-11419
▁Ford	-11420
▁forb	-11421
▁tang	-11422
▁spell	-11423
▁Credit	-11424
▁dinner	-11425
▁ethics	-11426
izational	-11427
▁telephone	-11428
▁compassion	-11429
▁Philippines	-11430
kh	-11431
▁Inv	-11432
▁Bird	-11433
asting	-11434
imedia	-11435
▁2006,	-11436
▁Diego	-11437
▁stuck	-11438
▁Series	-11439
▁dishes	-11440
etheless	-11441
▁expense	-11442
▁swallow	-11443
▁defining	-11444
▁preschool	-11445
▁attempting	-11446
UM	-11447
▁bay	-11448
storm	-11449
▁atom	-11450
▁2005,	-11451
▁steep	-11452
▁unity	-11453
▁Plants	-11454
▁Saturday	-11455
▁interviews	-11456
▁descriptions	-11457
▁WH	-11458
iolet	-11459
▁Cham	-11460
▁coin	-11461
▁Nobel	-11462
▁metap	-11463
emetery	-11464
obacter	-11465
▁photograp	-11466
1%	-11467
ogl	-11468
away	-11469
otyp	-11470
rared	-11471
▁grey	-11472
▁kings	-11473
▁seeks	-11474
▁battles	-11475
▁compact	-11476
▁relieve	-11477
▁initiated	-11478
▁geographic	-11479
▁ingredient	-11480
▁substitute	-11481
▁Confederate	-11482
▁architectural	-11483
run	-11484
iley	-11485
▁Moh	-11486
▁wra	-11487
apore	-11488
▁Lady	-11489
imeter	-11490
roleum	-11491
▁stack	-11492
▁guided	-11493
▁warmer	-11494
▁whales	-11495
etry	-11496
ophag	-11497
▁Iowa	-11498
▁rows	-11499
▁Arist	-11500
security	-11501
▁Country	-11502
▁inspect	-11503
▁Memorial	-11504
▁replacing	-11505
▁Literature	-11506
▁enterprise	-11507
▁Communication	-11508
hour	-11509
▁Jup	-11510
elson	-11511
▁Prize	-11512
▁dated	-11513
▁imbal	-11514
▁Albert	-11515
▁enemies	-11516
▁recycled	-11517
▁satellites	-11518
pm	-11519
fat	-11520
▁Boy	-11521
▁Tips	-11522
▁yoga	-11523
▁Market	-11524
lastname	-11525
▁gaining	-11526
▁pushing	-11527
▁galaxies	-11528
▁shopping	-11529
▁realistic	-11530
▁accumulation	-11531
bro	-11532
▁Was	-11533
eared	-11534
▁1994	-11535
▁cher	-11536
▁sket	-11537
▁basics	-11538
▁Defense	-11539
ationally	-11540
▁Everyone	-11541
inflammatory	-11542
▁participated	-11543
▁surveillance	-11544
abama	-11545
lades	-11546
▁Imper	-11547
iplinary	-11548
▁liberty	-11549
▁passive	-11550
▁servers	-11551
▁viewing	-11552
ropolitan	-11553
▁explores	-11554
▁festival	-11555
▁campaigns	-11556
▁furniture	-11557
ko	-11558
rup	-11559
▁EN	-11560
▁Lt	-11561
▁ma	-11562
▁14.	-11563
▁Bah	-11564
▁Bon	-11565
▁Fri	-11566
▁Appl	-11567
▁tempt	-11568
▁Archae	-11569
▁larvae	-11570
ilateral	-11571
▁Political	-11572
▁attracted	-11573
▁mainstream	-11574
▁Ban	-11575
▁Pear	-11576
▁fleet	-11577
▁pollen	-11578
▁colours	-11579
▁outdoors	-11580
▁emergence	-11581
▁documentation	-11582
eav	-11583
▁46	-11584
▁85	-11585
rage	-11586
sets	-11587
▁Pict	-11588
▁hind	-11589
▁Ethiop	-11590
▁Foreign	-11591
▁biomass	-11592
▁induced	-11593
fficiency	-11594
▁assignments	-11595
▁explanations	-11596
▁historically	-11597
aki	-11598
osex	-11599
▁Qur	-11600
essee	-11601
iotics	-11602
▁lunar	-11603
▁Argent	-11604
▁Austria	-11605
▁dismiss	-11606
▁Archived	-11607
oxide	-11608
▁palm	-11609
angers	-11610
orious	-11611
▁propos	-11612
olecular	-11613
▁carrier	-11614
▁Financial	-11615
▁anniversary	-11616
▁conjunction	-11617
▁genetically	-11618
▁archaeological	-11619
sl	-11620
fol	-11621
▁SM	-11622
▁ren	-11623
keley	-11624
▁Sche	-11625
▁pitch	-11626
▁presum	-11627
ountered	-11628
▁filling	-11629
▁responded	-11630
▁saturated	-11631
▁territories	-11632
72	-11633
empl	-11634
iors	-11635
▁181	-11636
ington	-11637
▁rings	-11638
▁decomp	-11639
▁facial	-11640
▁Benefits	-11641
▁compress	-11642
▁contracts	-11643
otechnology	-11644
▁practicing	-11645
,'	-11646
7–	-11647
FC	-11648
iro	-11649
arma	-11650
▁bugs	-11651
▁smok	-11652
acular	-11653
bestos	-11654
▁Hawaii	-11655
▁genuine	-11656
▁circuits	-11657
▁football	-11658
▁analyzing	-11659
aug	-11660
opt	-11661
▁abd	-11662
inced	-11663
▁dirt	-11664
▁fails	-11665
▁Includ	-11666
▁explos	-11667
▁aquatic	-11668
▁bridges	-11669
▁precious	-11670
▁dimension	-11671
▁possession	-11672
▁degradation	-11673
▁considerations	-11674
sur	-11675
they	-11676
▁Deb	-11677
▁ger	-11678
lessly	-11679
▁2,000	-11680
▁sperm	-11681
viously	-11682
▁Freder	-11683
▁blacks	-11684
▁decent	-11685
▁Freedom	-11686
▁closest	-11687
▁immense	-11688
▁Advanced	-11689
▁appetite	-11690
▁scheduled	-11691
▁unnecessary	-11692
▁quantitative	-11693
hr	-11694
oub	-11695
bral	-11696
▁pix	-11697
human	-11698
giving	-11699
▁shield	-11700
▁breathe	-11701
▁educate	-11702
▁flowing	-11703
▁announce	-11704
▁telescope	-11705
bet	-11706
upp	-11707
link	-11708
▁von	-11709
These	-11710
range	-11711
▁chim	-11712
monary	-11713
▁Analy	-11714
▁admit	-11715
▁texture	-11716
▁Lawrence	-11717
▁restored	-11718
▁departments	-11719
▁interpreted	-11720
▁IC	-11721
▁Dur	-11722
▁fee	-11723
ietal	-11724
▁Cert	-11725
▁bars	-11726
▁Brook	-11727
▁Almost	-11728
▁affirm	-11729
▁purple	-11730
▁speaks	-11731
▁Collect	-11732
▁Exercise	-11733
▁voluntary	-11734
▁encountered	-11735
ESS	-11736
lyn	-11737
▁26,	-11738
▁Pil	-11739
ilton	-11740
▁Tele	-11741
▁adul	-11742
▁beef	-11743
orship	-11744
▁forty	-11745
ulative	-11746
▁costly	-11747
▁Strateg	-11748
▁imposed	-11749
▁polymer	-11750
▁reforms	-11751
▁wounded	-11752
▁Stanford	-11753
▁prostate	-11754
▁followers	-11755
gress	-11756
▁node	-11757
letter	-11758
▁slide	-11759
▁automatic	-11760
▁motivated	-11761
▁twentieth	-11762
▁reliability	-11763
osures	-11764
▁brick	-11765
▁weren	-11766
▁Summer	-11767
▁static	-11768
▁Effects	-11769
▁crystal	-11770
▁Regional	-11771
▁convinced	-11772
▁poisoning	-11773
▁Independence	-11774
▁$2	-11775
▁Ze	-11776
olith	-11777
▁murd	-11778
▁Around	-11779
▁bitter	-11780
▁caring	-11781
activity	-11782
▁extends	-11783
▁counting	-11784
▁electrom	-11785
▁brilliant	-11786
▁27,	-11787
first	-11788
▁Sant	-11789
▁fled	-11790
itored	-11791
▁Issue	-11792
▁disin	-11793
▁surre	-11794
▁Jupiter	-11795
▁Results	-11796
▁bottles	-11797
▁singing	-11798
▁receptor	-11799
▁Tennessee	-11800
▁religions	-11801
▁Publishing	-11802
▁specialists	-11803
oen	-11804
phe	-11805
conf	-11806
▁Lie	-11807
▁aids	-11808
▁syll	-11809
estion	-11810
▁champ	-11811
▁magic	-11812
▁reads	-11813
version	-11814
▁glands	-11815
▁staying	-11816
▁suppress	-11817
▁precipitation	-11818
▁CL	-11819
▁GP	-11820
comp	-11821
▁Box	-11822
▁Wel	-11823
▁kin	-11824
▁sau	-11825
white	-11826
▁Hind	-11827
access	-11828
depend	-11829
▁verbal	-11830
▁virtue	-11831
▁advised	-11832
▁terminal	-11833
2%	-11834
▁Vo	-11835
▁2.5	-11836
▁chips	-11837
▁crowd	-11838
▁episode	-11839
▁skilled	-11840
▁personally	-11841
TER	-11842
▁Anti	-11843
▁USDA	-11844
▁Maria	-11845
▁Maybe	-11846
▁resur	-11847
▁coding	-11848
▁entity	-11849
▁hearts	-11850
▁Alabama	-11851
▁arrested	-11852
▁Banglades	-11853
▁transparent	-11854
▁Gas	-11855
ulses	-11856
▁Team	-11857
▁asset	-11858
▁patch	-11859
▁Commer	-11860
▁dreams	-11861
▁farmer	-11862
▁heated	-11863
▁methodology	-11864
▁Ts	-11865
▁vocal	-11866
▁cement	-11867
▁movies	-11868
restrial	-11869
▁Machine	-11870
▁graphic	-11871
▁integrate	-11872
ML	-11873
Us	-11874
icul	-11875
▁Gil	-11876
uming	-11877
vance	-11878
▁Vill	-11879
▁bases	-11880
▁herbs	-11881
▁Impact	-11882
▁headed	-11883
▁prosec	-11884
▁wealthy	-11885
▁explosion	-11886
▁protocols	-11887
▁surviving	-11888
▁resilience	-11889
8%	-11890
dis	-11891
▁tech	-11892
▁Domin	-11893
▁declar	-11894
▁margin	-11895
ochemical	-11896
▁Evidence	-11897
▁Planning	-11898
▁defeated	-11899
▁pneumonia	-11900
▁regulated	-11901
▁undertaken	-11902
ltry	-11903
▁bes	-11904
ushes	-11905
▁Upper	-11906
ighters	-11907
▁transf	-11908
▁abdominal	-11909
▁digestion	-11910
▁tremendous	-11911
arse	-11912
ilty	-11913
▁Dub	-11914
▁pec	-11915
▁Coal	-11916
▁dece	-11917
father	-11918
▁Staff	-11919
▁fears	-11920
▁oxide	-11921
▁spite	-11922
▁shifts	-11923
▁united	-11924
▁enthusi	-11925
▁Creative	-11926
▁Singapore	-11927
▁indication	-11928
▁highlighted	-11929
▁investigations	-11930
py	-11931
▁Gro	-11932
govern	-11933
▁affil	-11934
▁searc	-11935
▁raises	-11936
▁symmet	-11937
▁Activity	-11938
▁template	-11939
bu	-11940
acre	-11941
▁bold	-11942
▁Clark	-11943
▁fraud	-11944
▁traged	-11945
olescent	-11946
▁ignored	-11947
▁Kentucky	-11948
▁Collection	-11949
▁physiological	-11950
▁lon	-11951
▁dual	-11952
▁Kenya	-11953
▁loads	-11954
osphere	-11955
▁voices	-11956
▁unclear	-11957
▁Archives	-11958
▁fragments	-11959
▁Agricultural	-11960
wall	-11961
▁23,	-11962
▁Cro	-11963
induced	-11964
▁Fisher	-11965
▁cheaper	-11966
▁curious	-11967
▁implant	-11968
▁floating	-11969
▁operator	-11970
▁machinery	-11971
▁neighbour	-11972
.-	-11973
uana	-11974
▁tet	-11975
▁exams	-11976
▁panic	-11977
▁alphabet	-11978
▁astronaut	-11979
▁inadequate	-11980
▁ok	-11981
iens	-11982
adays	-11983
▁Anth	-11984
▁Radio	-11985
▁empir	-11986
▁rises	-11987
▁Declar	-11988
▁mixing	-11989
▁persec	-11990
▁Alcohol	-11991
▁accused	-11992
▁sacrific	-11993
▁comprehension	-11994
▁demonstration	-11995
▁Pa	-11996
▁SD	-11997
aund	-11998
▁15.	-11999
▁Sri	-12000
▁drew	-12001
▁2000,	-12002
▁Build	-12003
▁Tibet	-12004
▁equity	-12005
▁fulfill	-12006
▁founding	-12007
▁acquisition	-12008
▁PS	-12009
asis	-12010
▁rou	-12011
illery	-12012
estinal	-12013
ryption	-12014
▁Arabic	-12015
▁Stress	-12016
▁layout	-12017
▁soldier	-12018
▁ceremony	-12019
▁drawings	-12020
▁smallest	-12021
▁offspring	-12022
▁insulation	-12023
9%	-12024
10,	-12025
▁Aqu	-12026
▁Kit	-12027
▁consp	-12028
▁agenda	-12029
!"	-12030
▁Alf	-12031
▁Les	-12032
▁Raj	-12033
▁hur	-12034
▁Ball	-12035
▁2006.	-12036
▁piano	-12037
▁needle	-12038
▁Astronom	-12039
▁arteries	-12040
▁promoted	-12041
▁railroad	-12042
▁headaches	-12043
▁provinces	-12044
▁strengths	-12045
▁triggered	-12046
▁navigation	-12047
▁practitioners	-12048
egu	-12049
pur	-12050
▁Lu	-12051
ilib	-12052
look	-12053
pers	-12054
▁Bot	-12055
▁Roc	-12056
aline	-12057
roach	-12058
▁Nort	-12059
▁blame	-12060
▁alleged	-12061
▁monitored	-12062
▁practiced	-12063
vo	-12064
▁Pi	-12065
olit	-12066
▁Pas	-12067
shore	-12068
venue	-12069
▁Cass	-12070
▁biof	-12071
▁march	-12072
assment	-12073
▁Images	-12074
▁actors	-12075
▁Captain	-12076
▁clusters	-12077
▁entities	-12078
▁intermediate	-12079
▁manufactured	-12080
▁presidential	-12081
spe	-12082
▁43	-12083
iffs	-12084
▁Pra	-12085
▁Hunt	-12086
▁cups	-12087
▁obsc	-12088
rosion	-12089
▁angry	-12090
rasound	-12091
▁disput	-12092
▁grants	-12093
▁thrown	-12094
▁lacking	-12095
▁reserve	-12096
▁Holocaust	-12097
▁philosophical	-12098
▁Eb	-12099
▁McG	-12100
arity	-12101
athic	-12102
▁hate	-12103
▁quot	-12104
▁chron	-12105
▁Buddha	-12106
▁slower	-12107
▁neighbors	-12108
▁passengers	-12109
▁presenting	-12110
▁ED	-12111
aret	-12112
hops	-12113
attle	-12114
scill	-12115
▁basin	-12116
▁crash	-12117
▁mines	-12118
▁thumb	-12119
▁enters	-12120
▁plaque	-12121
▁Israeli	-12122
▁menstru	-12123
▁maternal	-12124
▁premature	-12125
▁seemingly	-12126
89	-12127
▁1-	-12128
ibli	-12129
▁wax	-12130
annel	-12131
▁Song	-12132
▁beta	-12133
▁carp	-12134
▁drag	-12135
▁fool	-12136
▁pupp	-12137
▁Total	-12138
▁olive	-12139
▁Lesson	-12140
▁Prophet	-12141
▁airport	-12142
▁databases	-12143
▁182	-12144
▁Cru	-12145
▁Rena	-12146
▁inver	-12147
▁votes	-12148
▁wells	-12149
iencies	-12150
▁lesser	-12151
▁Edition	-12152
▁Executive	-12153
▁Materials	-12154
▁outbreaks	-12155
▁variability	-12156
▁satisfaction	-12157
rea	-12158
▁AB	-12159
held	-12160
zens	-12161
▁Hope	-12162
▁lean	-12163
▁hosts	-12164
▁carcin	-12165
▁deemed	-12166
▁testim	-12167
▁inherit	-12168
▁relates	-12169
▁warrant	-12170
▁Buddhist	-12171
▁Together	-12172
▁geometry	-12173
▁journals	-12174
▁promised	-12175
▁similarly	-12176
▁constitute	-12177
▁introducing	-12178
▁illustrations	-12179
54	-12180
mi	-12181
16/	-12182
600	-12183
risk	-12184
weet	-12185
▁90%	-12186
▁BBC	-12187
▁cer	-12188
roups	-12189
▁Mong	-12190
▁omega	-12191
▁commemor	-12192
▁microbes	-12193
▁breakdown	-12194
▁exclusive	-12195
▁foundations	-12196
7/	-12197
▁EC	-12198
▁NS	-12199
▁Hal	-12200
▁Whit	-12201
▁freed	-12202
▁sword	-12203
▁castle	-12204
▁withdrawal	-12205
0.0	-12206
Don	-12207
▁Cab	-12208
▁Tai	-12209
▁dozen	-12210
▁gross	-12211
▁norms	-12212
▁talked	-12213
▁caution	-12214
▁mounted	-12215
▁screens	-12216
▁darkness	-12217
▁explicitly	-12218
FP	-12219
igs	-12220
▁Tal	-12221
▁cod	-12222
iasis	-12223
▁butt	-12224
▁glory	-12225
▁Norway	-12226
▁Getting	-12227
▁editing	-12228
▁terrible	-12229
▁inclusive	-12230
▁evaluating	-12231
▁membership	-12232
▁54	-12233
eterm	-12234
ierce	-12235
▁Bapt	-12236
iating	-12237
▁2016,	-12238
▁retrie	-12239
▁tackle	-12240
▁Genesis	-12241
▁refriger	-12242
▁landscapes	-12243
▁Io	-12244
▁Loc	-12245
▁ank	-12246
▁Tour	-12247
▁proc	-12248
▁landf	-12249
▁probe	-12250
▁Answer	-12251
▁Castle	-12252
▁Territ	-12253
▁angles	-12254
▁builds	-12255
▁prelim	-12256
▁sphere	-12257
atherine	-12258
▁synthes	-12259
itzerland	-12260
MD	-12261
obb	-12262
orb	-12263
▁cyt	-12264
▁peas	-12265
▁admin	-12266
▁nausea	-12267
▁pencil	-12268
▁labeled	-12269
▁Character	-12270
▁commander	-12271
eps	-12272
lah	-12273
▁SE	-12274
aved	-12275
host	-12276
jamin	-12277
ailing	-12278
▁Veter	-12279
▁Easter	-12280
▁Ukraine	-12281
▁melting	-12282
▁travels	-12283
▁hepatitis	-12284
▁volunteer	-12285
▁Definition	-12286
▁geographical	-12287
mus	-12288
good	-12289
▁Trib	-12290
▁icon	-12291
▁intu	-12292
▁10.10	-12293
▁Youth	-12294
▁missed	-12295
▁throne	-12296
▁Command	-12297
▁Leaders	-12298
▁certified	-12299
▁interfere	-12300
3/	-12301
One	-12302
View	-12303
▁Dak	-12304
▁Fun	-12305
▁Words	-12306
▁Editor	-12307
cription	-12308
organisms	-12309
▁combining	-12310
▁compensation	-12311
weed	-12312
▁Muh	-12313
▁Sci	-12314
imity	-12315
▁sore	-12316
▁obese	-12317
▁screw	-12318
▁Jordan	-12319
▁locate	-12320
▁relies	-12321
▁Affairs	-12322
▁Looking	-12323
▁Resource	-12324
▁freshwater	-12325
▁similarities	-12326
▁GPS	-12327
▁PMID	-12328
▁Tell	-12329
▁Viol	-12330
▁ties	-12331
▁Broad	-12332
▁strictly	-12333
▁projected	-12334
▁combustion	-12335
▁legitimate	-12336
▁concentrate	-12337
onto	-12338
post	-12339
▁pigs	-12340
▁Simon	-12341
▁divor	-12342
▁juven	-12343
▁counts	-12344
▁endeav	-12345
velation	-12346
▁kidneys	-12347
▁newborn	-12348
▁nucleus	-12349
▁impaired	-12350
▁monetary	-12351
▁Reference	-12352
▁structured	-12353
▁Declaration	-12354
▁combinations	-12355
VD	-12356
amma	-12357
rans	-12358
▁bapt	-12359
▁evac	-12360
▁fees	-12361
▁lapt	-12362
incial	-12363
▁conform	-12364
▁promotion	-12365
▁challenged	-12366
▁constraints	-12367
▁substantially	-12368
.(	-12369
abs	-12370
icut	-12371
supp	-12372
▁Joh	-12373
▁Prob	-12374
▁dign	-12375
▁feat	-12376
▁deple	-12377
▁Compan	-12378
▁railway	-12379
▁worried	-12380
▁imported	-12381
▁advocates	-12382
▁completing	-12383
▁corruption	-12384
▁preliminary	-12385
▁interference	-12386
edge	-12387
oths	-12388
vity	-12389
aying	-12390
▁tomb	-12391
ewater	-12392
▁ozone	-12393
▁Philip	-12394
olutions	-12395
▁Berkeley	-12396
▁intervals	-12397
forestation	-12398
▁certificate	-12399
WS	-12400
ART	-12401
oard	-12402
▁Frequ	-12403
▁grave	-12404
▁modes	-12405
▁absent	-12406
▁Testing	-12407
▁collaps	-12408
▁interval	-12409
▁preference	-12410
▁coronavirus	-12411
▁Wy	-12412
appy	-12413
asia	-12414
exts	-12415
▁177	-12416
▁mul	-12417
▁Cust	-12418
▁epit	-12419
▁Immun	-12420
▁autumn	-12421
▁fluctu	-12422
▁loaded	-12423
▁rating	-12424
▁algebra	-12425
▁profits	-12426
▁forgotten	-12427
▁reinforce	-12428
▁governance	-12429
▁pronounced	-12430
.2	-12431
dig	-12432
isa	-12433
▁TB	-12434
▁Ye	-12435
▁erad	-12436
▁assessing	-12437
▁firstname	-12438
▁conceptual	-12439
▁Mu	-12440
▁Ps	-12441
amel	-12442
mill	-12443
zech	-12444
▁Rap	-12445
▁sho	-12446
▁Hans	-12447
▁mast	-12448
▁Visit	-12449
▁gifts	-12450
▁Greeks	-12451
▁Douglas	-12452
▁imagery	-12453
▁winning	-12454
▁Historic	-12455
▁eligible	-12456
▁peaceful	-12457
▁desirable	-12458
▁placement	-12459
▁eliminated	-12460
▁disciplines	-12461
ikh	-12462
itar	-12463
tics	-12464
▁bowl	-12465
▁Block	-12466
▁exert	-12467
▁fungi	-12468
▁overt	-12469
▁spont	-12470
▁trips	-12471
▁rescue	-12472
▁geography	-12473
▁Initiative	-12474
▁questionna	-12475
▁Corporation	-12476
▁registration	-12477
.]	-12478
bird	-12479
▁mankind	-12480
resistant	-12481
▁disabled	-12482
▁graphics	-12483
▁artifacts	-12484
▁extending	-12485
▁separately	-12486
▁corporations	-12487
alin	-12488
▁cro	-12489
actic	-12490
heres	-12491
ogene	-12492
▁cows	-12493
▁Games	-12494
▁recru	-12495
▁intact	-12496
▁impacted	-12497
▁generator	-12498
▁scattered	-12499
En	-12500
Pe	-12501
4),	-12502
▁47	-12503
uese	-12504
:10.10	-12505
▁knock	-12506
cedented	-12507
▁Nigeria	-12508
▁Prevent	-12509
▁emperor	-12510
▁altogether	-12511
▁Renaissance	-12512
▁Switzerland	-12513
urb	-12514
arms	-12515
sens	-12516
▁29,	-12517
ulent	-12518
▁HTML	-12519
▁bore	-12520
▁tear	-12521
▁Medic	-12522
▁careg	-12523
▁wires	-12524
▁Beyond	-12525
▁contexts	-12526
▁breakfast	-12527
▁remembered	-12528
hot	-12529
jan	-12530
whe	-12531
▁4-	-12532
▁ions	-12533
writing	-12534
▁Eating	-12535
▁median	-12536
▁Orthodox	-12537
▁proclaim	-12538
▁requests	-12539
▁divisions	-12540
▁radioactive	-12541
▁stimulation	-12542
▁..	-12543
▁Gi	-12544
▁tale	-12545
▁rebell	-12546
▁surely	-12547
▁careers	-12548
▁compete	-12549
▁constitu	-12550
▁unhealthy	-12551
ixed	-12552
odge	-12553
okes	-12554
▁Mas	-12555
mouth	-12556
▁unst	-12557
▁Chile	-12558
▁slope	-12559
istence	-12560
▁sugars	-12561
▁voters	-12562
▁crossed	-12563
▁comprised	-12564
▁interrupt	-12565
▁Afghanistan	-12566
▁preferences	-12567
▁pharmaceutical	-12568
five	-12569
heum	-12570
tein	-12571
▁Haz	-12572
▁Soil	-12573
▁melt	-12574
▁trap	-12575
▁2017,	-12576
▁basket	-12577
▁statue	-12578
▁Persian	-12579
▁licensed	-12580
▁Palestine	-12581
▁Bangladesh	-12582
▁Consequently	-12583
was	-12584
▁chat	-12585
▁damp	-12586
▁modify	-12587
▁tunnel	-12588
▁unders	-12589
graduate	-12590
▁autonomous	-12591
▁intestinal	-12592
nty	-12593
▁Ay	-12594
▁Od	-12595
▁10-	-12596
▁Tok	-12597
osaurs	-12598
angular	-12599
forward	-12600
ovenant	-12601
▁Mechan	-12602
▁lining	-12603
▁whites	-12604
▁Indiana	-12605
▁employer	-12606
▁informal	-12607
▁activists	-12608
▁Intelligence	-12609
May	-12610
arbon	-12611
erenn	-12612
▁Mosc	-12613
▁lith	-12614
▁wast	-12615
▁strip	-12616
▁Patrick	-12617
▁Workshe	-12618
▁directory	-12619
▁Population	-12620
▁compression	-12621
▁antioxidants	-12622
xic	-12623
▁gay	-12624
▁(197	-12625
▁Innov	-12626
▁pulse	-12627
▁truck	-12628
▁Dental	-12629
▁banned	-12630
ilibrium	-12631
▁depicted	-12632
ipt	-12633
owed	-12634
▁Game	-12635
▁grat	-12636
▁ignor	-12637
▁worms	-12638
pective	-12639
▁remedy	-12640
▁briefly	-12641
▁checked	-12642
▁forcing	-12643
▁revised	-12644
▁resident	-12645
▁systemic	-12646
▁exploitation	-12647
GA	-12648
▁Rain	-12649
lation	-12650
▁Focus	-12651
▁Stock	-12652
▁unpre	-12653
▁behave	-12654
unciation	-12655
▁Chemistry	-12656
▁prosperity	-12657
▁Fortunately	-12658
ARS	-12659
▁Aer	-12660
▁Bud	-12661
▁kne	-12662
iscal	-12663
▁Benjamin	-12664
▁Function	-12665
▁advocate	-12666
▁sexually	-12667
▁automated	-12668
▁citizenship	-12669
▁economically	-12670
po	-12671
third	-12672
▁Kind	-12673
▁Past	-12674
▁Publ	-12675
▁stir	-12676
▁Winter	-12677
▁wounds	-12678
▁strikes	-12679
▁publicly	-12680
▁cultivation	-12681
eded	-12682
lies	-12683
olis	-12684
▁Ros	-12685
▁Heat	-12686
▁Skin	-12687
▁bats	-12688
▁fart	-12689
▁pour	-12690
▁potent	-12691
▁notably	-12692
▁altitude	-12693
▁extracted	-12694
▁DS	-12695
otle	-12696
izoph	-12697
▁Allen	-12698
▁inputs	-12699
▁Conserv	-12700
▁joining	-12701
▁retreat	-12702
▁invisible	-12703
▁convention	-12704
▁decreasing	-12705
96	-12706
ORD	-12707
▁5-	-12708
▁56	-12709
▁95	-12710
asted	-12711
▁brut	-12712
▁Would	-12713
iciency	-12714
▁cortex	-12715
▁gently	-12716
▁mosquito	-12717
▁survivors	-12718
▁predictions	-12719
▁consultation	-12720
800	-12721
zes	-12722
▁MIT	-12723
▁mas	-12724
ridge	-12725
▁Brad	-12726
▁2005.	-12727
▁dwarf	-12728
▁customs	-12729
▁delayed	-12730
▁activated	-12731
▁Protestant	-12732
▁CF	-12733
▁CM	-12734
lict	-12735
some	-12736
▁Dry	-12737
▁phon	-12738
▁sake	-12739
itives	-12740
▁naval	-12741
▁walked	-12742
▁banking	-12743
▁modules	-12744
intestinal	-12745
▁fundament	-12746
▁observing	-12747
▁untreated	-12748
▁descendants	-12749
▁entertainment	-12750
-17	-12751
dam	-12752
eton	-12753
raul	-12754
▁aug	-12755
▁Hell	-12756
▁odds	-12757
ingham	-12758
▁Ground	-12759
▁burial	-12760
▁individ	-12761
▁inquiry	-12762
▁Buddhism	-12763
▁Imperial	-12764
▁Syndrome	-12765
▁Aboriginal	-12766
▁blockchain	-12767
▁identifies	-12768
eu	-12769
Eng	-12770
aron	-12771
plus	-12772
▁16.	-12773
▁Esp	-12774
▁alb	-12775
▁Poor	-12776
lihood	-12777
▁Kings	-12778
▁Torah	-12779
▁noble	-12780
▁pound	-12781
▁cannab	-12782
▁grocer	-12783
▁metall	-12784
▁titles	-12785
fortable	-12786
▁Capital	-12787
▁selecting	-12788
▁sensation	-12789
▁Si	-12790
▁Lic	-12791
▁oct	-12792
backs	-12793
▁lets	-12794
aments	-12795
▁Share	-12796
▁disse	-12797
▁radar	-12798
▁edited	-12799
izophren	-12800
imination	-12801
▁perceive	-12802
▁attending	-12803
▁accommodate	-12804
▁achievements	-12805
adi	-12806
▁6:	-12807
▁Ms	-12808
rade	-12809
▁Term	-12810
▁sink	-12811
▁melan	-12812
herence	-12813
▁consec	-12814
▁contra	-12815
▁suited	-12816
▁uncons	-12817
▁gallons	-12818
▁patches	-12819
▁Diseases	-12820
▁socially	-12821
▁triggers	-12822
▁mitochond	-12823
km	-12824
wind	-12825
▁Kal	-12826
▁Oak	-12827
▁jet	-12828
ellar	-12829
names	-12830
▁Dark	-12831
▁Hong	-12832
▁Upon	-12833
usions	-12834
▁Basin	-12835
▁airpl	-12836
▁bulbs	-12837
▁races	-12838
▁toilet	-12839
▁blocked	-12840
▁inspire	-12841
▁readings	-12842
▁unprecedented	-12843
**	-12844
▁VI	-12845
chem	-12846
ppers	-12847
▁Burn	-12848
▁Chen	-12849
▁2004,	-12850
▁inval	-12851
▁Moscow	-12852
▁crafts	-12853
▁lasted	-12854
▁lenses	-12855
▁prejud	-12856
▁harmony	-12857
▁pharmac	-12858
▁Mathematics	-12859
eld	-12860
ouch	-12861
oping	-12862
▁Tech	-12863
aughters	-12864
▁coupled	-12865
▁Einstein	-12866
▁billions	-12867
▁dysfunction	-12868
imb	-12869
▁Loss	-12870
▁Vacc	-12871
▁jack	-12872
▁artic	-12873
▁permits	-12874
▁tablets	-12875
▁operates	-12876
▁mosquitoes	-12877
▁positively	-12878
▁destructive	-12879
▁extensively	-12880
▁hypertension	-12881
kg	-12882
▁(7	-12883
Read	-12884
rones	-12885
▁gang	-12886
▁soda	-12887
▁marker	-12888
▁outlined	-12889
▁stretching	-12890
.||	-12891
ania	-12892
idel	-12893
regn	-12894
▁130	-12895
▁Fif	-12896
▁sor	-12897
▁guilty	-12898
▁snakes	-12899
▁delight	-12900
▁drilling	-12901
▁Extension	-12902
▁obstacles	-12903
▁teachings	-12904
▁insufficient	-12905
pher	-12906
▁Bob	-12907
▁bon	-12908
▁Nurs	-12909
▁isot	-12910
energy	-12911
ulture	-12912
urring	-12913
▁Beach	-12914
▁binary	-12915
▁planes	-12916
▁titled	-12917
▁Turkish	-12918
▁critics	-12919
▁lighter	-12920
▁continually	-12921
▁innovations	-12922
▁standardized	-12923
▁certification	-12924
hal	-12925
two	-12926
opor	-12927
ocide	-12928
▁indo	-12929
▁pumps	-12930
▁Malays	-12931
▁Newton	-12932
▁abdomen	-12933
▁rolling	-12934
▁perceptions	-12935
▁environmentally	-12936
AV	-12937
stan	-12938
▁ate	-12939
acerb	-12940
month	-12941
proof	-12942
▁amph	-12943
▁pole	-12944
esthes	-12945
redict	-12946
▁mobil	-12947
▁seats	-12948
▁upset	-12949
▁agreements	-12950
OV	-12951
▁YO	-12952
▁Lam	-12953
▁pod	-12954
▁Insp	-12955
parent	-12956
▁2003,	-12957
▁Czech	-12958
▁Maine	-12959
▁queen	-12960
▁veins	-12961
▁Annual	-12962
▁trains	-12963
▁longest	-12964
▁inability	-12965
▁intestine	-12966
appropriate	-12967
▁Eventually	-12968
▁earthquakes	-12969
So	-12970
expl	-12971
▁Nan	-12972
▁Syn	-12973
driven	-12974
imated	-12975
▁Could	-12976
▁Excel	-12977
▁Skills	-12978
▁checks	-12979
▁enrich	-12980
▁recipe	-12981
▁Imagine	-12982
▁Methods	-12983
▁closing	-12984
▁lesions	-12985
lementary	-12986
▁elevation	-12987
▁footprint	-12988
▁compromise	-12989
-11	-12990
ben	-12991
▁Ow	-12992
eman	-12993
engu	-12994
▁18.	-12995
otive	-12996
▁Pack	-12997
▁Sound	-12998
▁hungry	-12999
▁tribal	-13000
▁legally	-13001
▁stimulus	-13002
▁unwanted	-13003
▁witnessed	-13004
▁conditioning	-13005
-30	-13006
▁Wi	-13007
▁ty	-13008
▁Hyp	-13009
icates	-13010
▁2020.	-13011
▁illum	-13012
▁shells	-13013
▁dispute	-13014
▁adjusted	-13015
▁wetlands	-13016
▁PV	-13017
ambo	-13018
pler	-13019
▁Eat	-13020
▁ket	-13021
▁vic	-13022
▁Fest	-13023
▁todd	-13024
uction	-13025
▁weeds	-13026
▁Partners	-13027
▁adaptive	-13028
▁Southeast	-13029
▁factories	-13030
▁Portuguese	-13031
uma	-13032
rubs	-13033
uate	-13034
▁Sug	-13035
marks	-13036
esteem	-13037
ijuana	-13038
▁purely	-13039
▁trapped	-13040
▁examines	-13041
▁plastics	-13042
▁sequencing	-13043
▁Connecticut	-13044
57	-13045
IO	-13046
ui	-13047
▁RF	-13048
educ	-13049
esar	-13050
▁Hug	-13051
▁Gram	-13052
▁bicy	-13053
▁Delhi	-13054
▁Title	-13055
▁tuber	-13056
▁Bishop	-13057
▁fungus	-13058
▁strings	-13059
▁Typically	-13060
▁dissolved	-13061
▁conception	-13062
▁inspection	-13063
▁purchasing	-13064
▁legislative	-13065
ige	-13066
note	-13067
▁Camb	-13068
▁Thom	-13069
▁Used	-13070
immune	-13071
▁cruel	-13072
▁realm	-13073
ulatory	-13074
▁evolve	-13075
▁stayed	-13076
▁stocks	-13077
▁silicon	-13078
▁Protocol	-13079
▁attribute	-13080
▁negatively	-13081
▁neurological	-13082
pit	-13083
▁Gib	-13084
▁Hou	-13085
▁Dick	-13086
▁Link	-13087
▁bike	-13088
▁Travel	-13089
▁silent	-13090
▁Success	-13091
▁berries	-13092
▁priests	-13093
▁Multiple	-13094
▁transported	-13095
▁sufficiently	-13096
ni	-13097
lux	-13098
▁IL	-13099
atal	-13100
▁Hun	-13101
▁lux	-13102
letal	-13103
▁publishing	-13104
▁restaurants	-13105
▁TR	-13106
Tube	-13107
erto	-13108
▁Lev	-13109
leans	-13110
arency	-13111
wealth	-13112
▁strat	-13113
▁Police	-13114
▁dozens	-13115
▁judges	-13116
▁exacerb	-13117
▁Biological	-13118
▁critically	-13119
▁controversy	-13120
▁acknowledged	-13121
▁functionality	-13122
PM	-13123
Can	-13124
bled	-13125
unes	-13126
▁30%	-13127
▁Dal	-13128
▁cel	-13129
▁lin	-13130
▁Kong	-13131
▁Snow	-13132
▁fits	-13133
rained	-13134
threat	-13135
▁2018.	-13136
▁dwell	-13137
▁Simple	-13138
▁arises	-13139
▁modest	-13140
▁scarce	-13141
building	-13142
▁poultry	-13143
▁watched	-13144
▁consolid	-13145
▁currents	-13146
▁navigate	-13147
▁instructor	-13148
▁threatening	-13149
▁ore	-13150
bound	-13151
▁LGBT	-13152
▁rhet	-13153
houses	-13154
▁Award	-13155
▁draws	-13156
▁tries	-13157
▁frames	-13158
▁fusion	-13159
▁temples	-13160
▁Industry	-13161
▁cervical	-13162
▁stopping	-13163
▁Technical	-13164
▁dependence	-13165
▁uncomfortable	-13166
avy	-13167
▁da	-13168
hend	-13169
▁Sin	-13170
▁Prep	-13171
arians	-13172
▁Pharm	-13173
otional	-13174
▁Napole	-13175
▁artery	-13176
▁Columbus	-13177
▁Recently	-13178
▁livelihood	-13179
4%	-13180
len	-13181
artz	-13182
ulph	-13183
▁URL	-13184
▁gel	-13185
▁1992	-13186
▁unsu	-13187
▁Apart	-13188
▁Sarah	-13189
▁sends	-13190
▁Democr	-13191
▁anemia	-13192
▁desper	-13193
▁solved	-13194
▁Nuclear	-13195
▁ecology	-13196
▁embrace	-13197
▁Anderson	-13198
▁workforce	-13199
▁Philosophy	-13200
▁nationwide	-13201
▁surroundings	-13202
▁rehabilitation	-13203
olia	-13204
▁80%	-13205
▁yog	-13206
opter	-13207
lahoma	-13208
▁Notes	-13209
▁intens	-13210
▁Improve	-13211
▁Magazine	-13212
▁Universe	-13213
▁Pediatric	-13214
▁inventory	-13215
sun	-13216
▁oun	-13217
ocene	-13218
▁Quant	-13219
▁sixth	-13220
▁Course	-13221
▁Recomm	-13222
▁sulfur	-13223
▁Curriculum	-13224
▁delivering	-13225
▁transcript	-13226
▁Traditional	-13227
▁calculation	-13228
▁illustration	-13229
▁individually	-13230
62	-13231
MM	-13232
▁41	-13233
▁ly	-13234
▁700	-13235
imore	-13236
matic	-13237
uated	-13238
▁Cand	-13239
▁ants	-13240
▁seas	-13241
▁Better	-13242
▁besides	-13243
▁spirits	-13244
▁pathogen	-13245
▁releases	-13246
▁Parkinson	-13247
▁generates	-13248
▁retention	-13249
▁phosphorus	-13250
▁organizational	-13251
63	-13252
agu	-13253
▁CC	-13254
elle	-13255
pose	-13256
▁40%	-13257
▁Fox	-13258
ennis	-13259
ylene	-13260
▁cock	-13261
▁sour	-13262
itches	-13263
▁Anton	-13264
▁elite	-13265
▁rigid	-13266
hematic	-13267
▁Causes	-13268
▁underm	-13269
▁Changes	-13270
▁Swedish	-13271
▁differs	-13272
▁microbi	-13273
▁Software	-13274
▁gasoline	-13275
▁matching	-13276
▁municipal	-13277
▁occasions	-13278
▁offensive	-13279
TSD	-13280
food	-13281
▁110	-13282
▁True	-13283
▁alleg	-13284
▁downt	-13285
▁Clinton	-13286
▁schemes	-13287
▁crystals	-13288
▁deployed	-13289
▁temporal	-13290
▁satisfied	-13291
▁Activities	-13292
▁transaction	-13293
▁unconscious	-13294
Qu	-13295
With	-13296
▁Kir	-13297
▁Ord	-13298
ierra	-13299
▁Luke	-13300
▁tears	-13301
amation	-13302
▁intrig	-13303
▁Accessed	-13304
▁interven	-13305
▁passages	-13306
▁struggles	-13307
▁philosopher	-13308
53	-13309
87	-13310
Te	-13311
UD	-13312
▁’	-13313
50,	-13314
coma	-13315
elta	-13316
pack	-13317
▁Nev	-13318
▁Cuba	-13319
▁Ross	-13320
▁cous	-13321
▁info	-13322
▁ranks	-13323
ository	-13324
▁refined	-13325
▁fluoride	-13326
▁toxicity	-13327
▁Authority	-13328
▁Communist	-13329
▁specially	-13330
pton	-13331
yers	-13332
▁Cos	-13333
▁energ	-13334
imental	-13335
oriented	-13336
▁Orleans	-13337
▁coating	-13338
▁compiled	-13339
▁failures	-13340
▁promises	-13341
▁uncommon	-13342
▁primitive	-13343
▁eliminating	-13344
▁reconstruct	-13345
▁negotiations	-13346
aga	-13347
dem	-13348
pin	-13349
tha	-13350
emen	-13351
idth	-13352
acity	-13353
amous	-13354
▁luck	-13355
▁bench	-13356
▁likes	-13357
▁combines	-13358
▁emphasize	-13359
▁mechanics	-13360
▁traumatic	-13361
Fi	-13362
▁Alt	-13363
▁Sel	-13364
▁Syd	-13365
▁jun	-13366
ioned	-13367
▁File	-13368
▁ruler	-13369
▁Return	-13370
▁worlds	-13371
▁Bitcoin	-13372
▁somehow	-13373
▁episodes	-13374
▁demanding	-13375
aran	-13376
▁Moore	-13377
ometric	-13378
▁oscill	-13379
▁potato	-13380
--------	-13381
▁warfare	-13382
▁headache	-13383
▁retained	-13384
▁microbial	-13385
▁microscope	-13386
▁permanently	-13387
htm	-13388
▁OK	-13389
four	-13390
▁dot	-13391
▁Lank	-13392
▁succ	-13393
▁supervision	-13394
▁instructional	-13395
arb	-13396
yst	-13397
eech	-13398
▁ana	-13399
▁bod	-13400
▁ink	-13401
▁Ever	-13402
▁bulb	-13403
▁Determ	-13404
▁breeds	-13405
▁floods	-13406
▁packed	-13407
▁plural	-13408
▁quoted	-13409
▁valued	-13410
▁defence	-13411
▁handful	-13412
▁segments	-13413
▁Emergency	-13414
▁requested	-13415
▁watershed	-13416
ova	-13417
ollo	-13418
▁Eye	-13419
▁Joe	-13420
▁ecl	-13421
▁hes	-13422
▁symp	-13423
ocytes	-13424
▁Graph	-13425
▁turtles	-13426
▁pressing	-13427
▁tourists	-13428
▁accordingly	-13429
PL	-13430
arp	-13431
orse	-13432
rish	-13433
ucks	-13434
▁voy	-13435
▁Bron	-13436
▁dupl	-13437
▁grab	-13438
▁mush	-13439
▁sits	-13440
▁spill	-13441
▁bureau	-13442
▁charts	-13443
▁verify	-13444
▁Various	-13445
▁lateral	-13446
▁recipes	-13447
▁Creating	-13448
▁triangle	-13449
▁flowering	-13450
▁settlements	-13451
▁vulnerability	-13452
52	-13453
HT	-13454
▁Dh	-13455
reas	-13456
▁(2010	-13457
▁2000.	-13458
▁yards	-13459
tically	-13460
▁praise	-13461
▁Ottoman	-13462
▁goddess	-13463
▁regards	-13464
itational	-13465
▁confined	-13466
▁resolved	-13467
▁competing	-13468
pub	-13469
ante	-13470
▁bip	-13471
rophy	-13472
rosis	-13473
▁Gand	-13474
▁Join	-13475
▁drama	-13476
▁myths	-13477
▁ports	-13478
▁drying	-13479
▁safegu	-13480
▁posture	-13481
▁secular	-13482
▁Complete	-13483
▁Muhammad	-13484
▁Oklahoma	-13485
▁creature	-13486
▁designer	-13487
▁alignment	-13488
▁prototype	-13489
▁suspended	-13490
▁workshops	-13491
▁cultivated	-13492
▁linguistic	-13493
4:	-13494
Com	-13495
aza	-13496
via	-13497
▁Eu	-13498
▁oak	-13499
▁Fried	-13500
▁Joint	-13501
▁cater	-13502
▁Babylon	-13503
▁Regular	-13504
▁excluded	-13505
▁parameter	-13506
▁substrate	-13507
Lear	-13508
▁Der	-13509
▁bloom	-13510
uncture	-13511
▁Nelson	-13512
▁palace	-13513
▁Friends	-13514
▁editors	-13515
▁surgeon	-13516
▁baseline	-13517
▁maintains	-13518
▁Christopher	-13519
▁problematic	-13520
hn	-13521
▁Ky	-13522
▁MRI	-13523
▁Jenn	-13524
▁Cloud	-13525
▁balls	-13526
▁eager	-13527
▁Weight	-13528
articles	-13529
▁Denmark	-13530
▁Religion	-13531
▁shooting	-13532
▁therapist	-13533
▁wellbeing	-13534
▁incentives	-13535
test	-13536
emics	-13537
stock	-13538
▁edit	-13539
▁hasn	-13540
▁nurt	-13541
▁intim	-13542
ifiable	-13543
▁urgent	-13544
▁tutorial	-13545
▁considers	-13546
▁supporters	-13547
Col	-13548
John	-13549
▁31,	-13550
etric	-13551
illes	-13552
oglob	-13553
▁Live	-13554
▁stro	-13555
onduct	-13556
▁Chair	-13557
▁cargo	-13558
ardless	-13559
▁Content	-13560
▁Explain	-13561
▁Toronto	-13562
▁YouTube	-13563
▁damages	-13564
▁enforce	-13565
▁pipeline	-13566
▁entrepreneurs	-13567
bits	-13568
wich	-13569
▁Lanc	-13570
▁asym	-13571
▁cruc	-13572
▁sins	-13573
▁macro	-13574
▁Alexand	-13575
▁retired	-13576
▁Economics	-13577
▁friendship	-13578
▁mysterious	-13579
▁Description	-13580
▁surprisingly	-13581
mind	-13582
site	-13583
▁Sad	-13584
ignty	-13585
▁Myth	-13586
▁Minor	-13587
▁rival	-13588
urities	-13589
▁Walter	-13590
perature	-13591
▁Summary	-13592
▁holidays	-13593
▁Europeans	-13594
▁appliances	-13595
▁networking	-13596
▁antioxidant	-13597
rod	-13598
||1	-13599
▁1).	-13600
▁Tun	-13601
▁wre	-13602
cerpt	-13603
▁Wolf	-13604
▁acet	-13605
▁arsen	-13606
▁dolph	-13607
▁paste	-13608
▁sanct	-13609
▁Sydney	-13610
▁riding	-13611
oporosis	-13612
▁failing	-13613
▁resting	-13614
▁tragedy	-13615
▁inserted	-13616
▁gardening	-13617
▁relevance	-13618
▁afterwards	-13619
▁retirement	-13620
700	-13621
ipse	-13622
ivic	-13623
pres	-13624
sels	-13625
▁Emb	-13626
▁dump	-13627
▁pear	-13628
▁quit	-13629
▁drill	-13630
▁trunk	-13631
▁Gospel	-13632
▁unions	-13633
▁fossils	-13634
▁specify	-13635
▁trillion	-13636
▁beverages	-13637
▁analytical	-13638
▁disappeared	-13639
▁chemotherapy	-13640
▁jurisdiction	-13641
▁investigating	-13642
▁]	-13643
lan	-13644
▁1/2	-13645
▁Gab	-13646
▁Hud	-13647
▁drum	-13648
▁seaf	-13649
▁toll	-13650
▁weed	-13651
ophers	-13652
▁Problem	-13653
▁extinct	-13654
▁millenn	-13655
▁silence	-13656
▁adventure	-13657
▁disappoint	-13658
▁impairment	-13659
▁responding	-13660
▁appreciation	-13661
▁strengthening	-13662
uf	-13663
chi	-13664
pha	-13665
vas	-13666
▁EL	-13667
onut	-13668
▁rif	-13669
estab	-13670
▁Beng	-13671
▁opio	-13672
▁plug	-13673
▁tent	-13674
▁Night	-13675
▁Parks	-13676
▁trash	-13677
▁enroll	-13678
▁wheels	-13679
▁printer	-13680
▁variant	-13681
▁lowering	-13682
izophrenia	-13683
▁Northwest	-13684
▁utilizing	-13685
▁Federation	-13686
▁illustrates	-13687
lie	-13688
week	-13689
▁PRO	-13690
▁bub	-13691
▁rum	-13692
ilies	-13693
omnia	-13694
▁2002,	-13695
▁Howard	-13696
▁diesel	-13697
▁traces	-13698
orescent	-13699
▁secured	-13700
▁Problems	-13701
▁disagree	-13702
▁Programme	-13703
▁priorities	-13704
▁recommendation	-13705
▁Amb	-13706
antry	-13707
overs	-13708
▁cubic	-13709
▁Region	-13710
▁Saturn	-13711
▁excite	-13712
▁instinct	-13713
▁pointing	-13714
▁variants	-13715
▁Frederick	-13716
▁depressed	-13717
▁elaborate	-13718
▁obtaining	-13719
▁electromagnetic	-13720
97	-13721
▁RS	-13722
▁Ori	-13723
othel	-13724
▁Salt	-13725
▁pean	-13726
▁rust	-13727
▁2001,	-13728
▁Anglo	-13729
▁burns	-13730
▁harness	-13731
▁terrain	-13732
▁formerly	-13733
FA	-13734
vic	-13735
will	-13736
uliar	-13737
vised	-13738
▁Datab	-13739
▁gover	-13740
▁liber	-13741
▁Queens	-13742
▁landed	-13743
▁warned	-13744
▁Virtual	-13745
▁diamond	-13746
▁priorit	-13747
▁connects	-13748
92	-13749
erce	-13750
▁dos	-13751
fting	-13752
▁Bart	-13753
nowned	-13754
▁Venus	-13755
▁deriv	-13756
▁pyram	-13757
ensions	-13758
▁Legisl	-13759
▁Record	-13760
▁clarity	-13761
▁romantic	-13762
▁everybody	-13763
▁selective	-13764
▁ultrasound	-13765
▁respondents	-13766
uter	-13767
rator	-13768
▁lawn	-13769
retion	-13770
▁Swiss	-13771
▁lasts	-13772
▁smile	-13773
▁whale	-13774
▁clinic	-13775
▁wishes	-13776
▁cookies	-13777
▁Hamilton	-13778
▁formally	-13779
▁proximity	-13780
▁translate	-13781
▁inevitable	-13782
▁obligation	-13783
aux	-13784
lad	-13785
▁ram	-13786
▁acre	-13787
▁cram	-13788
PubMed	-13789
flower	-13790
▁Foods	-13791
▁allev	-13792
▁plague	-13793
▁beaches	-13794
▁monarch	-13795
▁museums	-13796
▁displace	-13797
▁keyboard	-13798
▁remedies	-13799
▁seizures	-13800
▁troubles	-13801
▁restaurant	-13802
▁ventilation	-13803
aic	-13804
oni	-13805
only	-13806
▁USS	-13807
▁abst	-13808
▁orth	-13809
▁laugh	-13810
culosis	-13811
▁formats	-13812
▁horizon	-13813
▁comprises	-13814
▁investing	-13815
▁subjected	-13816
NT	-13817
stud	-13818
▁17.	-13819
▁Bed	-13820
▁cum	-13821
▁Harry	-13822
▁hierarchy	-13823
▁proposals	-13824
▁respected	-13825
▁Guidelines	-13826
dy	-13827
▁72	-13828
leys	-13829
onder	-13830
▁Late	-13831
▁bush	-13832
raulic	-13833
▁fired	-13834
▁nasal	-13835
▁scrap	-13836
▁Morgan	-13837
analysis	-13838
▁Address	-13839
▁anxious	-13840
▁Alliance	-13841
▁portable	-13842
▁countless	-13843
▁electroly	-13844
▁parasites	-13845
▁reproduce	-13846
IE	-13847
axis	-13848
▁Lef	-13849
▁Born	-13850
▁lion	-13851
▁firmly	-13852
▁perenn	-13853
▁glasses	-13854
▁recruit	-13855
▁stimuli	-13856
▁delicate	-13857
▁emphasized	-13858
▁peripheral	-13859
pop	-13860
▁rip	-13861
▁Vien	-13862
▁mant	-13863
report	-13864
▁Consult	-13865
▁Proceed	-13866
▁handled	-13867
▁metaphor	-13868
▁wastewater	-13869
▁counterparts	-13870
▁modification	-13871
PE	-13872
▁SA	-13873
tech	-13874
aceous	-13875
ograms	-13876
▁Stage	-13877
▁apost	-13878
▁punct	-13879
▁theor	-13880
▁woods	-13881
inarian	-13882
▁Higher	-13883
▁Manual	-13884
▁exports	-13885
roscience	-13886
▁alternate	-13887
▁preventive	-13888
▁underwater	-13889
▁approaching	-13890
▁simulations	-13891
▁appropriately	-13892
▁mad	-13893
▁lady	-13894
▁seam	-13895
arming	-13896
▁Birth	-13897
▁hoped	-13898
▁noting	-13899
▁parish	-13900
▁abortion	-13901
▁antibody	-13902
▁asbestos	-13903
▁enhancing	-13904
▁introduces	-13905
▁continental	-13906
oz	-13907
-16	-13908
alry	-13909
aunt	-13910
umph	-13911
▁Kid	-13912
▁glue	-13913
powered	-13914
▁desires	-13915
▁fathers	-13916
▁indoors	-13917
▁homeless	-13918
▁portrait	-13919
▁capitalism	-13920
Ab	-13921
By	-13922
hol	-13923
mith	-13924
news	-13925
▁McK	-13926
▁Ron	-13927
▁Run	-13928
▁Citiz	-13929
▁Dakota	-13930
▁Guinea	-13931
▁Wright	-13932
▁immers	-13933
▁worthy	-13934
▁empathy	-13935
▁eternal	-13936
▁societal	-13937
▁harvested	-13938
▁counseling	-13939
▁recognised	-13940
▁astronomers	-13941
▁58	-13942
bone	-13943
fram	-13944
unks	-13945
sight	-13946
lighten	-13947
▁Growth	-13948
▁transit	-13949
NC	-13950
▁q	-13951
fin	-13952
log	-13953
▁iv	-13954
nest	-13955
alling	-13956
ivated	-13957
olding	-13958
▁Calcul	-13959
▁Nearly	-13960
▁radius	-13961
▁revision	-13962
▁Antarctic	-13963
▁wilderness	-13964
3-	-13965
ims	-13966
odus	-13967
▁Few	-13968
▁bol	-13969
atics	-13970
source	-13971
▁ambit	-13972
autions	-13973
▁infest	-13974
▁heading	-13975
▁publish	-13976
▁evolving	-13977
▁authentic	-13978
▁teenagers	-13979
▁presentations	-13980
mid	-13981
itol	-13982
▁(0.	-13983
Table	-13984
itime	-13985
▁Stop	-13986
▁arom	-13987
rative	-13988
▁Illust	-13989
▁upward	-13990
▁Brother	-13991
▁Measure	-13992
▁easiest	-13993
▁erected	-13994
▁tourist	-13995
▁urinary	-13996
▁Marshall	-13997
▁lectures	-13998
▁empirical	-13999
AND	-14000
▁RA	-14001
▁(15	-14002
▁Dog	-14003
▁Ltd	-14004
▁dye	-14005
bling	-14006
endix	-14007
ifiers	-14008
rehend	-14009
▁2004.	-14010
▁Seven	-14011
▁sweat	-14012
▁traff	-14013
▁friction	-14014
▁Victorian	-14015
▁humanitarian	-14016
▁Too	-14017
▁Serb	-14018
▁clot	-14019
▁crude	-14020
▁jewel	-14021
▁shops	-14022
▁stool	-14023
▁intric	-14024
▁patron	-14025
ilingual	-14026
▁judicial	-14027
▁parental	-14028
▁petition	-14029
▁theology	-14030
▁exceptional	-14031
▁neighborhoods	-14032
9–	-14033
▁EV	-14034
▁Ga	-14035
▁Shel	-14036
▁rash	-14037
▁2018,	-14038
▁3,000	-14039
▁Price	-14040
▁asleep	-14041
▁dermat	-14042
esthesia	-14043
▁Mercury	-14044
▁satisfy	-14045
▁Manufact	-14046
▁momentum	-14047
▁backgrounds	-14048
▁Construction	-14049
▁Professional	-14050
▁commissioned	-14051
BL	-14052
Im	-14053
▁4)	-14054
▁PD	-14055
▁Base	-14056
▁Mort	-14057
▁bund	-14058
▁dorm	-14059
▁vein	-14060
ailand	-14061
▁Estab	-14062
▁stain	-14063
▁fright	-14064
▁litter	-14065
▁simpler	-14066
conscious	-14067
▁Document	-14068
▁equilibrium	-14069
▁Interestingly	-14070
rost	-14071
▁jar	-14072
▁vend	-14073
▁ammon	-14074
▁Members	-14075
▁parking	-14076
▁cylinder	-14077
▁fracture	-14078
▁stresses	-14079
▁favorable	-14080
▁interconn	-14081
▁neighboring	-14082
▁outstanding	-14083
▁incorporating	-14084
51	-14085
-14	-14086
iii	-14087
rer	-14088
uru	-14089
▁bug	-14090
insic	-14091
▁Band	-14092
▁fans	-14093
ancies	-14094
▁5,000	-14095
▁Advis	-14096
▁Sports	-14097
▁nutrit	-14098
▁offset	-14099
acterial	-14100
▁centres	-14101
▁entries	-14102
▁pulling	-14103
▁biblical	-14104
▁adulthood	-14105
▁daughters	-14106
▁occasional	-14107
▁kindergarten	-14108
()	-14109
IH	-14110
urg	-14111
▁NA	-14112
alia	-14113
▁140	-14114
▁Rot	-14115
acial	-14116
group	-14117
neath	-14118
▁Foot	-14119
▁limb	-14120
▁thou	-14121
▁appar	-14122
▁folks	-14123
forming	-14124
versely	-14125
▁washed	-14126
▁Anthony	-14127
▁Organic	-14128
▁nearest	-14129
astically	-14130
roximately	-14131
▁signature	-14132
▁geological	-14133
▁guaranteed	-14134
▁imperative	-14135
▁preserving	-14136
▁prohibited	-14137
▁microorganisms	-14138
ME	-14139
opsy	-14140
▁170	-14141
adian	-14142
count	-14143
depth	-14144
ysics	-14145
▁1993	-14146
▁Gord	-14147
▁Plus	-14148
▁silk	-14149
direct	-14150
▁rulers	-14151
▁fifteen	-14152
▁demanded	-14153
▁determin	-14154
▁inferior	-14155
▁mandatory	-14156
ATE	-14157
▁DE	-14158
▁Bos	-14159
▁hay	-14160
▁Peru	-14161
▁stamp	-14162
▁submar	-14163
▁tonnes	-14164
▁reactor	-14165
▁peculiar	-14166
▁Agreement	-14167
▁compatible	-14168
▁sanitation	-14169
▁supportive	-14170
▁obligations	-14171
▁breakthrough	-14172
61	-14173
▁7:	-14174
▁Hi	-14175
ulas	-14176
▁coh	-14177
▁Oral	-14178
▁Side	-14179
▁Soon	-14180
▁Verm	-14181
▁rept	-14182
esthet	-14183
▁sharks	-14184
▁Seattle	-14185
▁counted	-14186
▁singular	-14187
▁tomorrow	-14188
▁reflecting	-14189
▁communicating	-14190
Res	-14191
irie	-14192
mans	-14193
ocur	-14194
▁Rat	-14195
▁1989	-14196
▁Saud	-14197
▁thir	-14198
▁Recon	-14199
▁Signs	-14200
▁congest	-14201
▁profiles	-14202
▁touching	-14203
▁strongest	-14204
▁administer	-14205
▁arrangements	-14206
▁demonstrating	-14207
bin	-14208
▁SL	-14209
▁iod	-14210
▁pad	-14211
▁Hait	-14212
▁Pick	-14213
▁chop	-14214
iguous	-14215
riages	-14216
▁grasp	-14217
utenant	-14218
▁induce	-14219
▁shower	-14220
cellular	-14221
▁aligned	-14222
▁welding	-14223
▁clicking	-14224
▁invested	-14225
▁declining	-14226
▁attachment	-14227
▁prediction	-14228
Ne	-14229
OG	-14230
edic	-14231
▁Stay	-14232
▁eleg	-14233
▁pile	-14234
ilepsy	-14235
▁shame	-14236
keeping	-14237
▁Silver	-14238
▁cooler	-14239
▁hollow	-14240
▁incons	-14241
▁puzzle	-14242
▁resort	-14243
▁Academic	-14244
▁Critical	-14245
▁diabetic	-14246
▁likewise	-14247
▁rendered	-14248
▁righteous	-14249
▁deployment	-14250
▁exceptions	-14251
▁Individuals	-14252
94	-14253
PC	-14254
otine	-14255
▁Brig	-14256
▁flux	-14257
usually	-14258
▁allies	-14259
▁depths	-14260
▁Animals	-14261
▁Margaret	-14262
▁membranes	-14263
▁testimony	-14264
▁temporarily	-14265
chy	-14266
pen	-14267
tem	-14268
▁hect	-14269
orical	-14270
prises	-14271
▁stays	-14272
achelor	-14273
▁assass	-14274
▁Belgium	-14275
▁corrosion	-14276
▁switching	-14277
▁Everything	-14278
▁Production	-14279
▁reductions	-14280
.3	-14281
bey	-14282
doc	-14283
igo	-14284
▁8:	-14285
▁MC	-14286
serv	-14287
ulse	-14288
▁toy	-14289
rians	-14290
▁Plat	-14291
inence	-14292
▁Sudan	-14293
▁frost	-14294
▁poses	-14295
▁brands	-14296
▁fitted	-14297
▁garlic	-14298
▁Weather	-14299
▁descent	-14300
▁courtesy	-14301
▁elephant	-14302
▁petroleum	-14303
▁organizing	-14304
▁subjective	-14305
▁Application	-14306
due	-14307
▁HT	-14308
▁Ka	-14309
walk	-14310
▁Batt	-14311
▁dens	-14312
▁meta	-14313
▁orch	-14314
▁Lakes	-14315
▁incub	-14316
▁utter	-14317
▁Member	-14318
▁bronze	-14319
▁metric	-14320
▁pedest	-14321
▁Genetic	-14322
▁Respons	-14323
▁couples	-14324
▁trusted	-14325
▁charging	-14326
▁feasible	-14327
▁Argentina	-14328
▁assembled	-14329
▁exercising	-14330
OH	-14331
Or	-14332
cha	-14333
erk	-14334
eing	-14335
icus	-14336
▁HPV	-14337
reach	-14338
▁quiz	-14339
oubted	-14340
second	-14341
▁Influ	-14342
▁Occup	-14343
▁shelf	-14344
▁sprou	-14345
▁apples	-14346
▁quotes	-14347
▁runoff	-14348
▁talent	-14349
▁tended	-14350
▁Russell	-14351
expensive	-14352
▁overseas	-14353
▁Baltimore	-14354
▁curiosity	-14355
▁defensive	-14356
▁governing	-14357
▁encryption	-14358
="	-14359
rots	-14360
▁umb	-14361
metic	-14362
▁Eric	-14363
▁Phill	-14364
▁limbs	-14365
▁monop	-14366
idation	-14367
welling	-14368
▁Simply	-14369
▁carved	-14370
▁tender	-14371
▁Ecology	-14372
▁dynasty	-14373
▁freezing	-14374
▁wherever	-14375
▁secretary	-14376
▁shoulders	-14377
▁sovereign	-14378
▁calculator	-14379
aro	-14380
▁SN	-14381
▁na	-14382
▁sq	-14383
olen	-14384
ovid	-14385
prot	-14386
▁25%	-14387
▁Abs	-14388
mates	-14389
width	-14390
▁Khan	-14391
▁deny	-14392
▁foli	-14393
▁treats	-14394
▁weekend	-14395
▁Programs	-14396
▁modifications	-14397
12.	-14398
▁Tu	-14399
▁eco	-14400
ensis	-14401
style	-14402
▁PTSD	-14403
▁Adapt	-14404
▁Allow	-14405
▁fibre	-14406
▁serum	-14407
▁Planet	-14408
▁bullet	-14409
olerance	-14410
▁Roberts	-14411
▁matches	-14412
▁Likewise	-14413
▁producer	-14414
▁upcoming	-14415
▁targeting	-14416
threatening	-14417
▁intentions	-14418
▁Proceedings	-14419
▁differential	-14420
...]	-14421
▁Yah	-14422
speed	-14423
▁Hart	-14424
▁batt	-14425
▁odor	-14426
▁moder	-14427
▁tales	-14428
ativity	-14429
▁ethanol	-14430
▁deciding	-14431
▁discount	-14432
▁aggression	-14433
▁Chi	-14434
oresc	-14435
piece	-14436
▁Wang	-14437
▁keen	-14438
▁Range	-14439
▁clues	-14440
▁kills	-14441
▁seism	-14442
▁Morris	-14443
▁armies	-14444
▁birthday	-14445
▁infrared	-14446
▁reminder	-14447
▁tomatoes	-14448
▁treasure	-14449
osynthesis	-14450
▁medicinal	-14451
▁activation	-14452
–2	-14453
opa	-14454
sim	-14455
uce	-14456
▁52	-14457
oria	-14458
agrams	-14459
minute	-14460
▁Alber	-14461
▁burst	-14462
▁dealt	-14463
▁filed	-14464
gencies	-14465
▁Active	-14466
▁herbal	-14467
▁trucks	-14468
▁farther	-14469
▁gradual	-14470
▁climates	-14471
▁violation	-14472
▁vaccinated	-14473
▁consistency	-14474
PT	-14475
SE	-14476
mir	-14477
adows	-14478
▁Role	-14479
lywood	-14480
ousing	-14481
▁unint	-14482
▁punish	-14483
▁learner	-14484
▁infinite	-14485
▁aesthetic	-14486
▁authorized	-14487
▁documentary	-14488
card	-14489
cost	-14490
▁Ens	-14491
iatry	-14492
▁craw	-14493
▁tire	-14494
ensing	-14495
▁tutor	-14496
▁Gender	-14497
▁Taiwan	-14498
▁buffer	-14499
▁stating	-14500
▁memorial	-14501
▁ambitious	-14502
▁harvesting	-14503
▁suggestion	-14504
▁declaration	-14505
án	-14506
▁LE	-14507
orrh	-14508
▁Zion	-14509
▁hell	-14510
▁(2000	-14511
▁Truth	-14512
▁newer	-14513
▁subur	-14514
▁Memory	-14515
▁aboard	-14516
▁baking	-14517
▁Reports	-14518
▁elastic	-14519
▁tactics	-14520
dependent	-14521
▁artillery	-14522
▁fantastic	-14523
▁approached	-14524
▁descriptive	-14525
▁politically	-14526
▁veterinarian	-14527
fund	-14528
gets	-14529
▁Ped	-14530
ringe	-14531
▁Bull	-14532
izable	-14533
vasive	-14534
▁2019.	-14535
ificant	-14536
process	-14537
▁Apollo	-14538
▁Colomb	-14539
▁embarr	-14540
▁sticks	-14541
breaking	-14542
▁Express	-14543
▁foliage	-14544
▁pilgrim	-14545
▁Thailand	-14546
▁advocacy	-14547
▁brushing	-14548
▁Regardless	-14549
▁compelling	-14550
▁mitigation	-14551
Mar	-14552
0000	-14553
home	-14554
isol	-14555
ixty	-14556
▁20.	-14557
▁Nag	-14558
▁USB	-14559
▁upt	-14560
▁Stra	-14561
▁boot	-14562
▁hits	-14563
charge	-14564
▁blend	-14565
limited	-14566
▁neurop	-14567
▁Explore	-14568
▁cleaner	-14569
▁Progress	-14570
▁Whatever	-14571
▁mitigate	-14572
▁resemble	-14573
▁Peninsula	-14574
▁stressful	-14575
▁expressing	-14576
▁bloodstream	-14577
▁sovereignty	-14578
7:	-14579
LY	-14580
REE	-14581
▁Ug	-14582
aman	-14583
odia	-14584
▁12:	-14585
▁Eve	-14586
ctica	-14587
▁Save	-14588
▁Crime	-14589
▁Isaac	-14590
▁conve	-14591
▁acidic	-14592
▁coping	-14593
▁cosmic	-14594
▁Subject	-14595
▁ceiling	-14596
▁fastest	-14597
▁portfol	-14598
▁seventh	-14599
▁whereby	-14600
▁colorful	-14601
▁astronomy	-14602
▁fisheries	-14603
▁numerical	-14604
▁qualitative	-14605
alg	-14606
▁51	-14607
anny	-14608
irts	-14609
ivia	-14610
▁11:	-14611
▁IBM	-14612
▁Pun	-14613
▁sap	-14614
ocate	-14615
olics	-14616
owing	-14617
▁Acts	-14618
▁Michel	-14619
▁gluten	-14620
▁hoping	-14621
▁timely	-14622
esterday	-14623
▁cycling	-14624
▁Americas	-14625
▁exclusion	-14626
▁routinely	-14627
▁destroying	-14628
umm	-14629
▁Ta	-14630
▁10:	-14631
▁70%	-14632
▁Tob	-14633
▁Safe	-14634
▁pist	-14635
▁978-0	-14636
▁reefs	-14637
▁Fourth	-14638
▁Nevada	-14639
▁laying	-14640
▁marrow	-14641
▁propri	-14642
▁reluct	-14643
▁Applied	-14644
▁Records	-14645
▁spotted	-14646
▁storing	-14647
▁Robinson	-14648
▁commerce	-14649
▁Important	-14650
▁chromosome	-14651
84	-14652
▁66	-14653
ESCO	-14654
race	-14655
▁gig	-14656
▁mol	-14657
birds	-14658
▁Nile	-14659
▁imped	-14660
▁lawyer	-14661
▁watering	-14662
▁companion	-14663
▁monuments	-14664
▁gravitational	-14665
IB	-14666
▁EX	-14667
▁ib	-14668
▁0.5	-14669
▁sie	-14670
ccoli	-14671
▁nour	-14672
headed	-14673
mother	-14674
▁Spect	-14675
▁Donald	-14676
▁Montana	-14677
▁abandon	-14678
▁corrupt	-14679
▁endless	-14680
▁grazing	-14681
▁pursuit	-14682
▁Ethiopia	-14683
▁histories	-14684
▁consequently	-14685
▁reconstruction	-14686
Why	-14687
lem	-14688
isan	-14689
laim	-14690
▁bru	-14691
▁fut	-14692
▁cite	-14693
▁ware	-14694
holder	-14695
▁masks	-14696
▁Desert	-14697
▁Sierra	-14698
▁crimin	-14699
▁Houston	-14700
▁Sources	-14701
▁debates	-14702
▁Response	-14703
▁renowned	-14704
▁shortage	-14705
▁salvation	-14706
sea	-14707
▁IoT	-14708
▁Mun	-14709
▁lag	-14710
▁uncon	-14711
▁anyway	-14712
▁guitar	-14713
▁hiding	-14714
▁pocket	-14715
▁tablet	-14716
▁attorney	-14717
▁civilian	-14718
▁ministry	-14719
▁shifting	-14720
▁specimen	-14721
▁confusing	-14722
▁elephants	-14723
▁hurricane	-14724
▁pulmonary	-14725
▁accelerate	-14726
▁relaxation	-14727
▁constipation	-14728
▁manipulation	-14729
FT	-14730
1):	-14731
▁9:	-14732
math	-14733
▁fost	-14734
▁glyc	-14735
▁stew	-14736
▁reass	-14737
▁adject	-14738
oubtedly	-14739
▁Comment	-14740
▁domains	-14741
▁Province	-14742
▁feathers	-14743
▁passenger	-14744
disciplinary	-14745
▁contaminants	-14746
▁internationally	-14747
bot	-14748
▁5%	-14749
▁Tow	-14750
▁plag	-14751
▁trim	-14752
▁Crown	-14753
▁Laure	-14754
▁arose	-14755
▁blade	-14756
▁climb	-14757
▁semic	-14758
ardship	-14759
▁Avenue	-14760
▁Caesar	-14761
▁Mobile	-14762
▁Vienna	-14763
▁hanging	-14764
▁Articles	-14765
▁Disorder	-14766
▁aquarium	-14767
▁belonged	-14768
▁periodic	-14769
▁prompted	-14770
?)	-14771
uto	-14772
▁MR	-14773
size	-14774
▁95%	-14775
▁Tel	-14776
▁dip	-14777
▁tie	-14778
amily	-14779
araoh	-14780
▁None	-14781
▁glow	-14782
▁terr	-14783
astery	-14784
comput	-14785
▁Steve	-14786
▁badly	-14787
▁americ	-14788
▁novels	-14789
▁charity	-14790
▁declare	-14791
▁listing	-14792
▁rituals	-14793
▁autonomy	-14794
▁faithful	-14795
▁holistic	-14796
▁maturity	-14797
▁radicals	-14798
▁scanning	-14799
▁weakened	-14800
▁recognise	-14801
▁Originally	-14802
▁elimination	-14803
▁practically	-14804
xx	-14805
enc	-14806
▁BL	-14807
▁Lang	-14808
▁pools	-14809
▁Posted	-14810
▁harmon	-14811
▁Barbara	-14812
▁boiling	-14813
▁visually	-14814
▁adolescent	-14815
▁disruption	-14816
▁incomplete	-14817
▁Ku	-14818
▁Rio	-14819
ijing	-14820
▁Lack	-14821
▁prin	-14822
heumat	-14823
▁2020,	-14824
▁demol	-14825
▁hotel	-14826
olithic	-14827
▁Arabia	-14828
▁comply	-14829
▁fertile	-14830
▁garbage	-14831
▁sensing	-14832
▁Thompson	-14833
▁climbing	-14834
▁crystall	-14835
▁composite	-14836
▁Principles	-14837
▁kilometres	-14838
▁Observatory	-14839
▁abnormalities	-14840
bus	-14841
ardo	-14842
▁(17	-14843
▁SQL	-14844
istle	-14845
▁(196	-14846
▁Brand	-14847
▁flags	-14848
▁Advent	-14849
▁Hudson	-14850
▁hosted	-14851
▁flights	-14852
▁picking	-14853
▁Portugal	-14854
▁congress	-14855
▁morality	-14856
▁Aristotle	-14857
▁Universal	-14858
▁delicious	-14859
▁disciples	-14860
▁pesticide	-14861
▁privilege	-14862
";	-14863
yg	-14864
dec	-14865
▁Ig	-14866
inus	-14867
▁NAT	-14868
▁Pel	-14869
▁Kenn	-14870
▁Lith	-14871
▁Yale	-14872
▁deaf	-14873
market	-14874
▁2001.	-14875
▁Saudi	-14876
▁flora	-14877
▁advise	-14878
▁fiscal	-14879
▁spider	-14880
learning	-14881
▁execute	-14882
▁penalty	-14883
▁rounded	-14884
▁Nicholas	-14885
▁validity	-14886
▁commentary	-14887
▁underneath	-14888
▁commercially	-14889
iw	-14890
pa	-14891
▁LA	-14892
[...]
