<unk>	0
<s>	0
</s>	0
⁄4	-0
3⁄4	-1
ȶĨ	-2
uĨ	-3
ÑÌ	-4
Ȁį	-5
İį	-6
ÑĨ	-7
Ƴį	-8
ĨÑÌ	-9
ȶį	-10
ÑȀ	-11
īĨ	-12
ƦĨ	-13
İȲ	-14
ÑƳ	-15
ĨÑÌȶĨ	-16
Ñȶ	-17
ƳƋ	-18
Ƴǟ	-19
ȀįŦ	-20
ȶu	-21
ǐĨ	-22
Ĩİ	-23
Ĩu	-24
ȶİ	-25
ÑȀƳį	-26
ȀuĨ	-27
ȶuĨ	-28
ƳÁ	-29
Ĩȍ	-30
ȶȲ	-31
Ȁu	-32
ƳƋĨ	-33
ȀįŦĨ	-34
ÑƳĨ	-35
ȀȲ	-36
ǐȎ	-37
ƋƳ	-38
Ĩơ	-39
ĨD	-40
Ìİ	-41
ȀÑ	-42
ƳȲ	-43
Áİ	-44
ýÌ	-45
Ĩİį	-46
ĨȀį	-47
Ƴơ	-48
ǟu	-49
Ȳİ	-50
Ñİ	-51
ÑÌȶĨ	-52
Ȳȶ	-53
İȲĨ	-54
Ñǟ	-55
İÑĨ	-56
ȍȶ	-57
ȲȀ	-58
Ƴu	-59
ÑuĨ	-60
İĨ	-61
ĨÁ	-62
ȀŦ	-63
ȲƦĨ	-64
İÑȀƳį	-65
ȶÁ	-66
İÁ	-67
ĨƋ	-68
ǟį	-69
ýÌȶĨ	-70
ȀÑÌ	-71
Ìȶ	-72
Dȶ	-73
ȶįÑĨ	-74
ȲȶĨ	-75
İu	-76
ÑÌȶ	-77
ƳƋĨÑÌȶĨ	-78
Ƴȍ	-79
ĨÑƳĨ	-80
ƦƳǟ	-81
İįĨ	-82
įȶ	-83
uȀ	-84
uīĨ	-85
53⁄4	-86
İuĨ	-87
ȀįĨ	-88
ȶę	-89
ÌĨ	-90
»5	-91
ÌȀ	-92
İÑ	-93
uȶ	-94
Ƌȶ	-95
ƳĨ	-96
İÑȶ	-97
ǟȲ	-98
5»	-99
ǟÁ	-100
ĨİĨ	-101
ȲƳ	-102
ƳįĨ	-103
ȀÁ	-104
ȶįÑ	-105
ȍİ	-106
Ŧȶ	-107
ƋȀ	-108
Ƴǟį	-109
İD	-110
ĨƳƋĨ	-111
İȲȲ	-112
ȀÑĨ	-113
uǟ	-114
ȶįĨ	-115
Áȶ	-116
įƳ	-117
ǡǟ	-118
ȐĨ	-119
ȶȍ	-120
uÑ	-121
▁Ȁ	-122
ŦȶĨ	-123
uǐĨ	-124
ĨÑÌȶ	-125
ƳŦ	-126
ÑÌİÑĨ	-127
ÌƳ	-128
ȀȲȲ	-129
Nį	-130
ȶĨơ	-131
ĨƳ	-132
uĨİį	-133
īĨİį	-134
ĨÌ	-135
ĨÑÌİÑĨ	-136
55	-137
ȶĨÑÌȶĨ	-138
ĨÑƳ	-139
3⁄45	-140
ƳǟÑĨ	-141
ĨƋƳ	-142
ȶĨu	-143
Ȳİį	-144
ȶÑ	-145
İȍ	-146
ĨȀuĨ	-147
ȍƳ	-148
ơȶ	-149
ȶĨİ	-150
ȀÑƦĨ	-151
İƦ	-152
ȀŦÌ	-153
ơƳ	-154
ÁƳ	-155
ǨĨ	-156
ĨİuĨ	-157
ĨȀįĨ	-158
Dǟ	-159
ȶĨİį	-160
ơȀÑÌ	-161
ŦÌ	-162
Ȳȶİ	-163
ĨơȀÑÌ	-164
Ȁȶ	-165
DƳ	-166
ǐĨýÌȶĨ	-167
ƥƥ	-168
ȀįĨÑÌȶĨ	-169
ĥȶ	-170
ǟȍ	-171
»»	-172
uÑĨ	-173
ȀƋ	-174
ȶƋ	-175
Ȳǟ	-176
ȶįÑuĨ	-177
uƳ	-178
ȶīĨ	-179
ĥĨ	-180
īĨÑÌȶĨ	-181
ȀÑȀ	-182
uĨİ	-183
ĨŦ	-184
5«	-185
ÌȀȲ	-186
ȎuĨ	-187
ȶĨƳƋĨ	-188
uǐȎ	-189
ƳǟȲ	-190
įƳÑĨ	-191
ƳÁȍ	-192
İȲȲƦĨ	-193
įȀ	-194
Ĩuȶ	-195
ĨÑÌȀuĨ	-196
ƦīĨ	-197
ĨDƦĨ	-198
ȀȶuĨ	-199
ȶĨȍ	-200
ȶȲȲ	-201
Ĩȍȶ	-202
uĨƳƋĨ	-203
Ĩȍİ	-204
ȀįŦĨÑÌȶĨ	-205
ÑȶÁ	-206
Ñȶį	-207
ǟȲİ	-208
İƦĨ	-209
ĨƤ	-210
ĥȶĨ	-211
ƳƳ	-212
Ĩȸ	-213
ǐĨýÌ	-214
Ȁȶį	-215
ȎȐĨ	-216
ĨƦƳǟ	-217
ƳÁÁ	-218
ȶŦ	-219
ȶuu	-220
Ƴơį	-221
ȶuīĨ	-222
ǟuȶ	-223
ƳD	-224
İŦ	-225
ȶuuĨ	-226
ÌİuĨ	-227
ƳįȶĨ	-228
ƳįŦ	-229
ȶįȶ	-230
Ƴơȶ	-231
ȶİu	-232
ÑȀƳįĨ	-233
Ìİį	-234
ÑȶĨ	-235
ȶȶ	-236
ĨDȶĨ	-237
ƳÁȶĨ	-238
ŎuĨ	-239
ǟD	-240
Ƌİ	-241
ǐĨȸ	-242
Ñİį	-243
ŻȤ	-244
ƳuÑĨ	-245
ȲȲ	-246
Ĩȱ	-247
żƥ	-248
ÑƳĨÑÌȶĨ	-249
ƳÁĨ	-250
ĨÑÌȶȀ	-251
ĨȀįĨÑÌȶĨ	-252
ĨÁƳ	-253
ƳǟŦÌ	-254
ƳįÑ	-255
ȶuÑĨ	-256
ƳįĨÑÌȶĨ	-257
ÑȀįŦĨ	-258
ÁȶįÑĨ	-259
īĨơ	-260
ÌİÑĨ	-261
DȶĨ	-262
ȲȀį	-263
ÑÌĨ	-264
ÑȀÁ	-265
ǐĨN	-266
Ȁȍ	-267
ȀÑȀƳį	-268
Ʀu	-269
Áİį	-270
Ȁİ	-271
İȀį	-272
ȀÑuĨ	-273
ĨÑ	-274
ĨİÑĨ	-275
Ʀȶİ	-276
ȎȎ	-277
Ȁľ	-278
ƳȲƳŦ	-279
İÑȶĨ	-280
ĨÁİ	-281
Ĩȶ	-282
ȀƳ	-283
ơİ	-284
ȶĨȀuĨ	-285
3⁄43⁄4	-286
ȍȍ	-287
ĨÔ	-288
ĥį	-289
ƳÑÌȶ	-290
ȲȀu	-291
uĨÑƳĨ	-292
İDȲȶĨ	-293
ȶĨȀį	-294
ĨǗ	-295
ȀİȲ	-296
ĨƳƋ	-297
ÌƳơ	-298
ƳǟuĨ	-299
ȶĨÑƳĨ	-300
Ĩȶę	-301
ŦƳ	-302
İÑȀ	-303
ǐȎýÌȶĨ	-304
öȶ	-305
ȶuĨİį	-306
ǟuȶĨ	-307
ĨÌİ	-308
DǟÑĨ	-309
ĨƳƋĨÑÌȶĨ	-310
DȲȶĨ	-311
ĨDȶ	-312
ĨơİuĨ	-313
ƦĨÑÌȶĨ	-314
ȀŦÌÑĨ	-315
Ĩuǟ	-316
ȶȲȶ	-317
ȶuȶĨ	-318
ơİuĨ	-319
įȶơ	-320
DƦĨ	-321
Ȁįȶ	-322
ĨİD	-323
ÑīĨ	-324
Ȳİu	-325
ơÌ	-326
ÁȶįÑ	-327
uȀƳį	-328
ǟuÑĨ	-329
ȶįÑȀ	-330
ȀƳį	-331
Ƴĥ	-332
İŦȶĨ	-333
ǟuĨ	-334
ȶĨÑÌ	-335
ȀįŦĨu	-336
ǟÑĨ	-337
ȶȲȍ	-338
Ĩį	-339
ƳÁĨÑÌȶĨ	-340
İÑǟ	-341
ȀįÑȶ	-342
ƳÁȶ	-343
uȎ	-344
ȶǡǟ	-345
ȀuÑ	-346
İȀ	-347
Ƴȍȶ	-348
uƳĨ	-349
ȍȀ	-350
ơȀȲȲ	-351
uȶĨ	-352
ȶuȶİ	-353
ĨơƳ	-354
įĨ	-355
ȍƳu	-356
uÑİį	-357
ǐĨȭ	-358
Ŧǟ	-359
ÑƦ	-360
ȶơ	-361
ĨÑÌȶƦĨ	-362
uĨÑÌİÑĨ	-363
ȶĨƋ	-364
ĥȀįŦĨ	-365
ÌƦ	-366
ĨƯ	-367
Ĩȭ	-368
ƳȍȲȶĨ	-369
ĨİĨu	-370
uÌ	-371
İÁȍ	-372
ƦuÑȶÁ	-373
ŦȀ	-374
ĨŻ	-375
ǐȎȐĨ	-376
İįu	-377
ýÌȀuĨ	-378
Dİ	-379
ȀƋƋȶ	-380
ȍȲİ	-381
įȶȶ	-382
ȶȲƦĨ	-383
ÑĨƳƋĨ	-384
ĨƖ	-385
Ìȶİ	-386
ȀİȲĨ	-387
ÁƳuÑĨ	-388
uÑİ	-389
żƥŻ	-390
ȲƦ	-391
Ǘİ	-392
ĨuÑİ	-393
ȀÑȶ	-394
ĨÑȶ	-395
Ƴįu	-396
İįÑĨ	-397
ƦĨİį	-398
ȀuÑƳ	-399
ơÌȀ	-400
ĨuÑǟ	-401
ǶƳ	-402
▁»	-403
ȶuĨƳƋĨ	-404
İƋ	-405
ǐĨƅ	-406
ȶİȲ	-407
ÑȀƳįuĨ	-408
ĨơÌ	-409
İįƦĨ	-410
ƋǟȲ	-411
ȀÁȍ	-412
ȶȲƳȍ	-413
Ĩć	-414
ǟÑ	-415
Ĩƅ	-416
Ĩý	-417
ȀŦį	-418
ĨȲȀ	-419
Ĩų	-420
ȀÑƦ	-421
ƳÑȶ	-422
ǐĨNį	-423
ĨƳį	-424
ÁȀį	-425
ȶĨDȶ	-426
ÌƳƳȲ	-427
uĨÑÌȶĨ	-428
ȶĨƋƳ	-429
ȀÁİ	-430
įŦ	-431
ȶuÑ	-432
tįȀ	-433
ȶuĨİ	-434
İÑİ	-435
ȶƦĨ	-436
ȶÑȶ	-437
İDƳǟÑĨ	-438
İȲuƳĨ	-439
ǐȎȸ	-440
ȶįÑȶ	-441
ȶįŦ	-442
ÑİȀį	-443
ĨÑƳĨÑÌȶĨ	-444
uīĨİį	-445
ǐĨýÌȀuĨ	-446
ÑĨȀuĨ	-447
ȀįŦĨİ	-448
ÌȶİȲ	-449
İȀȲ	-450
İȲȲȶ	-451
ĨİDƳǟÑĨ	-452
ĨuÑ	-453
İȍȍ	-454
uÑǟ	-455
ÑÌƳ	-456
ĨȎ	-457
ȀįŦīĨ	-458
ĨơȀȲȲ	-459
ȶİÑ	-460
ȶĨİĨ	-461
ĥuĨ	-462
ÑÌȶƦĨ	-463
ÁİƦĨ	-464
ĨÑÌȶÁ	-465
Dİu	-466
Ƴİ	-467
ÌȶȲȍ	-468
ȀįŦĨİį	-469
ƨȎ	-470
İǟ	-471
İȲuƳ	-472
ȶȶĨ	-473
ȲȶÁ	-474
ǟÁDȶ	-475
ĨR	-476
ƳǟÑ	-477
ȶİÑĨ	-478
Ĩǟį	-479
ȀįŦĨȍ	-480
ĨN	-481
ĀƳ	-482
İÑƳ	-483
uĨƋƳ	-484
ƦĨƳƋĨ	-485
ưƳǟ	-486
ǟuÑ	-487
uĨȀį	-488
ƳƋĨu	-489
ĨÁȶ	-490
ǐĨƖ	-491
ĥįƳơ	-492
ȲȶuĨ	-493
ȲƳơ	-494
ƦƳǟĨ	-495
Ȁİį	-496
İįĨDȶĨ	-497
▁Ñİ	-498
ȶÑĨ	-499
İÑȀƳįİȲĨ	-500
ȲƳu	-501
ȶǐȎ	-502
ĨƳÑÌȶ	-503
żƥƥ	-504
ȀÁȍƳ	-505
Żȹ	-506
ƳǟįÑ	-507
uÑȶ	-508
ȶD	-509
uÑȀ	-510
ȶÁƳ	-511
İơ	-512
ĨĆ	-513
ȀÑȶĨ	-514
ÑÑȶ	-515
uƳį	-516
ÁİÑȀƳį	-517
ĨȀÑĨ	-518
Áȍ	-519
ÑƳĨu	-520
ÌĨİuĨ	-521
ȶĨƳƋĨÑÌȶĨ	-522
ȀD	-523
ƳįȲƦĨ	-524
ƳÁÁǟį	-525
ȀįȶĨ	-526
ĨǶ	-527
öƳ	-528
Ȁȶu	-529
ĨDƳ	-530
Ŧİį	-531
İÁȶĨ	-532
uȍȶ	-533
įȀįŦĨ	-534
ȀƋȀ	-535
ĨuƳ	-536
ȶęȍȶ	-537
ȀuÌ	-538
FĨ	-539
ƋÑȶ	-540
ǨȎ	-541
ÌȀȍ	-542
ȶuȍ	-543
ĨȀįÑȶ	-544
ÌƳȲ	-545
ȶǐĨ	-546
ƳƋĨİ	-547
ƳȲȲȶ	-548
Ŧİ	-549
İȲĨȍ	-550
ȶİÑȶ	-551
ȲȀŦÌ	-552
Ôİ	-553
Ŧȶį	-554
Ƴǟȍ	-555
ȶƋƋȶ	-556
ĨƋİ	-557
ȲƳƳ	-558
ÑƳĨȍ	-559
ÑĨİį	-560
ĨDƦĨÑÌȶĨ	-561
Ïį	-562
ơȶȲȲ	-563
ÑĨÑÌȶĨ	-564
ȶĨÑÌİÑĨ	-565
ơİÑȶ	-566
ĨơÌȀ	-567
ÌȀuĨ	-568
Żƥ	-569
Ìį	-570
uĨȀįĨ	-571
ÁȀ	-572
ȀƳǟuĨ	-573
ÌȶİȲÑÌ	-574
ƋȀį	-575
ĨƳįĨ	-576
ȶÁȶįÑĨ	-577
Ìȶį	-578
DȀ	-579
ÑİįÑĨ	-580
Ʀȶ	-581
Ȁȶơ	-582
ƳǟŦ	-583
ÑÌȶȀ	-584
ȶuĨÑÌȶĨ	-585
İȲĨu	-586
İuu	-587
ȶęȍ	-588
İǟuȶĨ	-589
ȀȲȲȀ	-590
ĨĀ	-591
ȶȎ	-592
ȶÁDȶ	-593
ơİƦ	-594
ÁƳį	-595
Ƴǟu	-596
Ĩİȍȍ	-597
İǟu	-598
ȶuǟȲ	-599
ÑÑ	-600
ĨuÌ	-601
ÑÌȀuĨ	-602
İŦȶ	-603
ÁİÑȶ	-604
ǐĨƤ	-605
Ĩİu	-606
ƳǟŦÌĨ	-607
ȶĨơȀÑÌ	-608
ȶĨȀįĨ	-609
İÁȀȲ	-610
ÑƦĨ	-611
ȀįŦĨÑƳĨ	-612
Ñİĥ	-613
ĨÑÌȶuȶĨ	-614
ǟÑȶ	-615
ƳƋĨȍ	-616
ȸį	-617
uȶȲ	-618
ơȀÑÌĨ	-619
İȲǟ	-620
uĨƋ	-621
ȶȐ	-622
īĨơÌȀ	-623
įǟÁDȶ	-624
ƳDȲȶÁ	-625
ǟDȲȀ	-626
3⁄4«	-627
ȀİĨ	-628
ƳįuȀ	-629
Ŧȶįȶ	-630
įİÁ	-631
ȲȀĥȶĨ	-632
ȲƳįŦ	-633
Ĩuȍȶ	-634
ŦȶÑĨ	-635
öǟuÑĨ	-636
Ñơ	-637
ȶįÑǟ	-638
ǟȲÑǟ	-639
ǟŦ	-640
ȀȶÑ	-641
ƳÁȍȲȶ	-642
ĨÑÌȶĨu	-643
İȲȲĨ	-644
ȶuǐȎ	-645
ȸÁȶ	-646
ȎýÌȶĨ	-647
ȀÑĨȀuĨ	-648
ȶȍƳ	-649
īĨDǟÑĨ	-650
ȶĨơİuĨ	-651
Ƴöȶ	-652
uǐ	-653
ĨȍȲİ	-654
ƤÌ	-655
ƳȲȀ	-656
ȀuÁ	-657
ÑȀu	-658
ÑơƳ	-659
uĨƳƋĨÑÌȶĨ	-660
ĨȲİ	-661
ĨƦȶİ	-662
ȀÑȀȶuĨ	-663
ĨȍƳ	-664
Ĩȶį	-665
ǐĨý	-666
ųȶ	-667
ǐĨNÑĨ	-668
īĨu	-669
ĥįƳơį	-670
ÑİD	-671
▁ȶ	-672
ĨÑÌȶĨȍ	-673
uǐĨýÌȶĨ	-674
ȀȲȀÑƦĨ	-675
ơÌȶ	-676
ÑȲƦĨ	-677
ȶİuȶ	-678
ĨơȀÑÌĨ	-679
ƦĨu	-680
ƳơĨ	-681
ÑuĨİį	-682
ȶuÑȀ	-683
ǐǐ	-684
uȀÑƦĨ	-685
ÑİÑȀƳį	-686
ȶuÑȶ	-687
ƳȍǟȲİ	-688
ȀįŦĨİĨ	-689
FīĨ	-690
ÑƳĨİ	-691
ƳȀ	-692
ŦȶuĨ	-693
ȶǡǟȀ	-694
ĨȍȶƳȍȲȶĨ	-695
ȶĨƳ	-696
ɁɁ	-697
ȀįŦuĨ	-698
İȲĨİį	-699
ƥƥƥ	-700
īȎ	-701
ȎÑĨ	-702
ÌȀŦÌ	-703
ȶuȀ	-704
İÑȀƳįuĨ	-705
İÑȀƳįĨ	-706
ÑȲȶĨ	-707
ÌȀuÑƳ	-708
FȎ	-709
Ȁįĥ	-710
ÌįƳȲƳŦ	-711
DȶȲ	-712
ÌǟÁ	-713
ȍȲİį	-714
ĨȍȲİį	-715
İĨu	-716
ƋƳƳ	-717
İuÑĨ	-718
ÁĨ	-719
ǗƳ	-720
uȀƳįĨ	-721
uÌȀȍ	-722
ȶȍİ	-723
ȶÁȀ	-724
ȲȀƋ	-725
ȀuĨÑÌȶĨ	-726
ÌƦuȀ	-727
ȶĨƦƳǟ	-728
ƳȲƳ	-729
ȀÑƳ	-730
ÌİuĨDȶ	-731
ĥȀ	-732
ĨƋȀ	-733
ǡǟȶu	-734
ÑȀƳįĨƳƋĨ	-735
ÁİȀį	-736
ǟİȲ	-737
ÑİȲ	-738
ȶĨÌİ	-739
ȀįÑ	-740
ȀDǟ	-741
ƳƋĨİĨ	-742
ȲȶīĨ	-743
ǐȎȭ	-744
Ĩơȶ	-745
ýÌȶ	-746
Ñȶİ	-747
Ñơȶ	-748
ĨÏ	-749
ĨDȶÑ	-750
▁Ƴ	-751
ȲȲƳơ	-752
ƳȲǟ	-753
ĨDİ	-754
Ȳȶu	-755
Āȶơ	-756
ÁİįƦĨ	-757
ȶįĨÑÌȶĨ	-758
ćę	-759
ÑȀÁȶ	-760
ĨȲȶİ	-761
ÑuĨƳƋĨ	-762
ơİƦĨ	-763
ĨİÑĨÑÌȶĨ	-764
ÑƳÁ	-765
ȶƋȶ	-766
ǐĨÔ	-767
ƳuȶĨ	-768
ȶuuȀƳį	-769
ĨƳįĨÑÌȶĨ	-770
ĥȀį	-771
ƋƳǟį	-772
uȍ	-773
ÑƦȍ	-774
uĨȱ	-775
DǟȀȲ	-776
ƳįÑȀį	-777
ȶuƳǟ	-778
ƳįÑİ	-779
ȀİįĨ	-780
ȲȀĥ	-781
uÑƳ	-782
DƳƳĥ	-783
ȲƳơȶ	-784
ÁİĥȶĨ	-785
ȲƳƳĥ	-786
ǟȲÑȀ	-787
ĥȀȲȲ	-788
ƳįƳÁ	-789
ȍȶƳȍȲȶĨ	-790
ȀuÑĨ	-791
ȲȶuuĨ	-792
Ĩż	-793
ćİ	-794
ĨơİÑȶ	-795
Ƌǟį	-796
Ǘȶ	-797
ĨįƳÑĨ	-798
İÑĨÑÌȶĨ	-799
ǐĨƯ	-800
Ȏȸ	-801
ȲȀuÌȶ	-802
ơÌİÑĨ	-803
īĨƳ	-804
ȶİuǟ	-805
Áİĥ	-806
ĨȲȶ	-807
uĨÌİ	-808
ȶǐ	-809
ƳįuÑ	-810
īĨÑÌ	-811
ĨÌȀuĨ	-812
ÁİÑȀ	-813
Ìİȍ	-814
ėƥ	-815
ȶȀ	-816
Ȁľȶ	-817
ćįŦ	-818
İuÑ	-819
uƦ	-820
įƳơ	-821
ÑĨÑƳĨ	-822
ȀuĨİĨ	-823
İīĨ	-824
ĨÁİįƦĨ	-825
ȶƦ	-826
ƳįÁȶįÑ	-827
ǡǟȀ	-828
uĨƳ	-829
ƳȶuĨ	-830
Ȁuȶİu	-831
ȶÑİ	-832
ĨDǟ	-833
ȶįÑȲƦĨ	-834
ÁİȲȲ	-835
ÑơƳĨ	-836
ȀŦÌÑ	-837
īƥƥƥ	-838
ȀįƋƳ	-839
ȲİįŦǟ	-840
İȲĨİ	-841
ÌȶĨ	-842
ƆƆ	-843
ÑĨƳƋĨÑÌȶĨ	-844
įİÑǟ	-845
Żż	-846
õƥ	-847
ƳÑ	-848
ȶȶį	-849
Ĩuȍ	-850
Dİuȶ	-851
Ćȶ	-852
įİ	-853
Ñȶę	-854
ơƳǟȲ	-855
ŦƦĨ	-856
ȶuĨÑƳĨ	-857
Áȶİį	-858
uĨơȀÑÌ	-859
ȀƳįĨ	-860
Áǟ	-861
ȎȎȎȎ	-862
ľȶ	-863
Ĩǟu	-864
ȶuĨÑÌİÑĨ	-865
Ĩǟȍ	-866
ÑƳȍ	-867
ŦƳƳ	-868
uĨȀįĨÑÌȶĨ	-869
ÑȶįĨ	-870
İÑȀƳįĨƳƋĨ	-871
İįĨİ	-872
ȎĨ	-873
ȭƳ	-874
ƳȲƳŦȀ	-875
īĨȍ	-876
NƋ	-877
ĨơȀÑÌĨÑÌȶĨ	-878
ĨÌƳơ	-879
ƳįÑȀįǟ	-880
ȀŦȀį	-881
ȶĨƳƋ	-882
İuÑȶ	-883
NįÑȶ	-884
ȀuÑȀ	-885
Ȁuĥ	-886
Ʀȍ	-887
İÑȀįŦĨ	-888
▁ȀýÌȶĨ	-889
ƋƳȲȲƳơ	-890
ƋƋȶ	-891
ƳįȀ	-892
ÌȀȲȶĨ	-893
ƳÁȶį	-894
Ƴę	-895
ÑuīĨ	-896
ơȶĨ	-897
ŦȀį	-898
uǟD	-899
ĨƋȀį	-900
ĆƳ	-901
ŎÑĨ	-902
ƳǟÑÌ	-903
Ĩȶİ	-904
1⁄4	-905
ǐĨýÌȶƦĨ	-906
ÌȀį	-907
ĨİȲ	-908
īĨİ	-909
ɁȎ	-910
ǐĨǗ	-911
ơȀ	-912
ÌȀŦ	-913
ȶuȶ	-914
ÌȶįĨ	-915
ǟİȲĨ	-916
ÑȀȲ	-917
ȶȲȀ	-918
ȶÁȍ	-919
ÌİįŦȶĨ	-920
Żė	-921
ÁȀȲ	-922
ƦǐȎ	-923
ȶȍȶį	-924
ĨȍƳu	-925
ÑÌȶÁ	-926
ĨơÌİÑĨ	-927
ĨȀ	-928
ȶuȍȶ	-929
ĨÌȶ	-930
ȶĨȱ	-931
Ȁuȶ	-932
Ƌǟ	-933
ĨuƳÁȶĨ	-934
ÑÌȀįŦĨ	-935
ƳįȶĨƳƋĨÑÌȶĨ	-936
ǐĨǶ	-937
▁Ñǟ	-938
ȶĨȀįĨÑÌȶĨ	-939
▁Ñ	-940
Żű	-941
ƦĨÑƳĨ	-942
ȀįÑĨ	-943
ȶįÑİ	-944
ȶuȀŦį	-945
Ĩř	-946
ƳÁD	-947
ÌĨȀuĨ	-948
ĨÑÌİÑĨÑÌȶĨ	-949
ŦŦ	-950
Ƥİ	-951
ȶuĨȀį	-952
ƳÁȍİ	-953
ȶęÑ	-954
ƋȲǟ	-955
ȀȶįÑĨ	-956
ÑȶuĨ	-957
uȶȲƋ	-958
Ȁuuǟ	-959
▁Ȁȸ	-960
İÁİ	-961
İȲȲƳơ	-962
öǟ	-963
ȀŦįȶ	-964
ÑȀƋȀ	-965
Ƴįįȶ	-966
ƦȎ	-967
ȶįu	-968
İÑÑȶ	-969
ȶÁȶįÑ	-970
ĨƦƳǟĨ	-971
ŦİȀį	-972
ĨÌİuĨ	-973
ǡǟİ	-974
ĨÑƳĨDȶĨ	-975
ǟİȲȲƦĨ	-976
ȀİÑȶ	-977
Ƴįȶ	-978
ȶȲİÑȶ	-979
ǟuȀ	-980
ÑuĨİ	-981
ȶĨD	-982
Ìǟ	-983
ȭÌİÑĨ	-984
ȲİÑȶ	-985
ÁȀu	-986
Ȁįİ	-987
ȀÁȍİ	-988
ȀǟÁ	-989
ȶĨÑƳ	-990
ĨÁİį	-991
uF	-992
ÌȀįŦĨ	-993
İȲȀ	-994
ĨÑÌİį	-995
tįȀÑȶ	-996
ǐĨR	-997
ȀÑƦīĨ	-998
Żĭ	-999
DȶÑơȶ	-1000
ĨÁȀį	-1001
ƦĨȍ	-1002
▁ȸ	-1003
uÌƳǟȲ	-1004
ǡǟİȲ	-1005
Ñǟį	-1006
ȶİĥ	-1007
Āȸ	-1008
ÑİĥȶĨ	-1009
ơȶȲȲĨİuĨ	-1010
ĨuƦuÑȶÁ	-1011
ĨDȶÑơȶ	-1012
Ĩuǟȍ	-1013
ƤƳ	-1014
ƳÁȍǟÑȶ	-1015
tį	-1016
ǐĨNƋ	-1017
ǐĨNÑĨȀuĨ	-1018
Ƴįuȶ	-1019
ÌĨİ	-1020
ȲȀÑ	-1021
ȶİÑÌ	-1022
ĨÑƳĨȍ	-1023
ÌįȀ	-1024
ȀÁİȲ	-1025
ȶȲƳȍÁȶįÑĨ	-1026
ȶŦǟȲİ	-1027
īĨİĨ	-1028
İÁȶ	-1029
İÑȀƳįĨİį	-1030
ĥȶȶȍ	-1031
ĨȲƳ	-1032
Ȳİuu	-1033
DȀÑ	-1034
İįŦ	-1035
ȶĨÑÌİįĨ	-1036
uĨu	-1037
ÑƳį	-1038
įƳĨ	-1039
ǐĨÏ	-1040
uĨİĨ	-1041
ƳƳĥ	-1042
Ưȶ	-1043
ĨİĨȍ	-1044
ĨƳǟÑĨ	-1045
īĨÑÌȶƦĨ	-1046
ĨȀÑuĨ	-1047
▁ǟ	-1048
īĨȀį	-1049
ÑȀÁȶuĨ	-1050
Ĩơİ	-1051
Ĩįȶ	-1052
uĨơȶ	-1053
uǨĨ	-1054
ǟDȲȀuÌȶ	-1055
ǐȎNį	-1056
ȀuȀƳį	-1057
ȶİÑǟ	-1058
ȶİuƳį	-1059
ǟįȀ	-1060
ƳȲǟÑȀƳį	-1061
įȀƋȀ	-1062
Ôȶ	-1063
Ƴuȍ	-1064
ȶĨơȀȲȲ	-1065
ÑȀÁȶĨ	-1066
ÌƳǟ	-1067
ȶuĨƋƳ	-1068
ĨơȶĨ	-1069
ƅİ	-1070
ȶƋȀį	-1071
uu	-1072
ǐĨų	-1073
ÑȐ	-1074
ȶĨįƳÑĨ	-1075
uǐĨȸ	-1076
ĨÁƳį	-1077
ĨȶęİÁȍ	-1078
ȀįŦĨȀį	-1079
İĨȍ	-1080
įȶu	-1081
ćį	-1082
İįŦȶ	-1083
ÑȀƳįĨƳƋĨÑÌȶĨ	-1084
ȀuÑİį	-1085
ơȀÑÌĨÑÌȶĨ	-1086
ǟİ	-1087
uȀDȲȶĨ	-1088
ĨȀįƋƳ	-1089
ƳƳÁ	-1090
ĨơƳǟȲ	-1091
ĨÁİƦĨ	-1092
ƳǟŦÌĨÑÌȶĨ	-1093
ƦĨȀuĨ	-1094
uĥ	-1095
ǟÁȍ	-1096
ýƳ	-1097
ȲƳD	-1098
IȎ	-1099
İȍÌ	-1100
ȲȀÁ	-1101
ŻȤȤ	-1102
ĨÁǟ	-1103
ÐĨ	-1104
ĀİÑȀƳįİȲĨ	-1105
ȀİÑȀƳį	-1106
īĨÑÌȶ	-1107
ǟuȀįŦĨ	-1108
ÌƳÑƳ	-1109
ȶĨƤ	-1110
ĨDȀ	-1111
ƳįȐ	-1112
ǟȲȲ	-1113
ȶĨÁƳ	-1114
ƳȲİ	-1115
ȀuÌĨ	-1116
ĨȀuĨİĨ	-1117
ȲȀuÌ	-1118
ȀŦįȀƋȀ	-1119
ÑȶÁȍȶ	-1120
ĨȐĨ	-1121
ƦÁ	-1122
įȶİ	-1123
Ĩİuu	-1124
ǐȎƤ	-1125
ȶĨuȶ	-1126
ȶįĨİ	-1127
ȶƋƳ	-1128
İįŦȶĨ	-1129
uÑȀÑǟ	-1130
NĨ	-1131
ơÌƳĨ	-1132
NÑĨ	-1133
ȶuĨȀįĨ	-1134
tǐ	-1135
ĨơÌȶ	-1136
ȀȲȶ	-1137
ĨÑƳĨu	-1138
ȀľİÑȀƳį	-1139
ȶȲĨ	-1140
ŻÀ	-1141
ơơ	-1142
īÅ	-1143
İȀȲİDȲȶĨ	-1144
FĨİį	-1145
ǡǟȶuÑȀƳį	-1146
ÌȀÁ	-1147
İƦuĨ	-1148
ÁİȲ	-1149
ƳÁÁƳį	-1150
ĥīĨ	-1151
ơȀȲȲĨ	-1152
ĨİuĨİĨ	-1153
ĨƋȶ	-1154
ǨȎȐĨ	-1155
ǟÑȀ	-1156
ǟÁȶ	-1157
ƦȀįŦĨ	-1158
ćǟ	-1159
ĨÁȀȲȲȀ	-1160
ȶuȎ	-1161
ŦȶÑÌȶ	-1162
ƳƋƋ	-1163
ǐȎȎ	-1164
▁ȍ	-1165
ĨįƳ	-1166
ȲȀȶ	-1167
ȶȲƳȍȶ	-1168
ĨİȲȲ	-1169
ȶƳ	-1170
ȶŦȀƳį	-1171
Áȶį	-1172
ǐÅ	-1173
uİ	-1174
ÑȀƳįĨİį	-1175
ĨƳơį	-1176
ȀȶuīĨ	-1177
uīĨÑÌȶĨ	-1178
ÌİȲ	-1179
ȀÑǟ	-1180
Ʀį	-1181
uĨȍ	-1182
ȲƦīĨ	-1183
ĨuǟD	-1184
ƋȀȲ	-1185
ƳįÑİȀį	-1186
ÌǟÁİį	-1187
ǗȀ	-1188
ȶĨÑ	-1189
ȶuīĨİį	-1190
ȸȲ	-1191
İDȀȲȀÑƦĨ	-1192
uǐȎýÌȶĨ	-1193
ĨDİu	-1194
ȀuÑȶ	-1195
Ĩõ	-1196
ȶÁȶįÑuĨ	-1197
ĨuÑƳ	-1198
ǐȎƖ	-1199
ĨǗİ	-1200
ȲƳİ	-1201
ÑĨƋƳ	-1202
įȀįŦ	-1203
ĨȀuĨÑÌȶĨ	-1204
ƅȶ	-1205
ŻŻ	-1206
Ĩĥ	-1207
ĨİÑ	-1208
ƳįƳÁȀ	-1209
ƯȀ	-1210
ĨuİȀ	-1211
ÁİÑȶĨ	-1212
ȶİÁ	-1213
ĥįƳơȲȶ	-1214
ĨƋǟ	-1215
ĨDȶȲ	-1216
ȶĨơƳ	-1217
ȶīĨİį	-1218
İȲƦu	-1219
ưƳǟĨ	-1220
ơÌƳ	-1221
ȀİȲȲƦĨ	-1222
ȶuǐĨ	-1223
Áȶİuǟ	-1224
ĨuÌƳǟȲ	-1225
ÁȶįÑuĨ	-1226
ȀÑÑȶ	-1227
ȲȀŦÌÑĨ	-1228
ǐĨýÌȶ	-1229
ĨİƋÑȶ	-1230
ȀŦǟ	-1231
ĨÌȶİ	-1232
ȀȲƦĨ	-1233
ÑȎuĨ	-1234
ÑİDȲȶĨ	-1235
ÑȀįŦ	-1236
ÑƳĨİĨ	-1237
ȀuƳ	-1238
ĨȀįÑƳĨ	-1239
Ȳȶuu	-1240
ÑȶįÑȀ	-1241
İįİ	-1242
ÁİöƳ	-1243
ȶĨŦ	-1244
ĨNį	-1245
ǐĨȸį	-1246
İƦīĨ	-1247
ÌȶȲ	-1248
Ƴuȶ	-1249
ɁȎɁ	-1250
ĨÌȶȲȍ	-1251
ȶĨDȶȶįĨ	-1252
Àƥ	-1253
ĨƋǟį	-1254
ƋƋ	-1255
uİÁȶĨ	-1256
ĨİįƦĨ	-1257
ƳȲǟÁ	-1258
ȲİuÑĨ	-1259
ĨÁȀ	-1260
ƋİÁȀȲ	-1261
ȶuȶįÑĨ	-1262
ǰǟ	-1263
DȲȶ	-1264
ĨÑÌİįĨ	-1265
İuĨơȶȲȲĨİuĨ	-1266
Ĩư	-1267
įİÑȀƳįİȲĨ	-1268
Rȶİ	-1269
ȶęİÁȍ	-1270
ȶįŦÑÌ	-1271
ÌİȲȲ	-1272
ƋȲİ	-1273
ƳÁÁǟįȀ	-1274
ȀįŦĨƳƋĨ	-1275
ȶuȀŦįȶ	-1276
ȀįŦĨƋƳ	-1277
İȍÌȀ	-1278
uĨƳƋ	-1279
įȶơĨ	-1280
▁İ	-1281
ȶuuȶ	-1282
ƳǟÑĨÑÌȶĨ	-1283
ĥĨİį	-1284
ȶÁȶ	-1285
ÑƳƳ	-1286
ȶÁİ	-1287
ȶȲİÑȀƳį	-1288
uĨȀuĨ	-1289
İuÌ	-1290
Żõ	-1291
ȶÑÌ	-1292
DȀȲ	-1293
ÁİÑȀƳįĨ	-1294
ȲȲĨ	-1295
Ȳİơ	-1296
ĨÅ	-1297
ĨÑƳĨİ	-1298
ÑȀƳįīĨ	-1299
ȲȀƋȶ	-1300
ÑĨȀį	-1301
ƳDöȶ	-1302
ĨDǟÑĨ	-1303
İÑȀƳįīĨ	-1304
ÑuǐĨ	-1305
İȀįĨ	-1306
ĨİuĨÑÌȶĨ	-1307
ƳÁȶuĨ	-1308
ȲȀÑÑȲȶĨ	-1309
İÑÌȶ	-1310
ÌİuĨDȶȶįĨ	-1311
īĨżƥŻ	-1312
ơÌȶįĨ	-1313
ƦĨƋƳ	-1314
uȎȐĨ	-1315
īĨÑÌȀuĨ	-1316
İDȲȶĨÑƳĨ	-1317
ǐĨǶƳ	-1318
DȶƋƳ	-1319
ÑĨu	-1320
ȀįŦĨƋ	-1321
ƳįƋ	-1322
įİÑȀƳį	-1323
ȶįÑİȲĨ	-1324
ƳȲȶ	-1325
▁ý	-1326
Dİį	-1327
ȀÑİȲĨ	-1328
ĨÑÌƳu	-1329
ȶĨuǟ	-1330
ƋȀȶȲ	-1331
ƦĨİ	-1332
ĨİÁ	-1333
ǟuǟİȲȲƦĨ	-1334
ÌƳĨ	-1335
uƳįĨ	-1336
ȶęȍȲƳ	-1337
ćų	-1338
ȶİÑȶĨ	-1339
ȶĨİuĨ	-1340
ȀİŦ	-1341
Ȑu	-1342
ƳÁÁƳįĨ	-1343
ȀuÑuĨ	-1344
ĨơÌȶįĨ	-1345
żė	-1346
İĥ	-1347
DȶuÑĨ	-1348
uȀÑƦĨƳƋĨ	-1349
İįuĨ	-1350
ȶĨȶ	-1351
İȲīĨ	-1352
ƳƋƋȶ	-1353
ęÑĨ	-1354
Ĩȶęȍȶ	-1355
ĨDǟȀȲ	-1356
ǶȀ	-1357
ÁȍÑƳÁ	-1358
ǐĨƖǟÑĨ	-1359
İƋÑȶ	-1360
ȶǨĨ	-1361
ȶȶĥ	-1362
ĭƥ	-1363
ǐȎÔ	-1364
İįÑuĨ	-1365
ĨuƳÁȶ	-1366
įİȲĨ	-1367
ȲİįŦǟİŦȶĨ	-1368
ȎƤ	-1369
ÌȶuĨ	-1370
ƦȐ	-1371
ĨÑÌȶu	-1372
ĨȀįĨİĨ	-1373
ĨƋİÁȀȲ	-1374
ƳȲȲİ	-1375
ȀuȶĨ	-1376
ȀȶįÑȀu	-1377
ȲȶŦ	-1378
įÁȶįÑĨ	-1379
ÌĨİį	-1380
ȶƋǟȲ	-1381
ÁȶÑÌƳ	-1382
ĨơȀ	-1383
ȶĥ	-1384
ƦĨƳƋĨÑÌȶĨ	-1385
İDƳ	-1386
ȀÁÁ	-1387
ĨȍƳȲ	-1388
ÑĨÑÌİÑĨ	-1389
ǐȎý	-1390
ȶİÑÁȶįÑĨ	-1391
ȀįŦĨÑÌİÑĨ	-1392
ǐĨć	-1393
ȶuuǟ	-1394
ĨơȀȲȲĨ	-1395
uǐȎȐĨ	-1396
ĨŦƳ	-1397
Ɩİ	-1398
ȶĨÁİ	-1399
ȶįĨİį	-1400
ĨƳD	-1401
ƳÁȍİį	-1402
ȍÌ	-1403
ÌİįŦȶ	-1404
Ȏȭ	-1405
ýÌȶƦĨ	-1406
ȶuuƳ	-1407
ǐȎýÌȀuĨ	-1408
ƳƋĨÑÌȀuĨ	-1409
ƳĨįƳÑĨ	-1410
Ĩİǟ	-1411
ÌȶÁȀ	-1412
ȀƋƋȀ	-1413
ȶĨuÑǟ	-1414
Ìİȍȍ	-1415
ųƳ	-1416
ĥȀįŦ	-1417
▁ÑİÑȶ	-1418
İȍİ	-1419
Ȁįȶȶ	-1420
ÁǟuÑĨ	-1421
ȶuȍƳį	-1422
ȍȍƳ	-1423
ĨƳǟ	-1424
ÁİƦĨDȶĨ	-1425
ÌȀȶ	-1426
ȀÑƦĨƳƋĨ	-1427
īĨƤ	-1428
ȶĨÑƳĨÑÌȶĨ	-1429
ƳįȎÑĨ	-1430
ƦĨȀį	-1431
ȶȶȍ	-1432
ǐȎƅ	-1433
ȀÑÌȶ	-1434
ÛÛ	-1435
İȍȍȶİ	-1436
İįÑȀ	-1437
İÑȶuĨ	-1438
ĨİĨƋ	-1439
ĨŻȤ	-1440
Ñu	-1441
İȲƳįŦ	-1442
İȲİ	-1443
ųȀ	-1444
Ɩǟ	-1445
ȲȀįȶĨ	-1446
▁Ƴǟ	-1447
ÑȀÑǟ	-1448
ȀȶuĨİį	-1449
Nu	-1450
ÁƦĨ	-1451
ęȀ	-1452
ȍǟ	-1453
ĨÁƳuÑĨ	-1454
Ñȶȍ	-1455
ơİƦuĨ	-1456
ÌīĨ	-1457
ȀuuȀƳį	-1458
Ɩȶ	-1459
ȹƥ	-1460
DȶȲȀȶ	-1461
ÑİȀįĨ	-1462
ǐĨƅƳơȶ	-1463
ȲȶİuȶĨ	-1464
įİÑȀ	-1465
ĨƋƳƳ	-1466
ȲȀÁİÑȶĨ	-1467
ȀÑƦĨİį	-1468
ĨýÌȶĨ	-1469
ÑȶİÁ	-1470
ȶÁD	-1471
ǟȀ	-1472
ÑÌȀ	-1473
İľ	-1474
uÌȶ	-1475
ÑĨƋ	-1476
ĨÁȀȲ	-1477
ĨuȀ	-1478
ǐȎƯ	-1479
ĨȀÑ	-1480
ƳȲȲ	-1481
İDȲȶ	-1482
ƳįŦȶ	-1483
ÑÑȍ	-1484
ȶĨİDƳǟÑĨ	-1485
ÌİįŦ	-1486
ȍİȍȶ	-1487
ǐĨȱ	-1488
ȀįŦĨÑƳĨÑÌȶĨ	-1489
3⁄43⁄45	-1490
ÁİÑ	-1491
ƳÁÁȶį	-1492
įȎÑĨ	-1493
uĨuǟ	-1494
İȲȲƦ	-1495
ȶuĨİĨ	-1496
ǟȲÑȀȍ	-1497
ȀŦÌÑuĨ	-1498
ȀÑȀƳįİȲĨ	-1499
ĨuÌİ	-1500
uơȶ	-1501
ǨÛÛ	-1502
ĨżƥŻ	-1503
ȶuÑİD	-1504
DƳÑÌ	-1505
ȲȀÑȶ	-1506
ĨİįĨ	-1507
ȶįÑȀƳį	-1508
ĨDȶƋƳ	-1509
▁ƳÁȶĨ	-1510
İįÑĨÑƳĨ	-1511
İÁȀį	-1512
ȶuÑƳ	-1513
ȀȶuĨƳƋĨ	-1514
İÑȶĨÑÌȶĨ	-1515
ơȀȲȲĨDȶĨ	-1516
ȀÑİ	-1517
ơȀį	-1518
ȀȲȲİ	-1519
ȀDȶ	-1520
Ƴȍȶį	-1521
İįĨD	-1522
ęĨ	-1523
ȶĨȀÑĨ	-1524
Ĩuȍİ	-1525
īĨȀÑĨ	-1526
ȶęȶ	-1527
ȲȶİuÑĨ	-1528
uȀÁȍ	-1529
ƳÁȀį	-1530
ƋȀȶ	-1531
ÑÌĨİį	-1532
ƋȲǟȶį	-1533
ǟuȀį	-1534
ǐĨĀ	-1535
ýȶ	-1536
ųȶİ	-1537
tu	-1538
įȶuuĨ	-1539
ȍƳȍǟȲİ	-1540
ȶuĨȱ	-1541
ĨİĨD	-1542
ȲȀuÌĨ	-1543
ĨuǟȍȍƳ	-1544
żĨ	-1545
RƳ	-1546
ǐė	-1547
DȶȀįŦĨ	-1548
ȶuuȀ	-1549
ȶǐĨýÌȶĨ	-1550
ÌƳƳ	-1551
ȶİį	-1552
İǟuȶ	-1553
ųȶuȶİ	-1554
ĨÑȶİ	-1555
ÌȶİȲÑÌĨ	-1556
Ĩuİ	-1557
Ȁuȶİuȶ	-1558
ĨȀƋ	-1559
ȀȶįÑȀuÑuĨ	-1560
Ȳǟu	-1561
ÑƳƳȲ	-1562
uƳǟ	-1563
ȶÁİȀį	-1564
Żƥƥ	-1565
ȶİÑÌȶ	-1566
ĨuÌƳơ	-1567
ƳǟŦÌÑĨ	-1568
ÌįȀǡǟ	-1569
ĨİDƳǟÑĨÑÌȶĨ	-1570
ĨƋƳǟį	-1571
ȶuǟȲÑuĨ	-1572
NÑĨȀuĨ	-1573
ǐīĨ	-1574
ƳȍȲȶ	-1575
ȲȀĥȶȲƦĨ	-1576
ȶįuȀ	-1577
Ƌȶơ	-1578
ȲȶƋ	-1579
İįĨȀį	-1580
ȶȲƋ	-1581
ǐĨÏį	-1582
uĨİuĨ	-1583
uĨÑÌ	-1584
ȶįÑȀƋ	-1585
įǟ	-1586
ȶuĨƳƋĨÑÌȶĨ	-1587
ŦǟȀ	-1588
ȸƋ	-1589
ÔƳ	-1590
ĨÑÌȶĨơƳ	-1591
İuuƳ	-1592
ƳÁÁǟįȀÑƦĨ	-1593
ĨÑƳĨD	-1594
ƳȐ	-1595
ƋƳǟ	-1596
İŦȶÁȶįÑĨ	-1597
ÑȎ	-1598
ȶƋƋȀ	-1599
ȀÑȀįŦĨ	-1600
ƳƋƋȀ	-1601
ÑŎuĨ	-1602
ơÌȶį	-1603
ȲƳŦ	-1604
İĨİį	-1605
ÌĨÑÌȶĨ	-1606
Ƕİ	-1607
ĨȀįÑƳĨÑÌȶĨ	-1608
ĨŦȶįȶ	-1609
ƤƳį	-1610
ȶĨȍİ	-1611
ƳȍȍƳ	-1612
İįĥ	-1613
ÁȀŦÌÑĨ	-1614
ȸĨ	-1615
İȲȲƦīĨ	-1616
Ĩȸį	-1617
ĥȶÑ	-1618
ȶŦİ	-1619
ȶÑǟ	-1620
uƳÁȶĨ	-1621
ÌİÁ	-1622
ȶuuİ	-1623
ǟįŦ	-1624
ƳŦįȀ	-1625
uƳÁȶ	-1626
DƳį	-1627
ŦȶuÑĨ	-1628
ȀuȍȲİ	-1629
ȶįuǟ	-1630
ĨÑÌȀįĥ	-1631
ÑĨȍ	-1632
ȶĨơȶ	-1633
Ĩȶęȍ	-1634
ÑuĨÑÌİÑĨ	-1635
ȀDȲȶĨ	-1636
ǟuȶǟÁ	-1637
NƋĨƦƳǟ	-1638
ƦÁȍÑƳÁ	-1639
ȶĨÑÌȶȀ	-1640
ȀuÌȶ	-1641
ÑǟİȲȲƦĨ	-1642
ȐȐ	-1643
Dȶİ	-1644
ƳDuȶ	-1645
ÑĨȀįĨ	-1646
ȀįŦĨƳ	-1647
ȀȶįÑȀƋȀ	-1648
ĨȸÁȶ	-1649
ÑȶuÑĨ	-1650
ÌƳį	-1651
uǐĨȭ	-1652
İǟÑÌƳ	-1653
ȶƋȲȶ	-1654
ȀȲȲȶ	-1655
ĨŦȀ	-1656
▁ǐĨ	-1657
ȀuīĨ	-1658
ÑȲȶ	-1659
ÑƳĨuȶ	-1660
ȶuȍƳįuȀ	-1661
ĨȍƳơȶ	-1662
▁Ȁȭ	-1663
ƅȀuÑƳ	-1664
ȎÔ	-1665
żŻ	-1666
Ĩȭİ	-1667
ĨuÌƳ	-1668
ȶuĨƋ	-1669
uǐĨNį	-1670
ĨÌƳǟ	-1671
ƦƳǟįŦ	-1672
űƥ	-1673
ȶĨǟuȶ	-1674
ȶĨuÌ	-1675
įȶęÑĨ	-1676
ǟÁÁȶ	-1677
İƋƋȶ	-1678
Ĩȍİȍȶ	-1679
ÌİįŦȶuĨ	-1680
ȲİuuĨ	-1681
Ĩįȶơ	-1682
İÁƳǟį	-1683
ĨÑİ	-1684
İȲƦ	-1685
ƆƆƆƆ	-1686
Ȳȶȶȍ	-1687
▁ȍİ	-1688
ĥȶƦĨ	-1689
żÀ	-1690
ȶÁȍȲƳ	-1691
ȶȲȀŦ	-1692
ȶȲuĨ	-1693
öƳǟ	-1694
ƳƋȶuuȀƳį	-1695
ȶÑİȀȲ	-1696
uȀÑȶ	-1697
uÌİ	-1698
ĨÀ	-1699
ȶuǐĨýÌȶĨ	-1700
ȶȶįĨ	-1701
ƦīĨİį	-1702
ȲȶÑÑȶ	-1703
ǗƳį	-1704
DȶÑơȶȶįĨ	-1705
ƳȶuĨįƳÑĨ	-1706
Ǘİį	-1707
ĨİȀ	-1708
NĀ	-1709
İȲĨȀį	-1710
ĨơȶȲȲ	-1711
ȀÁȀį	-1712
ȶĨİÑĨ	-1713
ȶȲİÑȀƳįuÌȀȍ	-1714
ȶĨDȶȶį	-1715
ȀİÑȶĨ	-1716
ȶuĨȀįĨÑÌȶĨ	-1717
ƦÑÌ	-1718
ľİ	-1719
ÑÌȶu	-1720
ȶęȍȲİ	-1721
ƳÁȍȲȶÑȶ	-1722
ƅƳơ	-1723
ĨȀįĨŻȤ	-1724
ƦĨȀįĨ	-1725
Ĩȍǟ	-1726
ƅȶİȲ	-1727
ĨÌȶİȲÑÌ	-1728
İįÑİ	-1729
ĨơİƦĨ	-1730
ŦİȀįuÑĨ	-1731
ÑȶÁȍ	-1732
ȶİȲȲƦĨ	-1733
ÑĨİ	-1734
ĨơÌȶį	-1735
ĨuƳǟ	-1736
ÁİȲĨ	-1737
ȀuĨİ	-1738
ƳįÁȶįÑİȲĨ	-1739
DȲİ	-1740
ȶĨƳįĨ	-1741
ÑȀȲȲ	-1742
uȀľ	-1743
ƋƋȀ	-1744
ȶĨuÑİ	-1745
ȶuȶį	-1746
uīĨȀį	-1747
ǐĨȸȲ	-1748
ȶĨǟį	-1749
İįÑ	-1750
uƦuÑȶÁ	-1751
İDȲƦĨ	-1752
ȶƋƋƳ	-1753
ĨơȀÑÌĨİĨ	-1754
uȍȀ	-1755
▁Ì	-1756
ȲȀįŦĨ	-1757
ȍİÑȀ	-1758
ȲƳǟ	-1759
uÑȶİ	-1760
ųć	-1761
ǟȲÑĨ	-1762
ĨȍİÑȀ	-1763
ǐĨĆ	-1764
ÑÁȶįÑĨ	-1765
ȲȶuuƳį	-1766
İuĨİĨ	-1767
ÁİŦ	-1768
ǐĨýÌȶuȶĨ	-1769
ȲİuuȀ	-1770
ÌİuĨDȶȶį	-1771
Ȳȶİį	-1772
ȀįŦȲȶĨ	-1773
ȀƳȲ	-1774
ȶĨuȍȶ	-1775
ȶİȲĨ	-1776
ÑƳĨDȶĨ	-1777
uÌƳ	-1778
ȀÁȶ	-1779
ÌȀŦÌĨ	-1780
ȶĨȀuĨİĨ	-1781
DȶŦȀį	-1782
ȶŦȶ	-1783
ȀİŦį	-1784
Ȁuu	-1785
ȀįĨİĨ	-1786
ƳįÁȶįÑĨ	-1787
ƦƳį	-1788
ȀİīĨ	-1789
ȶĨȸ	-1790
DȲƳƳ	-1791
İÁƳįŦ	-1792
ÁuĨ	-1793
ĨÌİį	-1794
ĨÑÌƳuȶĨ	-1795
ƳǟįÑȶ	-1796
ȶȲİÑȀ	-1797
ȶĨȀįƋƳ	-1798
İȲȲĨÑÌȶĨ	-1799
ĨơÌƳĨ	-1800
ȸý	-1801
ƳǟuȲƦĨ	-1802
▁ȍȶ	-1803
ĥįƳơįĨİuĨ	-1804
ĨDȶÑơȶȶįĨ	-1805
ȀÁİŦȶĨ	-1806
ÌȀŦÌȶ	-1807
ȀįŦȎ	-1808
ÁİįĨ	-1809
ȀÑİȲ	-1810
ÌƳÁ	-1811
ȍƳơȶ	-1812
ȶīĨÑÌȶĨ	-1813
NƯ	-1814
ŦȲƳD	-1815
▁ƳǟÑÌ	-1816
ȶįīĨ	-1817
ȶįÑuĨİį	-1818
Áİu	-1819
uǐĨýÌȀuĨ	-1820
ĨÌǟÁ	-1821
ÑƳȍȀ	-1822
uÌƳơ	-1823
ơį	-1824
DƳİ	-1825
ȶȲƳȍÁȶįÑ	-1826
ÏĀ	-1827
ƳįŎÑĨ	-1828
ĨDȲƳƳ	-1829
ÑÌƳǟŦÌ	-1830
ȶĨÑÌȀuĨ	-1831
ƦĨȱ	-1832
ȀÑȀƳįĨ	-1833
ƳuuĨ	-1834
ĨƳǟÑ	-1835
ȀÑȎuĨ	-1836
ȶuĨƳ	-1837
ȲȀįĥ	-1838
ȶİuÑĨ	-1839
ƳƋĨÑÌȶȀ	-1840
ƋƳȲȲƳơȀįŦĨ	-1841
uīĨDǟÑĨ	-1842
ƖƳ	-1843
ÑÌİį	-1844
ÑƳįĨ	-1845
Rİ	-1846
ȶĨuƳÁȶĨ	-1847
ĨƋȀȲ	-1848
ȶuÑȀŦ	-1849
ȀƳǟ	-1850
ÁȀįŦĨ	-1851
ƦĨƳ	-1852
ȀȶƋ	-1853
ȶįÑĨƳƋĨ	-1854
Ìǟį	-1855
ÌȶÁ	-1856
uĨİÑĨ	-1857
ĨȍƳȍǟȲİ	-1858
ÑƳŦȶÑÌȶ	-1859
ĨȍÌƦuȀ	-1860
ÑǐȎ	-1861
▁ȀƤ	-1862
▁Ìİ	-1863
ǡǟȶį	-1864
Ĩt	-1865
ȶĨȍȲİ	-1866
ƥǐ	-1867
ȶįȶƋ	-1868
ÑȀƳįİȲĨ	-1869
ÑuĨÑƳĨ	-1870
ĨÑÌȶįĨ	-1871
İȲÑȶ	-1872
FǐȎ	-1873
DƦĨÑÌȶĨ	-1874
Ĩǟuȶ	-1875
ȶÁƳįuÑ	-1876
ÑİȲĨ	-1877
ơȶD	-1878
ƋǟȲȲ	-1879
ĨƋȶȶ	-1880
İȲƦuȀuĨ	-1881
ȶĨÑÌȶƦĨ	-1882
ƳƋÑȶįĨ	-1883
Żǐ	-1884
ƳȀȲ	-1885
ǨĨȸ	-1886
ȀuȀƳįĨ	-1887
Ȳȶį	-1888
Ĩė	-1889
ȀÑİÑȀƳį	-1890
ĨÑÌİÑĨȀuĨ	-1891
RȀ	-1892
ȍǟÑĨ	-1893
ȶĨƳį	-1894
ȶİÑȀ	-1895
ĨDȶŦ	-1896
ĨİįĨİ	-1897
ȶuuƋǟȲ	-1898
Āȶ	-1899
ȶuuȶįÑȀ	-1900
ȶİuĨ	-1901
ĨȀÁȍ	-1902
Ƴơįȶ	-1903
ÌȀÑȶ	-1904
ÌİȍÑȶ	-1905
ƳįīĨ	-1906
ÌǟÁİįĨ	-1907
ȸų	-1908
ȀȲİ	-1909
ƳįƋȀ	-1910
ǟuÑİȀį	-1911
ÌƳơȶ	-1912
İȲİį	-1913
ƳȍȀ	-1914
ȶİÑȀįŦĨ	-1915
ĨÌȀŦÌ	-1916
ȶuǐ	-1917
ȀƋĨƦƳǟ	-1918
ȶuuīĨ	-1919
ȶįŦȀįȶȶ	-1920
İįÑȶ	-1921
ĨÁƳįÑÌ	-1922
ƳơįȲƳİ	-1923
ȶįÑuīĨ	-1924
ýƳĨ	-1925
ȶĨÁ	-1926
▁ć	-1927
ƳƋȶuuƳ	-1928
ƳÁȍȲȶę	-1929
ƋǟÑǟ	-1930
İuĨÑÌȶĨ	-1931
ŦȶĨƳƋĨ	-1932
ȲȀȍ	-1933
İȲĥ	-1934
żż	-1935
DƳȲ	-1936
ÑuĨÑÌȶĨ	-1937
īĨƦƳǟ	-1938
Áİȍ	-1939
İDȀȲ	-1940
ĨuÑİį	-1941
ŦİÁ	-1942
ÌƳȀ	-1943
ơƳĨ	-1944
ĨơȶD	-1945
ȶƋȀįȀÑȀƳį	-1946
DİuȀ	-1947
ÌĨȍ	-1948
ĨÑÌȶƦĨİ	-1949
ĨȀįĨİ	-1950
ĨÑÌȶĨİ	-1951
ǟįÑȀȲ	-1952
uȶį	-1953
īĨơÌȶ	-1954
ȶęȍƳu	-1955
įŎÑĨ	-1956
ÌįƳȲƳŦƦĨ	-1957
ĨƳįȲƦĨ	-1958
ȲİuÑȀ	-1959
ƳÁȍƳį	-1960
ȶȲȶD	-1961
ȀįuÑ	-1962
ƤÏ	-1963
uǟȍȍƳ	-1964
ÑƳǟ	-1965
īĨȸ	-1966
ȀįŦĨƳƋĨÑÌȶĨ	-1967
NN	-1968
įİÁȶ	-1969
īĨǗ	-1970
ÑȀį	-1971
ÌİȲƋ	-1972
DȶÑÑȶ	-1973
ȀÑÑȶį	-1974
uÌĨ	-1975
ȀįŦĨÑÌȶȀ	-1976
İȍİį	-1977
ĨÑÌȶĨƋȀ	-1978
ȍƳȲ	-1979
ÑÌȶÁİÑȀ	-1980
ǶȀį	-1981
ÌƦĨ	-1982
ǟÁȶįÑĨ	-1983
ĨDȶÑÑȶ	-1984
ƋİȲȲ	-1985
İȲuĨ	-1986
ýǟ	-1987
ȲȶĨƳƋĨ	-1988
ȍƳuuȀDȲȶĨ	-1989
uÐ	-1990
ÑuǐȎ	-1991
ǟÑÌƳ	-1992
ȀįŦǐȎ	-1993
ǟuȶuĨ	-1994
ƳƋÑȶį	-1995
ƳȲƳŦƦĨ	-1996
▁Ȁį	-1997
DƳƳ	-1998
ƳuuĨÑÌȶĨ	-1999
ĨDƦĨİĨ	-2000
ƳȲƳį	-2001
▁ȶȍ	-2002
DȀȲȀÑƦĨ	-2003
ÑȀįŦĨÑÌȶĨ	-2004
ĨÑǟ	-2005
ƳÁDȀį	-2006
ȀįŦĨÑÌȶÁ	-2007
ÑĨƳ	-2008
ĨȲȀĥȶĨ	-2009
ŻĨ	-2010
ȎƯ	-2011
ĨȀįuÑ	-2012
żõ	-2013
ÌƳÑƳŦ	-2014
ÌȀD	-2015
ýÌȶuȶĨ	-2016
ȀįŦĨȀįĨ	-2017
ĨƳįȶĨ	-2018
Rİį	-2019
ȲȶuīĨ	-2020
ȶȲȲƳơ	-2021
uĨƳįĨ	-2022
İÑÑİ	-2023
įǟÑ	-2024
ÑƦȍȀ	-2025
İȲȀƋƳ	-2026
İÑȀƳįĨƳƋĨÑÌȶĨ	-2027
ĨÁİÑȶ	-2028
ȀįŦĨÑÌȀuĨ	-2029
ȶįÑīĨ	-2030
İȲȶĨ	-2031
ȶuȶįÑȶ	-2032
uīĨơÌȀ	-2033
ĨÁȶİį	-2034
ȀȶuĨİ	-2035
Ïǟ	-2036
ĥĨƳƋĨ	-2037
Ĩżƥƥ	-2038
ȲƳįŦȶ	-2039
Ñįȶ	-2040
ȀƋȀȶ	-2041
ȀuȀÑĨ	-2042
NƤ	-2043
ÑȀƳįİ	-2044
ĨÁȶÑÌƳ	-2045
İįȀ	-2046
ȶĨȶį	-2047
ƳÁĨİĨ	-2048
İDƳǟÑĨÑÌȶĨ	-2049
ȶęÑȶį	-2050
ĨƤİ	-2051
įİį	-2052
ÌƳu	-2053
Ʀǐ	-2054
ÑuĨƳƋĨÑÌȶĨ	-2055
ÑÌȶuȶĨ	-2056
ȶȍȲİ	-2057
ƳƋÑ	-2058
▁ȀƯ	-2059
ȀįƋȶ	-2060
ƳÑİ	-2061
ȍȶį	-2062
ĨÁȀȲȲȀƳį	-2063
ȀįŦȶ	-2064
ĨơȀȲȲĨDȶĨ	-2065
įƳįȐ	-2066
ƦĨƋ	-2067
ȸǟuÑ	-2068
ȀİDȶ	-2069
ȶÁȶÁDȶ	-2070
İįuȍƳ	-2071
īĨÔ	-2072
ÑȶȲȲ	-2073
ȀįŦīĨİį	-2074
Ìİu	-2075
NįuÑȀÑǟ	-2076
ĨÌȀuÑƳ	-2077
ƦǐĨ	-2078
Ƴǟuİį	-2079
ƨĨȭ	-2080
ÁİÑÑȶ	-2081
ơƳƳ	-2082
ƳįĨİĨ	-2083
ȲƦĨÑÌȶĨ	-2084
ȶĨDƦĨ	-2085
ȀÑĨơİuĨ	-2086
ƨĨ	-2087
ƳÑȶĨ	-2088
ƳŦȶį	-2089
ȶĨİĨu	-2090
ƳuȍÌȶ	-2091
ǐĨȭȶĨ	-2092
ĨưƳ	-2093
ǟuȶĨƳƋĨ	-2094
ȭİ	-2095
ȀÁȀȲİ	-2096
ǡǟİȲȀÑƦĨ	-2097
ƳơÑÌ	-2098
ćįŦȲȀuÌ	-2099
Ƴȶu	-2100
uǟDöȶ	-2101
FȎȐĨ	-2102
ĨDƳÑÌ	-2103
uÑȀȲȲ	-2104
uÑȶȍ	-2105
uȀÁȀȲ	-2106
ÑȀȍ	-2107
ȀįĥĨ	-2108
ƖȀ	-2109
ƋȶȶȲ	-2110
ǟȲƦĨ	-2111
ȸĀ	-2112
Ƌȶȶ	-2113
ÁƳįÑÌ	-2114
ĨİȍȍȲȀ	-2115
īĨƋ	-2116
ÑÑȍǨÛÛ	-2117
ÑȀuÑȀ	-2118
öƳD	-2119
ǟȀÑĨ	-2120
ƳÁȍȶ	-2121
ÌİȀ	-2122
İįuơȶ	-2123
ÁȶÁDȶ	-2124
ǟȲǟÁ	-2125
ÌİDȀÑ	-2126
ÑȶįÑȀİȲĨ	-2127
ĨÔİ	-2128
ÑȀƳįĨȀuĨ	-2129
Ȥƥ	-2130
ơǐ	-2131
ȶĨÔ	-2132
ƳȍƦ	-2133
ȀÑȀȶu	-2134
uȐ	-2135
DȶȲƳơ	-2136
▁Ĩ	-2137
ĥĨÑƳĨ	-2138
ȶįÑȶį	-2139
ȶȲȀį	-2140
ȶÌȀ	-2141
ȀįÑȶį	-2142
ȶĨƋƳǟį	-2143
ȶÁİį	-2144
ŦİįȀľİÑȀƳį	-2145
ǗȀį	-2146
ȶȎuĨ	-2147
ĨơȀį	-2148
ĨÑÌȶį	-2149
Ưİ	-2150
ÑĨơȀÑÌ	-2151
ȶŦŦ	-2152
ȲȀįȀ	-2153
ĨuĥȀȲȲ	-2154
ľȶį	-2155
ÑǐĨ	-2156
ƳįÑȶįÑĨ	-2157
ǟȶĨÑƳĨ	-2158
ÑÌİįĨ	-2159
ĨİŦ	-2160
ơơơǐ	-2161
ƳƋĨÑÌȶuȶĨ	-2162
ƦĨÑÌİÑĨ	-2163
ȀįĨİį	-2164
ȶĨuƦuÑȶÁ	-2165
ĨÑÌİÑ	-2166
ǟƋİ	-2167
ȀȲĨ	-2168
ȍǟDȲȀ	-2169
Ĩuȶİ	-2170
▁ǟį	-2171
▁ȀNį	-2172
İuȀ	-2173
ĨơÌƳ	-2174
ȀÁÁǟį	-2175
İįįƳÑĨ	-2176
ȀȶÑƦĨƳƋĨ	-2177
ȶĨÑÌȶÁ	-2178
ȶĨuƳ	-2179
ȶȲİį	-2180
ǟȲÑȀȍȲȶĨ	-2181
ĨÑÌȶĨD	-2182
uĨÑÌİÑĨİ	-2183
ȀȲȲǟuÑ	-2184
İįĨƳ	-2185
ǡǟȶuÑȀƳįuĨ	-2186
ǨĨýÌȶĨ	-2187
ơȶȶĥ	-2188
ŦȶĨİį	-2189
ĨȍȀ	-2190
īĨÑÌİÑĨ	-2191
ĨȍǟDȲȀ	-2192
ÌĨȀį	-2193
ǟȲȶĨ	-2194
ȀÁİŦ	-2195
Ñİĥȶį	-2196
īĨİuĨ	-2197
Rȶ	-2198
uȶİ	-2199
Ĩƿ	-2200
ÌƳơĨÑƳĨ	-2201
ȀŦįĨ	-2202
▁ȀÔ	-2203
▁ȶİ	-2204
ćįŦȲȀuÌĨ	-2205
ĨŻȹ	-2206
ǟȀÑ	-2207
ƳÁȍƳu	-2208
ĨŻƥ	-2209
ȀÁÁȶ	-2210
ÑǟİȲĨ	-2211
ÌİȲȲȶįŦ	-2212
Rć	-2213
ƦȎuĨ	-2214
ĨȶęİÁȍȲȶīĨ	-2215
ƳƳȲ	-2216
ȀįĨİ	-2217
ȶȀÑÌȶ	-2218
ȀįÑƳĨ	-2219
ĨƳƋƋ	-2220
uĨÑƳĨÑÌȶĨ	-2221
ŦƳĨ	-2222
įȶÑơƳ	-2223
ȶuuȀƳįĨ	-2224
uuƳ	-2225
Ĩuȶȶ	-2226
ȶĨuÑ	-2227
ÁİĥȀįŦĨ	-2228
ęȶ	-2229
ĨÁȀȲȲȀƳįĨ	-2230
İįĨİį	-2231
ȶĨȀįÑȶ	-2232
ĨÑƳĨİĨ	-2233
Ný	-2234
ƳįĨİį	-2235
uȶȶ	-2236
ǟȍĨÑƳĨ	-2237
ĨÑȀÁ	-2238
ĨćįŦ	-2239
ĨƳƋĨu	-2240
ƳÌ	-2241
İȍȍȲȀ	-2242
ȀįŦĨƦƳǟ	-2243
ȀÁȶį	-2244
ȶįÑuĨİ	-2245
ȶĨİȲuƳĨ	-2246
ÁȀįȶ	-2247
įȶȲ	-2248
ƳƋÑơİ	-2249
İuȶ	-2250
ȶuĨÌİ	-2251
ĨÑƦȍ	-2252
ĨÑƳĨÌİ	-2253
ȀįŦĨȀuĨ	-2254
ƳȲƳǟ	-2255
uǟŦŦ	-2256
ÑȶuÑ	-2257
ĨơİƦ	-2258
ȲȀƋȶĨ	-2259
ȎýÌȀuĨ	-2260
īĨƋƳ	-2261
ÑÌȶƦĨİ	-2262
uīĨȍ	-2263
İÑÑ	-2264
įƳÑȶ	-2265
ÑĨȱ	-2266
ĨÁƦĨ	-2267
ÑȀuuǟ	-2268
DƳƳĥĨ	-2269
ÌĨu	-2270
ÁİĥȶuĨ	-2271
uȀÁȀȲİ	-2272
uǐȎȸ	-2273
Ĩuǟȍȍ	-2274
ȎƖ	-2275
ǐȎÅ	-2276
ĨȭƳ	-2277
ǐȎǗ	-2278
ȶĨDȶÑơȶ	-2279
ȶĨÑÌȶĨȍ	-2280
ÑuĨƋƳ	-2281
ĨơƳÁȶį	-2282
ŦȶīĨ	-2283
ƳÑƳ	-2284
ÁǟuȀ	-2285
ȀįĥȀįŦĨ	-2286
ȶĨȍȲİį	-2287
ȶuĨơȀÑÌ	-2288
ȸƤ	-2289
uȍİ	-2290
ȀįŦĨÑÌ	-2291
ȶĨİȲ	-2292
uİȀ	-2293
▁ÑİÑȶĨ	-2294
ĨuƳȲ	-2295
ÌƳơĨ	-2296
ĨDȶÌİ	-2297
ĨȀuĨİ	-2298
İįĨȍ	-2299
ȀȶÑƦĨ	-2300
İįĨÌȶȲȍ	-2301
żȹ	-2302
Ïų	-2303
ƦǐĨýÌȶĨ	-2304
ƋȶÑƦĨ	-2305
ĨƳȍ	-2306
İįį	-2307
ÌƳÁȶĨ	-2308
Ćȶįȶ	-2309
ĀȶơĨưƳ	-2310
ȎNį	-2311
ơÌȀȲȶĨ	-2312
żĭ	-2313
uīĨƳ	-2314
ĨįǟÁDȶ	-2315
ĨǟuȶĨ	-2316
ȀȲȲȀƳį	-2317
ĨÁǟuÑĨ	-2318
ȶuÑȀÁİÑȶ	-2319
ȀÁȍȲȶĨ	-2320
ȶįȶƋȀ	-2321
ȀDǟÑȶ	-2322
ƤÌȀį	-2323
uǐĨƅ	-2324
uÑİÑȶ	-2325
ĨƋȀȶȲ	-2326
ƨȎȐĨ	-2327
ÑȀƳįĨÑƳĨ	-2328
ĨDȶȲƳơ	-2329
Ʀİ	-2330
ƳǟŦÌƳǟÑĨÑÌȶĨ	-2331
ĨȲȀŦÌ	-2332
▁ÑƳ	-2333
Ƥİįİ	-2334
DƳįĨ	-2335
ƤȶįÑȶ	-2336
ȶƳĨ	-2337
ȀuĥĨƳƋĨ	-2338
Àė	-2339
ŦȶÑ	-2340
ȶF	-2341
ǟȶĨ	-2342
żű	-2343
ȶuÑȀįŦĨ	-2344
DȶÌİ	-2345
uĨƳįĨÑÌȶĨ	-2346
ÁƳu	-2347
ȀuĨįƳÑĨ	-2348
uĨƳį	-2349
ĨÁȀŦÌÑĨ	-2350
ǐȎǶ	-2351
ǐĨȭȀÑÌ	-2352
ǐĨưƳǟ	-2353
İȲĨD	-2354
ǟȍȍƳ	-2355
Ȁĥ	-2356
ÁȀuuȀƳį	-2357
ǟįȀǡǟ	-2358
DȀƳ	-2359
ȲİÑȶĨ	-2360
ȀÁİÑȶ	-2361
Ĩĭ	-2362
ȀŦÌĨ	-2363
ĨuÑİÑȶ	-2364
Ĩơȶȶĥ	-2365
ȶuuĨİį	-2366
ÁƳuȍÌȶ	-2367
ĨȀįĨÑÌȀuĨ	-2368
ĨȐ	-2369
ĨİįȀÁİȲ	-2370
İuuȶ	-2371
żǐ	-2372
ȍƳuuȀ	-2373
Ìİȍȍȶį	-2374
ĨȀįĨu	-2375
ŦİÑȀ	-2376
Ȑȍ	-2377
ơȀÑ	-2378
ĨƳƋĨİĨ	-2379
ȀÁǟÁ	-2380
ǟuÌ	-2381
ǐȎÏ	-2382
ǐȎN	-2383
ÁȀįȀuÑ	-2384
ųƳÁ	-2385
ÌĨƳƋĨ	-2386
İŦİȀį	-2387
ĨuȀį	-2388
ȶuĨơȶ	-2389
ȶįÑĨİį	-2390
õė	-2391
uİÁ	-2392
uĨÑƳ	-2393
uŎ	-2394
įİÁȶĨ	-2395
öİ	-2396
ȶĨȍȶ	-2397
ǟuīĨ	-2398
ȀuȲİį	-2399
uȶȶÁ	-2400
ȶuuĨƳƋĨ	-2401
ȲȶuĨİį	-2402
ǟȲȶ	-2403
uĨDƦĨ	-2404
ÌƳȍ	-2405
ĨÑÌȀ	-2406
ĨÁİĥȶĨ	-2407
ȶĨİȲuƳ	-2408
ȀİÑ	-2409
ȶȍÑĨ	-2410
Ĩİȍȍȶİ	-2411
DȀŦ	-2412
ƳÁÁȶ	-2413
ȀÁİȲĨ	-2414
ƳuÑȶ	-2415
ĨÑÌȶƳ	-2416
ĨÁȶİuǟ	-2417
ȶȍȀ	-2418
ĨȲ	-2419
İȍȀ	-2420
ƋȶİÑǟ	-2421
tĀ	-2422
ȀÑȀuÌĨ	-2423
İȲȶ	-2424
ƳÑÌ	-2425
ƤÌİ	-2426
İȀu	-2427
ȶĨİįĨ	-2428
ȀŦȀÑİȲĨ	-2429
ȲƳuȶ	-2430
ƳÌį	-2431
İÑȶŦƳ	-2432
uȀį	-2433
▁ǟD	-2434
ȶȲȶİuȶ	-2435
īĨơȶĨ	-2436
ȶÌȶį	-2437
ȲȀįȶ	-2438
ȶĨơÌƳĨ	-2439
ȲİD	-2440
ƋȀuÌ	-2441
ÑȶÁDȶ	-2442
ĨǗƳ	-2443
uƳȲ	-2444
ȲİƦȶ	-2445
įİȲ	-2446
ĨDȲİ	-2447
īĨƯ	-2448
ǐĨNįĨÑÌȶĨ	-2449
ơȀÑÌĨİĨ	-2450
Ȏý	-2451
ĨÁȀįǟÑȶ	-2452
ǐĨȭÌİÑĨ	-2453
İįĨu	-2454
ĨȀįƋȶ	-2455
ÁİȀįĨ	-2456
ĨȶȲȶ	-2457
ǐĨýÌȀuĨȀuĨ	-2458
uǟį	-2459
ǟȲÑ	-2460
ȍǟDȲȀuÌȶ	-2461
ĨÑÌȶĨŦ	-2462
ǐǐǐ	-2463
ƳÁÁİį	-2464
▁ƦuÑȶÁ	-2465
ÑĨİĨ	-2466
▁ȶȍÑȶÁDȶ	-2467
īĨŻȤ	-2468
ƳįÑȶę	-2469
ȐDİuȶ	-2470
ȶuÑİDȲȀuÌȶ	-2471
ƳDƳ	-2472
ÌȶİȲÑÌƦĨ	-2473
ƳŦį	-2474
īĨN	-2475
ƦȲ	-2476
ĨDȶİ	-2477
ȶƋȀįȶ	-2478
ǟŦÌ	-2479
ĥȶƦ	-2480
ĨȀįÑ	-2481
ȀİŦįƳu	-2482
ĨįİÑǟ	-2483
Ĩįȶȶ	-2484
ĨȲȀƋ	-2485
ÌĨơİuĨ	-2486
ƳÑȶȀį	-2487
ȶĨuİȀ	-2488
ǐĨNƋĨƦƳǟ	-2489
ǐĨȸĨ	-2490
ƳįuǟÁȶ	-2491
uīĨİ	-2492
ÑȶĨƳƋĨ	-2493
ȶȲƋȐ	-2494
ȶÁȀį	-2495
ǟuȶƋǟȲ	-2496
īĨżƥƥ	-2497
įuĨ	-2498
ƳįuÑȀÑǟ	-2499
űė	-2500
ĨȀÑĨȀuĨ	-2501
ĨĀƳ	-2502
ƦÑÌȀįŦĨ	-2503
ƳȲȶĨ	-2504
ÌİuĨİĨ	-2505
ȍƳȀį	-2506
Ƕȶ	-2507
ȶęȀ	-2508
ȀuƳį	-2509
ÑƳDȶ	-2510
ĨơȀÑÌƳǟÑĨ	-2511
ĨÌƳơĨÑƳĨ	-2512
ÑĨƦƳǟ	-2513
DȲƳ	-2514
ĨƳƋĨİ	-2515
ǐƳ	-2516
İȀȲƦĨ	-2517
ÑÌƳǟŦÌĨ	-2518
ȀİĨİį	-2519
ÁİȲȲĨ	-2520
ŻȐ	-2521
ƳǟÑuȀ	-2522
İįǟİ	-2523
ƳÁȍȲȶÑȶĨ	-2524
ƤÌȀȲ	-2525
ȶĨơƳǟȲ	-2526
ǟuuȀ	-2527
ÌƳƳu	-2528
ÑÌİÑĨÑÌȶĨ	-2529
İįƳÑÌȶ	-2530
ƳDİDȲƦĨ	-2531
ÁĨƳƋĨ	-2532
ćĀ	-2533
uǟȍȍ	-2534
uĨƦƳǟ	-2535
ÁǟȲİ	-2536
ƦȶÑĨ	-2537
ȶĨƯ	-2538
ĥuÌȶ	-2539
Ƴįİ	-2540
▁Ñİį	-2541
İȲÁƳuÑĨ	-2542
ǐĨƅȶ	-2543
İįĨDȶĨǟuȶ	-2544
Ȁuȍ	-2545
ƦĨơİuĨ	-2546
ȶĨƳįĨÑÌȶĨ	-2547
ŻF	-2548
ƳÁĨİ	-2549
ȀÑȶÁ	-2550
ȀŦȀįİȲĨ	-2551
ƦƳįȶĨ	-2552
żȤ	-2553
ƳÁȶÑ	-2554
ơÌȀȲ	-2555
ȶĨÑÌȶ	-2556
ȲȲȀ	-2557
İȍÑǟ	-2558
▁ȀýÌȀuĨ	-2559
ȲİįŦǟİŦȶ	-2560
ƳÁȀįŦĨ	-2561
ƳơȀįŦĨ	-2562
İŦȶuĨ	-2563
ĨȶȲ	-2564
ƳƦ	-2565
İÁȀ	-2566
ǟÁȶįÑ	-2567
ĆȶƳ	-2568
ĨȍȶƳȍȲȶ	-2569
ȀÑŎuĨ	-2570
ȶÑȀ	-2571
ȶįÑuĨÑƳĨ	-2572
ȶȲȲȶ	-2573
ĥŦ	-2574
uǨ	-2575
ȶįÑȀƋȀȶ	-2576
ȐƋ	-2577
ȀȲȲȀİÁ	-2578
İÑȶŦ	-2579
ƳīĨ	-2580
ȶȶuĨ	-2581
ơƳÁȶį	-2582
ƦuÑȶ	-2583
ƳÁÁƳįȲƦĨ	-2584
ƳǟįÑĨ	-2585
Ȳȶę	-2586
ǐĨȭÌȶį	-2587
ŦİuĨ	-2588
DƳÑÌĨ	-2589
ÑÁȶįÑĨƳƋĨ	-2590
ĨȸƋ	-2591
ƳȍȶİįĨ	-2592
ĨĥȀ	-2593
ȶĨȎ	-2594
ĨuƳĨ	-2595
ȶİįĨ	-2596
uĨȸ	-2597
ȶĨơÌȶ	-2598
ÑƳơį	-2599
uǐĨƖ	-2600
ƳȀį	-2601
ơȀȲ	-2602
ȶÁȀuuȀƳį	-2603
İǟuȶĨƳƋĨ	-2604
ƳįĨİ	-2605
įĨÁƳ	-2606
ȶĨuȍ	-2607
ÐĨİį	-2608
Ĩįȶİ	-2609
ȀÑǟİÑȀƳį	-2610
tȍ	-2611
uȀÑƦ	-2612
ĨDƳƳĥ	-2613
ȎǗ	-2614
ĨuȍƳ	-2615
ȶįuȶ	-2616
ȶįİ	-2617
uȀÑ	-2618
ƳȲȲİDƳ	-2619
õĨ	-2620
ȀįŦĨİÑĨ	-2621
Ȁę	-2622
ȀÑuȶȲƋ	-2623
ĥĨÑÌȶĨ	-2624
ǟuȀįȶuuĨ	-2625
ǐĨýƳ	-2626
▁ÑİÑȶuĨ	-2627
ȀįŦĨİĨu	-2628
İȲĨÑ	-2629
żF	-2630
ĨİȲuƳ	-2631
ƋȲƳơȶ	-2632
ȶįuȀÑȀ	-2633
ÁİȲȲȶ	-2634
İȍȶ	-2635
ǟįȶĨ	-2636
uĨİŦƳ	-2637
ÑİȀįȶ	-2638
įƳơĨ	-2639
ǐĨȸƋÑȶ	-2640
ÑƦȍȶĨƳƋĨ	-2641
ǟuȶĨÑÌȶĨ	-2642
ÑƦȍȶuĨƳƋĨ	-2643
▁Ư	-2644
Ȁȶơȶ	-2645
ȶuȶįÑ	-2646
ÔȲİį	-2647
ĨÑÌƳǟŦÌ	-2648
ĀİÑǟ	-2649
İuÌȀįŦ	-2650
ÌƳǟuȶ	-2651
ÌĨƋƳ	-2652
İÑȶĨİį	-2653
İȀįȶ	-2654
ĨȶƋƋȶ	-2655
ŦȶįȶÑȀ	-2656
ÑȶÁȍƳ	-2657
ĨİȲuƳĨ	-2658
ĨDƦ	-2659
ĥȶÑĨ	-2660
Ĩȶįȶ	-2661
ơȀÑÌƳǟÑĨ	-2662
uƳȀȲ	-2663
ǐȎǶƳ	-2664
uĨÑƳĨDȶĨ	-2665
ĨÑƳĨuȶ	-2666
įȶÑĨ	-2667
ȎN	-2668
ĥİ	-2669
ƳÁȍİįƦĨ	-2670
Ĩżƥ	-2671
Áǟu	-2672
ȸR	-2673
İÁİŦȶĨ	-2674
õǐ	-2675
ÌĨƳƋĨÑÌȶĨ	-2676
İÁÁ	-2677
İÑȀƳįĨƋƳ	-2678
ųİ	-2679
ȲȶuĨƳƋĨ	-2680
Ñȶȶį	-2681
ĨƳƋĨȍ	-2682
▁ȍİį	-2683
ȲİÑȀƳį	-2684
ĨuǟŦŦ	-2685
ŦİįȀ	-2686
ĨuÁİȲȲ	-2687
ƳuÑ	-2688
ÑuĨȀį	-2689
ȀįŦǟ	-2690
ƳįÑİȀįȶ	-2691
ȶŎuĨ	-2692
ƤİȲȀƋƳ	-2693
ćƯ	-2694
įÁȶįÑ	-2695
ƳęȀÁİÑȶ	-2696
ĨȲİį	-2697
ƋȲƳơ	-2698
ƦƳǟĨİ	-2699
ȶĨȲȶİ	-2700
ȀįĨƳ	-2701
ÑÌȀįŦ	-2702
Ñȶu	-2703
İĨȱ	-2704
İȲĨƳ	-2705
ȲİȀÁ	-2706
DǟȲ	-2707
ƳÌįĨ	-2708
Ĩųȶ	-2709
ÌƳǟu	-2710
ȶĨơÌȀ	-2711
ȶęȍİį	-2712
ȐȀį	-2713
ĨuȀŦį	-2714
ĨƯȶ	-2715
uȶÑĨ	-2716
uÌƳȍ	-2717
İȲĨƋƳ	-2718
uǐĨýÌȶƦĨ	-2719
ƦīĨÑÌȶĨ	-2720
İȲơİƦuĨ	-2721
ȲȲƳơȶ	-2722
įȶǟ	-2723
ÁȶÑ	-2724
ȀuÑȀįŦĨ	-2725
ĨƤƳ	-2726
ĨÑơƳĨ	-2727
ÑȀƳįuĨİį	-2728
ĨÑƳĨȀį	-2729
ÑƳȐ	-2730
İįŦȶĨƳƋĨ	-2731
ơȶİ	-2732
İȲĨȍİ	-2733
ĥƦĨ	-2734
ȍÌİ	-2735
ƳƳĥĨ	-2736
ǐĨř	-2737
İuÑȶĨ	-2738
tř	-2739
ĨİįƳÑÌȶ	-2740
ȶīĨDǟÑĨ	-2741
īĨȀuĨ	-2742
ĨƋȶȶȲ	-2743
uĨȎ	-2744
ȶǡǟȶį	-2745
ȶĨİȲȲ	-2746
ȍİŦȶĨ	-2747
ĨÑƳĨÌȶȲȍ	-2748
ƦŎuĨ	-2749
ȶÁȍȲƳƦȶ	-2750
ƳȍƳ	-2751
ȶuīĨÑÌȶĨ	-2752
uǐĨNÑĨ	-2753
ĨÑƳŦȶÑÌȶ	-2754
Ưǟ	-2755
ȀįŦȲƦĨ	-2756
İÁȶuĨ	-2757
İǟuȶĨÑÌȶĨ	-2758
ȀÑȀȶuīĨ	-2759
ȶĨįƳ	-2760
ƳǟįÑİȀį	-2761
ĨƋƳǟ	-2762
ȀƳǟuȲƦĨ	-2763
ȶuȶįÑuĨ	-2764
ĨÌȀÁ	-2765
ÑȀƳįuīĨ	-2766
ǐȎȸį	-2767
ÌƳÁȶ	-2768
ĨÁȶÑ	-2769
ǟuÑȀ	-2770
▁ȀƖ	-2771
īĨƖ	-2772
ǐĨýÌȶĨȍ	-2773
ǐĨưƳǟĨ	-2774
ÑİĥȶuĨ	-2775
ȶuuĨÑƳĨ	-2776
ĨÁȶÁDȶ	-2777
ǟŦŦ	-2778
ȀuÑȀį	-2779
ĭė	-2780
ĨÌƦ	-2781
ÑȀȶuĨ	-2782
ȀȶįÑȀ	-2783
Ĩuȶį	-2784
ǐĨNÑĨơİuĨ	-2785
ĨǗȶ	-2786
ýȀÁ	-2787
ĨơİįÑĨÑƳĨ	-2788
İįuƋƳ	-2789
ȃĨƳƋĨ	-2790
ȐŻȤ	-2791
ĨƳDöȶ	-2792
▁Ñȶ	-2793
ƅć	-2794
FĨȀuĨ	-2795
ǐȎĀ	-2796
ĨĀȶơ	-2797
ȶÁİȲ	-2798
İÁƳǟuĨ	-2799
İįĨȶ	-2800
ƤƳȲȲȶ	-2801
ȶuÑuĨ	-2802
ƳįuÑİį	-2803
İĨŦ	-2804
ÑİDȲȶ	-2805
ȸȍ	-2806
ȶİuȀȲƦĨ	-2807
ȶȲȶİu	-2808
ȲȶƋÑĨ	-2809
ȸÔ	-2810
ȶÑuĨ	-2811
ĨȀįĨŻȹ	-2812
ǐĨÅ	-2813
uǨȎ	-2814
ȎȎȎȎȎȎȎȎ	-2815
ȶĨȀuĨÑÌȶĨ	-2816
ȲȶĨİį	-2817
ĥȶį	-2818
İŦȶĨƳƋĨ	-2819
ÌİȲȲȶį	-2820
Ưȶȍİ	-2821
İÁƳǟįÑĨƳƋĨ	-2822
ÅĨ	-2823
ȶĨÌİuĨ	-2824
ȀȶȲ	-2825
ÌƳuȍ	-2826
ǟȲİÑȶ	-2827
ƋİȀ	-2828
uĨơȀÑÌĨ	-2829
İÁȀįĨ	-2830
ƳĨƦƳǟ	-2831
ƳuƳȍ	-2832
ĨİĨŦ	-2833
İǟŦÌ	-2834
ȶęȍȲİȀį	-2835
ƯȀu	-2836
ƦįİÁ	-2837
ĨȲȀį	-2838
ÁȶÁƳ	-2839
İÑȀƳįĨȀuĨ	-2840
īĨȶ	-2841
ȶęİ	-2842
ȶǐȎýÌȶĨ	-2843
ȶuȍƳįuȀDȲȶĨ	-2844
įƳǟį	-2845
ȶĨÑÌİį	-2846
ÁȀÑÑȶ	-2847
ƳęȀÁİÑȶȲƦĨ	-2848
ȀƳĨ	-2849
ȲƳįŦȐ	-2850
Ĩuȍȶȶ	-2851
İÁȶÑȶ	-2852
ȶȲƳȍȀįŦĨ	-2853
ǐȎR	-2854
ȸƯ	-2855
İÑÑȶį	-2856
ȍƳȀįÑĨ	-2857
ȀÑƦĨÑƳĨ	-2858
ȶĨƖ	-2859
ĨÑÌƳǟuİį	-2860
ȍİÑÌ	-2861
ȀĨ	-2862
ȶįÑĨƳƋĨÑÌȶĨ	-2863
ǗǟuȶǟÁ	-2864
İįĨİȲuƳ	-2865
ȶuuȶuĨ	-2866
ÀĨ	-2867
ųȶȍ	-2868
ȀÁİŦȶuĨ	-2869
▁Ƥ	-2870
ȲƦĨİį	-2871
ȶĨƦƳǟĨ	-2872
ƋƳȲ	-2873
uīĨu	-2874
ƳįȶĨƳƋĨ	-2875
ŻīĨ	-2876
ÑİįÑĨÑƳĨ	-2877
ĨÁİĥ	-2878
ýȶİ	-2879
ĨÑȀÁȶ	-2880
İÑİĨ	-2881
ĨȶƦ	-2882
ĨİįÑȀ	-2883
ĨŦİ	-2884
ȶİÑÁȶįÑ	-2885
ȶuȶįÑİÑȀƳį	-2886
ǐĨȸuĨ	-2887
Ƴuu	-2888
ȍÌƦuȀ	-2889
uĨİƋÑȶ	-2890
ȐD	-2891
ÌƳǟuȶĨ	-2892
uƳįİȲĨ	-2893
uȀÑȶĨ	-2894
ȀuÑȶį	-2895
ÌĨƳÑÌȶ	-2896
Ȁįįȶ	-2897
ƅȶİȲÑÌ	-2898
uĨơȀȲȲ	-2899
ĨÌƳ	-2900
ǐȎȭÌİÑĨ	-2901
įȶŦİÑȀ	-2902
İįuƋȶ	-2903
ȀÑȀȶuĨİį	-2904
ľľ	-2905
İĨD	-2906
ƳÌƳȲ	-2907
ĨDȶȀįŦĨ	-2908
ýÌȶu	-2909
ÌƳƳȲĨ	-2910
ÑǟÁ	-2911
ĨȍİȀį	-2912
ȶĨİįƦĨ	-2913
ȶuÑİ	-2914
İÑÑȲȶĨ	-2915
uĨȲȀĥȶĨ	-2916
ýȶę	-2917
Ñǐ	-2918
ƤȀ	-2919
ȲȀĥȶȲƦĨÑƳĨ	-2920
ȶĨơÌİÑĨ	-2921
ǐĨýÌȶu	-2922
ǟuȀįŦĨÑÌȶĨ	-2923
İę	-2924
ƳįƋȲȀ	-2925
ƯƳ	-2926
ĨİŦİȀįuÑĨ	-2927
ȶĨİĨȍ	-2928
ȲȶįŦÑÌ	-2929
ȶęİÁ	-2930
ȀÑȀľȶį	-2931
ĨÑƳĨÁİĥȶĨ	-2932
ƳęȀ	-2933
ȶęİÁȀį	-2934
ȶĨŦƳ	-2935
uȶȶį	-2936
uĨƳƋĨu	-2937
uȍȶȶ	-2938
ȶǡǟȀȍ	-2939
ĨİDƳ	-2940
ĥĨƋƳ	-2941
õȐ	-2942
ĨuȶÑ	-2943
ȶĨƳƋĨu	-2944
ĨƅȶİȲ	-2945
uĨDȶ	-2946
ƦįİÁȀ	-2947
ȶuuÁȶįÑĨ	-2948
ƋȲİÁ	-2949
ƦǨĨ	-2950
ƳįÑİȀįuĨ	-2951
õĭ	-2952
ÌȀȲƳuƳȍ	-2953
ǐĨȭÌȶįĨ	-2954
uīĨuǟ	-2955
ÌȀŦÌȲƦĨ	-2956
ƳȲȀÑȀ	-2957
ȎǶ	-2958
Ćİ	-2959
ƳÁȍȲȀ	-2960
ėƥƥ	-2961
Ĩȶǡǟ	-2962
ȶĨƳƋĨİ	-2963
ǟuÑİȀįİDȲȶĨ	-2964
ȀuÑǟ	-2965
ŦİįȀľ	-2966
uȍƳ	-2967
ȲƦȀįŦĨ	-2968
ĨƋǟȲȲ	-2969
ȶuÌ	-2970
ȶįȶuuĨ	-2971
ȶĨȍƳu	-2972
īĨơȀÑÌ	-2973
ĨȀuĨįƳÑĨ	-2974
Ĩćę	-2975
ÑīĨİį	-2976
ȶuȀuÑİį	-2977
uÁİȲȲ	-2978
ĨŦȶ	-2979
ĨDȶȶįĨ	-2980
Ȏƅ	-2981
ÑƳơİ	-2982
ÑĨȀįĨÑÌȶĨ	-2983
▁ȶȶĨ	-2984
ȶĨǟȍ	-2985
FǐĨýÌȶĨ	-2986
ȲȀÁȀÑȶ	-2987
ȶuȶįÑİ	-2988
ȶįȶƋȀÑ	-2989
FǐĨ	-2990
ȶuȍƳįu	-2991
ȀįŦĨuƦuÑȶÁ	-2992
ƤƯ	-2993
Ȳİǟį	-2994
ȲƳơĨ	-2995
ƋȀŦǟ	-2996
ĀȶơĨ	-2997
RȀD	-2998
Ƥǟ	-2999
ƳơįĨ	-3000
ĨƋǟÑǟ	-3001
ǟÑȀƋǟȲ	-3002
ȶȍƳu	-3003
ǟuuȀƳį	-3004
Ñȶȶ	-3005
ŦİįȀuÁ	-3006
ćȲȶ	-3007
ƳȍȍƳu	-3008
ćęȍ	-3009
įȶÑȀ	-3010
İÑİDİu	-3011
ƳÁȶįĨ	-3012
ÁĨİį	-3013
ƯİƦĨ	-3014
ĨÑÌȀįŦ	-3015
żȐ	-3016
ȀİȲĨİį	-3017
ȀįƋȲǟȶį	-3018
ȀįŦĨơȀÑÌ	-3019
ĨÑơƳ	-3020
ÔȲİ	-3021
Ĩű	-3022
ĨȸȲ	-3023
ƳįȶĨƳƋĨÑÌȶĨÁƳuÑĨ	-3024
ĨƳȍȶ	-3025
ƋİÁȀȲƦĨ	-3026
İƦȶ	-3027
ȶuĨȍ	-3028
▁Ñȶȍ	-3029
Àȹ	-3030
ÑȶĨÑÌȶĨ	-3031
ȶįÑĨÑƳĨ	-3032
ĨÑÌȶĨÑ	-3033
ĨuƳÁ	-3034
ƦȶȲȲƳơ	-3035
ȭȶD	-3036
Ƴȍȍȶ	-3037
Ĩȹ	-3038
ĨƋȶİÑǟ	-3039
ĨŦƳƳ	-3040
ȀįƳ	-3041
ȸD	-3042
ȶuȎȐĨ	-3043
ȀȶuĨÑÌİÑĨ	-3044
ćǗ	-3045
ȀȲȶĨ	-3046
ȶĨȶƋƋȶ	-3047
ȀÑİDȲȶĨ	-3048
İĨȀuĨ	-3049
ƳÁȶÑȶ	-3050
ǟŦǟuÑĨ	-3051
▁Ô	-3052
ȶİĥĨ	-3053
İŦİȀįuÑĨ	-3054
ȀȶÑĨ	-3055
ȎÑÌȶĨ	-3056
ȀİȲuĨ	-3057
uȀŦįȀƋȀ	-3058
ǐĨƅȶĨ	-3059
ÁuĨƳƋĨ	-3060
ƳÁȍƳǟį	-3061
ȀDȶĨ	-3062
uÛ	-3063
ȎȐ	-3064
ƅN	-3065
ÌİįȀ	-3066
ÑÌīĨ	-3067
ȶĨuÌƳǟȲ	-3068
ƤƳÁÁ	-3069
ȶĨơİÑȶ	-3070
ĨǟįÑȀȲ	-3071
Ñİę	-3072
FīĨİį	-3073
ȶȲȲĨ	-3074
İȲƳ	-3075
İÁȍȲȶĨ	-3076
ƳįuǟÁȍ	-3077
ćįŦȲİį	-3078
ƋĨ	-3079
ȀįȀÑȀ	-3080
ǟÁĨ	-3081
ǐȎýÌȶ	-3082
ȀįŦĨȍİ	-3083
uÑİÑȶĨ	-3084
ȶİÑȶį	-3085
ĥĨȀuĨ	-3086
RİÑ	-3087
ÑȀįŦĨİį	-3088
ǐĨýÌȶƦĨİ	-3089
ÑuĨȀįĨ	-3090
ƖƤ	-3091
ÑÌĨƳƋĨ	-3092
ơȀu	-3093
ĨŦȶį	-3094
İįÑȲƦĨ	-3095
ÁƳįȀÑƳ	-3096
DƳÑ	-3097
ÔǟDȲȀ	-3098
ĨöǟuÑĨ	-3099
īĨȀÑĨȀuĨ	-3100
ȎĨİį	-3101
ƳÁÁǟįȀÑƦ	-3102
ĨDȶÑơȶȶį	-3103
ƳuƦuÑȶÁ	-3104
ȀįȶīĨ	-3105
ȶuǨĨ	-3106
ĨDİuȶ	-3107
Āİ	-3108
įǟÁȶ	-3109
İįuȀ	-3110
ĨuȀÑȶ	-3111
ĨįƳĨ	-3112
ƤƳǟįÑ	-3113
ȶÑİȀȲȶ	-3114
ĨİÁƳįŦ	-3115
İȲȶį	-3116
uĨƳƋĨİ	-3117
ĨȶęÑ	-3118
ȶĨơÌƳ	-3119
RƳį	-3120
ȶİuȀ	-3121
ȲİįĨ	-3122
ĨÌƳȲ	-3123
ȶĨƋİ	-3124
ĨİįĨȀį	-3125
ȸǗ	-3126
ǗİƦĨ	-3127
ÌƳȲİ	-3128
ȶĨÁİįƦĨ	-3129
īĨȀįĨ	-3130
ĨİuĨİ	-3131
İȲĨȶ	-3132
ȶuĨuǟ	-3133
Ĩuǟȍȶ	-3134
ơȶȶ	-3135
ǟÁȶįÑuĨ	-3136
Àǐ	-3137
ȀÑİÁȀįĨ	-3138
ƦÁDƳȲ	-3139
ȀįŦĨȀįĨÑÌȶĨ	-3140
ǟÁÁİ	-3141
DȶÑơȶȶį	-3142
ĥuĨİį	-3143
uǐȎȭ	-3144
ĨİÑĨȲȶİuÑĨ	-3145
įȶƦĨ	-3146
ÑÌĨƳƋĨÑÌȶĨ	-3147
ĨȍƳȲȀÑȀ	-3148
ƳǟÑĨƳƋĨ	-3149
ųÏ	-3150
ÁīĨ	-3151
▁ȀǶ	-3152
ĨuİƦ	-3153
ȎÏ	-3154
ȭİuÌȀįŦ	-3155
ȀDǟÑȀƳį	-3156
ȀuĨİį	-3157
ȲȀD	-3158
ƖȲİ	-3159
ȶįuȶĨ	-3160
ȀįÑƳĨÑÌȶĨ	-3161
ųǟuuȀ	-3162
ȶǐŦ	-3163
ĨÑÌȀuĨȍ	-3164
ǟȍȍȶ	-3165
Ƥİį	-3166
ȶÑÑȶ	-3167
ýİ	-3168
ÌĨÁƳ	-3169
ȸÑ	-3170
ȶĨȲİ	-3171
ÑuĨƋ	-3172
İuuĨ	-3173
ÑĨƳįĨ	-3174
ĨÁȶį	-3175
ÁİÑƳ	-3176
ȶįį	-3177
Ƴȍİ	-3178
ĨơȀȲ	-3179
ƤȶįÑ	-3180
ȲȀŦÌÑ	-3181
ŻȤȹ	-3182
ȶȶĥĨ	-3183
ȀDǟÑȶĨ	-3184
õȹ	-3185
ÁȶÑȶ	-3186
ȶįöƳ	-3187
ȶİuÑȶ	-3188
ȍƳÑȶįÑȀİȲĨ	-3189
żīĨ	-3190
İįƳ	-3191
ĨuǟŦİ	-3192
Ĩǟ	-3193
ǐȎų	-3194
ĨƦƳǟįŦ	-3195
ƳŦįȀľ	-3196
ÑĨơİuĨ	-3197
ĨȍƳȲȀ	-3198
ƯǶ	-3199
ĨȍİÑȀȶįÑuĨ	-3200
ƳÁƳ	-3201
ƋȀȲȲ	-3202
DȀÑĨ	-3203
ȶuuĨÑÌȶĨ	-3204
īĨơİuĨ	-3205
ĨơȀÑÌĨİ	-3206
ĥuīĨ	-3207
ȲƳƳĥĨ	-3208
ÁİįǟƋİ	-3209
ǐȎć	-3210
uĨÁİƦĨ	-3211
ǟȶ	-3212
uȶuĨ	-3213
ĨȀįĨƳ	-3214
ơȶuÑĨ	-3215
ĨĥįƳơȲȶ	-3216
ĥȀįĨ	-3217
ÌȶĨơİuĨ	-3218
īĨuǟ	-3219
ƳÁƋƳ	-3220
RȀį	-3221
▁ȀǗ	-3222
İƋƋȀ	-3223
uÌȀ	-3224
ĨİuuƳ	-3225
ÑƳÑİȲĨ	-3226
õȤ	-3227
Ñİuĥ	-3228
▁ƳĨ	-3229
ĨȤ	-3230
ȭİÑȶ	-3231
ǟÁȀį	-3232
ȐƦȶİ	-3233
İįȀÁİȲ	-3234
īĨD	-3235
ƤƳǟį	-3236
ĨÑƳĨÑ	-3237
DƳę	-3238
Ĩćį	-3239
ƳǟÑȶ	-3240
ȶĨǶ	-3241
ĨŦǟȀ	-3242
ŦȶÑÑȀįŦĨ	-3243
ÑÌȶÑȀ	-3244
ȭȀ	-3245
ȀįĨu	-3246
ĨuƳȀȲ	-3247
ĨĆƳ	-3248
ȶuǐȎýÌȶĨ	-3249
ȀŦŦȶ	-3250
ĨǶƳ	-3251
İơİ	-3252
ÛƳ	-3253
ȲȀįŦ	-3254
İÁD	-3255
ȶȲuĨƳƋĨ	-3256
ĀƳÑĨ	-3257
uĨơÌȀ	-3258
ȶȍÑȀ	-3259
ƳÁİį	-3260
ǟÑȶĨ	-3261
ƳȲǟį	-3262
ĨƋȲİ	-3263
▁N	-3264
3⁄4»	-3265
ȲȶÑĨ	-3266
ĨơÌȀȲȶĨ	-3267
ȲƳÑĨ	-3268
ǟÁD	-3269
ȶȲĨƳƋĨ	-3270
ǟÑƳ	-3271
Ĩǡǟ	-3272
ÌİįȀuÁ	-3273
ėĨ	-3274
ÑȀƳįȶ	-3275
ǐĨȸȲȲ	-3276
Ĩİįuơȶ	-3277
ĨÑƳƳȲ	-3278
ǐĨǗİ	-3279
ĨȀįĨȍ	-3280
űȹ	-3281
Żī	-3282
pĨ	-3283
ȶȲƦ	-3284
ĨİǟÑÌƳ	-3285
ĨDȶÑơȶȶįĨÑÌȶĨ	-3286
ĆǟȀ	-3287
ƳǟDȲȶĨ	-3288
İĨƋ	-3289
ĨơİuĨÑÌȶĨ	-3290
ÁƳÑÌȶ	-3291
ȶİĥȶ	-3292
İȲĨÑƳĨ	-3293
▁ȶį	-3294
ÑƳĨÑÌȶȀ	-3295
uİƦ	-3296
uǐȎNį	-3297
ƦŦ	-3298
uĨơÌƳĨ	-3299
ǟȲȍ	-3300
İÑȶȲƦĨ	-3301
Ìİȶ	-3302
İuȶuĨ	-3303
ǟȲİÑȀƳį	-3304
ÁȀÑĨ	-3305
ĨİĨƋȶơ	-3306
ŦÛ	-3307
İȲƳŦ	-3308
ĨȶęȍȲƳ	-3309
ȀȍÑȀƳį	-3310
ÑȀƳįĨȱ	-3311
ÌÑÑȍǨÛÛ	-3312
İǟuȶuĨ	-3313
ȶįƳǟŦÌ	-3314
ĨÑÌİįĨÑÌȶĨ	-3315
īĨuƳ	-3316
ÏD	-3317
Ôȸ	-3318
ȀuȀDȲȶĨ	-3319
İįĨȀÁȍƳ	-3320
ćý	-3321
ȶȲƳ	-3322
ƳÁȍȶÑȀ	-3323
ƳơuĨ	-3324
ƳįȶuĨ	-3325
İDǟȲİ	-3326
ĨįƳơ	-3327
ƦĨȀįĨÑÌȶĨ	-3328
ĨƋȲǟ	-3329
ƳįuĨ	-3330
ǶȶD	-3331
DȶĨİ	-3332
ÁİįİŦȶÁȶįÑĨ	-3333
ȶŦȀuÑȶ	-3334
ȶīĨơÌȀ	-3335
ǶȲƳ	-3336
ȶƋȀ	-3337
ȶuuȀįŦĨ	-3338
ơȶȀŦÌÑĨ	-3339
ƳįÑİÁȀį	-3340
ȶĨý	-3341
ÑȀƳįİȲ	-3342
ȀİDȶÑȶ	-3343
ȀȶįÑ	-3344
ȀÁȶįuȀƳį	-3345
İuĨİ	-3346
İįĨȲȶİ	-3347
▁Ï	-3348
İƋÑĨ	-3349
İÑȀƳįuīĨ	-3350
ȀÑȀįŦ	-3351
ƳįÑȶįÑ	-3352
Rǟ	-3353
İȲĨƳƋĨ	-3354
ĨÁǟuȀ	-3355
Ƴȍȍ	-3356
ÏȲ	-3357
ƋȲƳƳ	-3358
ȶĨÑÌİÑĨÑÌȶĨ	-3359
İȲĨȸ	-3360
ÌĨÑƳĨ	-3361
ȲȀĥȶĨÑÌȶĨ	-3362
ȀȶuĨÑƳĨ	-3363
įĨİį	-3364
ŦƦȍ	-3365
ƦuĨ	-3366
ȶȲȶÁȶįÑuĨ	-3367
ȍƳƳ	-3368
uȀę	-3369
▁Ȁƅ	-3370
NuȲİį	-3371
ȶĨơȀÑÌĨÑÌȶĨ	-3372
IĨ	-3373
ĨǟuȀįŦĨ	-3374
ÑƋƳ	-3375
ȶĨƳƋĨȍ	-3376
ĨÔȶ	-3377
ȶİuƳįĨ	-3378
DȶÑơȶȶįĨÑÌȶĨ	-3379
ÌȀȲȶĨÑÌȶĨ	-3380
żƥŻƥ	-3381
õű	-3382
ÌĨİuĨÑÌȶĨ	-3383
DİȲȲ	-3384
ȶįÑȀƋƦĨ	-3385
ơȀįÑȶ	-3386
ȶĨÑƳĨDȶĨ	-3387
ȶȲƳȍÁȶįÑĨƳƋĨ	-3388
uÌƳơį	-3389
ĨuİƦuĨ	-3390
uȶīĨ	-3391
ƳȲƳŦƦīĨ	-3392
ȲȀįĥȶ	-3393
İÑȀƳįuĨİį	-3394
ǐĨƖȶ	-3395
ÌİÑȎuĨ	-3396
īĨÑÌȶįĨ	-3397
ĨƳȲ	-3398
ơÌƦĨ	-3399
ȭȀȲ	-3400
ĨuƦÁȍÑƳÁ	-3401
Áȶuu	-3402
İÑȀƳįĨȍ	-3403
ȀȶuĨÌİ	-3404
İuȀƳį	-3405
ȶĨƳƋĨİĨ	-3406
ȀįŦĨƳįĨÑÌȶĨ	-3407
ȀįŦĨÑÌȶĨȍ	-3408
ĨȀįƋ	-3409
ĨȶęİÁȍȲȶ	-3410
ƳÁȍȲȶÑȶȲƦĨ	-3411
ȶÁȶȲƦĨ	-3412
İÁȍİ	-3413
ƳƋĨÑÌȶÁ	-3414
ǐĨýƳĨ	-3415
ÑÌȶƳ	-3416
▁Ȁý	-3417
ƳƋĨİĨu	-3418
uȶÑÑ	-3419
ȲȀuÑȶį	-3420
ƦƳǟĨÌİ	-3421
Ĩýȶ	-3422
ȶuȍƳįuȀDȲȶĨƋƳ	-3423
ȐŦ	-3424
İȲȀİ	-3425
Ƥý	-3426
ȶĨȶęȍȶ	-3427
ÑuȎ	-3428
Ïý	-3429
ÌƳơĨÑÌȶĨ	-3430
ĥȀȲȲȶ	-3431
ǐȎÏį	-3432
ȲƳÑĨƳƋĨ	-3433
ĨDƳÑÌĨ	-3434
ȶĨÁȶ	-3435
▁İȲ	-3436
uǐĨƤ	-3437
ȶĨǗ	-3438
ĥȲƦĨ	-3439
ȀuĨÑƳĨ	-3440
uƳǟį	-3441
ȀįŦĨŦ	-3442
ȶĨuÑƳ	-3443
ųN	-3444
ĨơƳƳ	-3445
ƦuÑ	-3446
ȶįĨÑƳĨ	-3447
Áİĥȶ	-3448
ȶİĨƳƋĨ	-3449
İDȀȲȀÑƦĨÑƳĨ	-3450
ȀÁȶįÑĨ	-3451
ȀįŦĨƳį	-3452
ǟuÑƳ	-3453
Ƥć	-3454
▁»5	-3455
ÁİÑÌȶÁİÑȀ	-3456
ĨİÑÑİ	-3457
Ĩȶęȶ	-3458
ǐȎȐĨýÌȶĨ	-3459
ȸŦ	-3460
Áİę	-3461
ȍİȀį	-3462
ȶǟ	-3463
ȶȲȀŦȀƳǟuĨ	-3464
ơİȲȲ	-3465
Ĩơȶİ	-3466
ȀuĥĨ	-3467
uǟȍȶ	-3468
ÑȀƳįuĨƋƳ	-3469
ĨİÑÑȶį	-3470
İÁİŦȶ	-3471
ȀŦÌÑīĨ	-3472
ĨuȀŦįȀƋȀ	-3473
ȸȍȍ	-3474
Ĩuȶȍİ	-3475
ǐĨNįĨ	-3476
ȀįŦuĨİį	-3477
ȲİDƳ	-3478
ǟȲÑuĨ	-3479
ȀįÑȶŦ	-3480
uĨÑÌİÑĨÑÌȶĨ	-3481
DȶȶįĨ	-3482
ƳǟŦÌƳǟÑĨ	-3483
ȲƳƳĥĨİÑĨ	-3484
ȶŦȶÑİD	-3485
ĨtįȀ	-3486
ȀŦȀįİȲȲƦĨ	-3487
ơÌȶÑÌȶ	-3488
ȲȀľ	-3489
ÁİȀȲ	-3490
įƳÑÌȶ	-3491
ǐĨNįĨÑÌȀuĨ	-3492
ǐF	-3493
ÑȶȶÑÌ	-3494
ĨƋȲƳơ	-3495
ǨĨÌ	-3496
uĨơÌƳ	-3497
uĨİÑĨÑÌȶĨ	-3498
ĨÁȶÑȶ	-3499
ȶįÑĨȍ	-3500
īĨơÌƳĨ	-3501
Ĩƅİ	-3502
uÅ	-3503
ơİƦĨÑƳĨ	-3504
İįĨuȶ	-3505
ƋǟȲȲƦĨ	-3506
ĨÁȶÁƳ	-3507
ƳÁĨİį	-3508
ƨĨN	-3509
ȶuF	-3510
uİȲ	-3511
ǐĨNįĨİ	-3512
ȶÌȶįuȀ	-3513
ĥĨÌȶ	-3514
▁ȀȭÌİÑĨ	-3515
İȲƋ	-3516
uȀÁȍȲȶĨ	-3517
ƅƳǟ	-3518
ȀÑƦĨƳƋĨÑÌȶĨ	-3519
ĨųȀ	-3520
ȶĨÑƳĨu	-3521
ȭȶuÑĨ	-3522
Áİľ	-3523
ĨȲȀƋȶ	-3524
ȀuÑİįÑĨ	-3525
ǐĨǗİįƦĨ	-3526
ĨÑÌȶÁuȶȲ	-3527
ȶȲȲuĨ	-3528
ƳÁĨu	-3529
ȀįŦĨuÑ	-3530
ćÁ	-3531
ǟĥ	-3532
ĨȍƳuȀÑȀ	-3533
ȶİÑȶĨİĨ	-3534
ǨĨƤ	-3535
ȶĨƳǟ	-3536
ȶīĨƳ	-3537
ǐƤ	-3538
NÑİȲ	-3539
▁ƳÁȶ	-3540
ĨƳįĨİĨ	-3541
NÁ	-3542
ȶįȶơ	-3543
ȎR	-3544
ǟȍȍ	-3545
ĆƳƳŦ	-3546
ȀįŦĨǟȍ	-3547
õõ	-3548
ĨɁ	-3549
ǰǟȶu	-3550
ȭȶ	-3551
ȀƋĨÑÌȶĨ	-3552
ÁǟuÑĨDȶĨ	-3553
įȶuu	-3554
İÑȀƳįĨƳƋ	-3555
ȀįİȲĨ	-3556
ƳǟD	-3557
ȐȐĨ	-3558
ȶįÌİį	-3559
uȀŦį	-3560
ĨȀįĨƦƳǟ	-3561
ÌȀȶƋ	-3562
ÀÀ	-3563
İįĨǟį	-3564
ȲƳuÑĨ	-3565
ƳȍÑȶ	-3566
ĨƤÌ	-3567
ȶĨÌȶ	-3568
ȀuĨȍ	-3569
İÑȀƳįuĨƳƋĨ	-3570
İįĨİȲuƳĨ	-3571
ưȶİ	-3572
ÑĨƳįĨÑÌȶĨ	-3573
ƳÁÛ	-3574
ĨȍİÑÑȶ	-3575
uƳÁ	-3576
řİ	-3577
Ŧǟİ	-3578
ĨDȶŦȀį	-3579
ĨÑÌİÑĨÑÌȶƦĨ	-3580
ĨȍȀȶ	-3581
ĨȎĨ	-3582
ȀƳȲȶį	-3583
ĨÑƳĨƦƳǟ	-3584
ÑÌİÑ	-3585
ȶŦȀƳįĨ	-3586
įƳÑĨƳįȲƦĨ	-3587
İŦȶÁȶįÑ	-3588
ȶĨuƳÁȶ	-3589
ĨDİD	-3590
ǟȶĨÑƳĨÑÌȶĨ	-3591
İȲƦľ	-3592
NįƋƳ	-3593
ŦƳȲ	-3594
ȶuÑİDȲȀuÌ	-3595
ƅȶİ	-3596
ȀįŦĨȀÑĨ	-3597
▁ƳǟÑÌĨ	-3598
uĨȍȶ	-3599
ȀuǟİȲ	-3600
ȶȀŦį	-3601
įȀİ	-3602
ĨƋİÁȀȲƦĨ	-3603
řƳ	-3604
ÌȀŦÌȶuÑĨ	-3605
▁İįĨ	-3606
ǟȶȲ	-3607
įȀįŦĨİį	-3608
ÑĨDƦĨ	-3609
ȶȎȐĨ	-3610
ȶęİÁȍȲȶĨ	-3611
ȀįŦuīĨ	-3612
uƨȎ	-3613
ƳįÑȀįǟȶ	-3614
ǐĨýÌİÑĨ	-3615
ƳƳÁĨ	-3616
uƳįİȲ	-3617
ȀŦÌȶ	-3618
tuȶĨ	-3619
ƋǟȲĨ	-3620
ƋİȀȲ	-3621
İƦĨİį	-3622
ȲǟuȀƳį	-3623
ǐȎĆ	-3624
▁Ìȶ	-3625
įȀŦÌÑĨ	-3626
ƳƳȍȶ	-3627
ȀÑȀƳįīĨ	-3628
ȀįƋ	-3629
Ȁǐ	-3630
ȶĨơȀÑÌĨ	-3631
ŦȲƳDİȲĨ	-3632
ÑÑȶį	-3633
NĨÌİ	-3634
ÑƳƳĥ	-3635
ȀŦÌÑȶ	-3636
uĨƳƋĨȍ	-3637
DȶŦȀįįȀįŦĨ	-3638
▁ÌȶĨ	-3639
ȤȤ	-3640
İȍȍȶ	-3641
ȀįĨƦƳǟ	-3642
ȲƳȍȶ	-3643
ȲȶuĨİ	-3644
ĥȐ	-3645
ĥuÌƳȍ	-3646
ĨŻė	-3647
ÑÑȍu	-3648
ĨȀįĨÑÌȶĨȍ	-3649
ĨȀįĨÑÌȶȀ	-3650
İÁȶơƳ	-3651
tų	-3652
ÑÑȍuǨÛÛ	-3653
Ȏć	-3654
İÁĨ	-3655
ĨDȶĨİ	-3656
ȲȀuÑȶ	-3657
İDȲȶuĨ	-3658
ǟÑÌ	-3659
ÁȀuuȀƳįĨ	-3660
õƥƥ	-3661
İÑȶĨƳƋĨ	-3662
ĨÑÌȶĨƋ	-3663
ȀÁȶįÑ	-3664
ȀȍİįÑuĨ	-3665
ÁİÑȀƳįĨİDƳǟÑĨ	-3666
ĨÁİȀį	-3667
ĥĨƦƳǟ	-3668
RİįŦǟ	-3669
ƳĨİį	-3670
ÑǐĨýÌȶĨ	-3671
uǐĨýÌȶ	-3672
įĨÑƳĨ	-3673
ȶİĥȀįŦĨ	-3674
Ƴįuȶǡǟȶį	-3675
ÑÌĨȸÁȶ	-3676
ȀŦÌDƳ	-3677
ÁȶȶÑĨ	-3678
▁İį	-3679
õF	-3680
İįĨȸ	-3681
ȲİÑȶuÑĨ	-3682
ȀƳǟu	-3683
ȶįȶƋȀÑuĨ	-3684
Ĩƥ	-3685
DȲǟ	-3686
ƦĨÑÌ	-3687
İÑÁƳuȍÌȶ	-3688
ȲȶÁȶįÑĨ	-3689
ȶĨȲƳ	-3690
ȀįĨÑÌȀuĨ	-3691
ƯĀȸ	-3692
įƳÑȀ	-3693
5»5	-3694
ĨÌǟÁİį	-3695
ƦƳǟĨįȶȶ	-3696
ƳįÑĨ	-3697
ȀŦȶį	-3698
ȶęİÁȍȲȶ	-3699
ȶȲȲİ	-3700
ȶuĨİuĨ	-3701
ȃĨƳƋĨÑÌȶĨ	-3702
ĨİuĨơȶȲȲĨİuĨ	-3703
ƳįȲȀį	-3704
ÀȐ	-3705
uƦį	-3706
ĨýÌ	-3707
ƋİÑÌȶ	-3708
ȶęȍƳuǟ	-3709
ȶįÑȀƋȀ	-3710
ĨÁȀu	-3711
ȶĨÑȶ	-3712
ĨǗȀ	-3713
ĨÑȀ	-3714
ĨuƦį	-3715
Ȁįuȶ	-3716
ÌĨÌİ	-3717
ÑȶĨİį	-3718
ǟÑÑȶ	-3719
ƳŦįȀÑȀ	-3720
ƳȶuįȎÑĨ	-3721
ÌȶİÑĨ	-3722
ÌȶȲȍĨ	-3723
uĨÑƳĨȍ	-3724
ÌȀŦÌȐ	-3725
ȀÁİŦȶ	-3726
ƳÑȀ	-3727
ÑİĥȀįŦĨ	-3728
ơİu	-3729
ǐĨƅȀuĨ	-3730
ĨÑȶÁȍȶ	-3731
NĀĆ	-3732
ĨÑÌȶƦĨÌİ	-3733
İÑȀįŦĨÑÌȶĨ	-3734
īĨÑƳĨ	-3735
ĨDȲƳ	-3736
ȍȲİȀį	-3737
ȀȲȲȀƳįĨ	-3738
ơȶĨÌİ	-3739
Ñİu	-3740
ÑīĨÑÌȶĨ	-3741
İÑȀƳįĨȱ	-3742
ȍƳuȀÑȀƳį	-3743
öǟį	-3744
ĨȀįöǟ	-3745
ȲȀǡǟȀ	-3746
ĨȍƳȀį	-3747
ǡǟȶ	-3748
ĨuİȲ	-3749
ƋȀįİį	-3750
ŻÛ	-3751
İȲȲƳơuĨ	-3752
ƳİuÑ	-3753
ÑǟįȀÑȀȶuĨ	-3754
Ʀȍȶ	-3755
ȶǨȎ	-3756
ȭȀȲȲȀİÁ	-3757
ȶįÑǟİȲȲƦĨ	-3758
ǐĨǗƳuÑĨ	-3759
ÁȀÑÌ	-3760
öƳȀį	-3761
Ŧȶu	-3762
ĨÌƳÁ	-3763
ȎĆ	-3764
ÔƳȲ	-3765
ćęȍȶ	-3766
Àĭ	-3767
ȶįÑĨƋ	-3768
ÁİƦĨÌİ	-3769
ơȶuÑȶ	-3770
İȲȲƳơȶ	-3771
ȸuȀ	-3772
Ȑİ	-3773
ȀuȶİuȶĨ	-3774
İȍȍȲȀȶ	-3775
ĨȲİÑȶ	-3776
ơÌȶįĨÑÌȶĨ	-3777
Ȁįu	-3778
ĨuȀľ	-3779
ȶȲīĨ	-3780
ĨDȶȶį	-3781
õīĨ	-3782
ÑuĨƳ	-3783
ĨDƦĨİ	-3784
ǐĨƖƦĨ	-3785
ȶǐȎȐĨ	-3786
ƳƋÑĨ	-3787
ĨÑƳơİ	-3788
ȀįŦĨÁƳ	-3789
DƳÑÑƳÁ	-3790
ÌĨİĨ	-3791
ƳįȶīĨ	-3792
ĨȍİȀ	-3793
ȲƳDİȲĨ	-3794
ĨÛ	-3795
ĨDİuȀ	-3796
Ĩȍİuu	-3797
ƳÁÁǟįȀÑȀȶuĨ	-3798
ĨuÑİÑȶĨ	-3799
İuÑȀ	-3800
Àű	-3801
▁ƳÁ	-3802
ǐȎȸȲ	-3803
ȀŦȶ	-3804
ĨƯȀ	-3805
ơİÑ	-3806
ȶįÑȲƦ	-3807
ȶĨȀ	-3808
ÑÌȶį	-3809
ĨİĨuȍȶ	-3810
ĨȀįĨİį	-3811
uǐĨǗ	-3812
ĨÑÌİÑĨİ	-3813
īĨÅ	-3814
ǐĨćİ	-3815
ĨÑÌȶĨƤ	-3816
ȶįȎuĨ	-3817
ÑƳƳĨ	-3818
ȶuuİƦĨ	-3819
ĨÑȶuÑ	-3820
ƳȲÑİ	-3821
ĨȲȶŦ	-3822
İȍƳ	-3823
ÑÌȐ	-3824
ȲİįŦǟİŦ	-3825
řȀ	-3826
İÑȶuĨÑÌȶĨ	-3827
ĨÑÌȶĨƳÑÌȶ	-3828
ĨÌȶĨ	-3829
ȭȶuÑȶ	-3830
ȍȍȶ	-3831
ƦŦȶį	-3832
ÑȶęÑĨ	-3833
ÑƳȲ	-3834
ȶĨƋǟį	-3835
ĨȍƳȲȲǟ	-3836
ǟȲįȶ	-3837
ÁƳÁ	-3838
ǐĨǗƳ	-3839
ĨİĨuȶ	-3840
ÁİȲȲƦĨ	-3841
ƦĨİĨ	-3842
ĨơİƦĨÑƳĨ	-3843
ǟȍȀȲ	-3844
ȲƳƳĥȶ	-3845
ȶęÌȀD	-3846
İŦȀįŦĨ	-3847
ȀȀ	-3848
ǟȲİÑȶĨ	-3849
ĨÁǟu	-3850
ƳÁDȀįȶ	-3851
ƤÌǟ	-3852
ƤĨ	-3853
Rȸ	-3854
īĨÑÌȶĨȍ	-3855
ǐÅȎ	-3856
ơȶȲ	-3857
Ćǟ	-3858
ĨȲȶuuĨ	-3859
ȶȍÑȀƳį	-3860
ƆƆƆƆƆƆƆƆ	-3861
ȀuȀįŦĨ	-3862
ȶĨuÑȀȲȲ	-3863
ǐƥ	-3864
ȀÁȍȲȀ	-3865
ȭȀį	-3866
ȶęȍƳuȶ	-3867
ėė	-3868
İȲȲƳ	-3869
ǐĨƯǟ	-3870
ĨȶęİÁȍȲȶĨ	-3871
uȀÁȍȲƦĨ	-3872
ƳǟȍĨƳƋĨ	-3873
żƥŻė	-3874
ǨĨÔ	-3875
ÑİȀȲ	-3876
ȀuȀÑƳ	-3877
ǗȶęȀ	-3878
uȶȶĨ	-3879
ĨơÌȶįĨÑÌȶĨ	-3880
ȀÁİŦȀį	-3881
īĨŦ	-3882
ĨȍÌ	-3883
ȭȀÑÌ	-3884
ƳįƳ	-3885
ơİuĨÑÌȶĨ	-3886
ȶİuȀȶ	-3887
ȶįÑȀİȲĨ	-3888
ĨĆȶ	-3889
ÌƳÑƳĨ	-3890
ĨDȶȲȀȶ	-3891
ȲƳÑÌ	-3892
NÔ	-3893
ĨįƳįȐ	-3894
ÁȀÑ	-3895
İȲȲİ	-3896
ĨĥÁ	-3897
uƨ	-3898
İȀuȶ	-3899
uīȎ	-3900
ȀȍȲȀį	-3901
ƳįƋȶ	-3902
ĨİȲƳįŦ	-3903
ȀuǟİȲĨ	-3904
ǟuu	-3905
uĨÑƳĨu	-3906
ĨİĨįȶơ	-3907
ĀƳơ	-3908
Fǐ	-3909
ĭȹ	-3910
ȀÁȍȲȶÁ	-3911
ȶǐĨȸ	-3912
ĨRȶİ	-3913
ȶuȍƳįuȶĨ	-3914
ĨƋȀuÌ	-3915
Ȁȍȍ	-3916
ƳȍÌ	-3917
ĨuȶȲȶ	-3918
ƳƳÑĨ	-3919
DİȲİį	-3920
ƳįȶĨƳ	-3921
ƦƳǟȎ	-3922
ÑȀƳįuĨİ	-3923
ȶÁȍȲƳƦ	-3924
ĨƳơįĨ	-3925
ǐĨȎ	-3926
ƅƳȲ	-3927
ÌȶÁȀuÑ	-3928
İÑȀƳįİȲ	-3929
ȶĨơÌȶį	-3930
ĨǟįȀ	-3931
ĨÑƳĨȲȶİ	-3932
ǨɁɁ	-3933
ĨÑÌȶȎ	-3934
ĨÑÌȀįŦuĨ	-3935
ȀįŦĨuȶ	-3936
ȭÌ	-3937
ȶĨȀÁȍƳ	-3938
ȀÑÑȶįĨ	-3939
ÌĨÌİuĨ	-3940
ȶĨơȀȲȲĨ	-3941
Ĩȍİį	-3942
ƳÁȶuÑȀ	-3943
İuȍȶ	-3944
ÌĨƳ	-3945
ȶİȲȶ	-3946
ÀȤ	-3947
ÑuĨȀįĨÑÌȶĨ	-3948
ȀȶĨ	-3949
ĨuƳǟį	-3950
ȀįĨÑÌȶȀ	-3951
ÌȀȲȲ	-3952
ųȶuƳǟ	-3953
DƳǟÑĨ	-3954
ÑİǟŦÌ	-3955
ȶuǟȲÑȀįŦĨ	-3956
ĨuǟƋƋȶ	-3957
ȀįŦĨÑƳ	-3958
ȶÁİȀȲ	-3959
ȶĨơÌȶįĨ	-3960
ơȶİÑÌȶ	-3961
īĨǶ	-3962
uǟÁÁȶ	-3963
▁Ȁć	-3964
ȀȲȀ	-3965
īĨý	-3966
ĨơÌȶÑÌȶ	-3967
ƳȍȶįĨ	-3968
ƳƋĨÑÌȶĨȍ	-3969
ȶįÑĨİ	-3970
ĨȀįuÑİį	-3971
ĨƳƋƋȶ	-3972
ĨȍİÑÌ	-3973
ƳȲȶu	-3974
Ĩƅȶ	-3975
ĨİĨuÑ	-3976
ĨȍǟÑĨ	-3977
īĨơÌƳ	-3978
uuȀȲ	-3979
ŦİįȀľȶ	-3980
İįĨÌİ	-3981
ȀįŦĨƳįĨ	-3982
ȶŦįİį	-3983
ÑİĥȶįĨ	-3984
ȶĨİĨD	-3985
İÁÁİ	-3986
ƳÁȍƳuȶ	-3987
ƅǟÁ	-3988
ÑƦȲȶĨ	-3989
ĨȲȀĥ	-3990
ÑÌȶĨȍ	-3991
İÁȍȲȶuĨ	-3992
uǐĨÔ	-3993
ĨİÑĨİĨ	-3994
ÌİÑ	-3995
żƥżƥ	-3996
ǐȎýÌ	-3997
ÑƦĨİį	-3998
ĨuÑȀ	-3999
ȶȲĨİį	-4000
ÑȀÁȶĨÑƳĨ	-4001
ȶĨuÌİ	-4002
ĭĨ	-4003
FĨİ	-4004
ȶĨƋȀ	-4005
ǟuuȶ	-4006
ȀİįŦ	-4007
uĨȶ	-4008
ÁİuÑȶ	-4009
ǟȲȀ	-4010
İDȀȲȀÑƦ	-4011
īĨć	-4012
ĨơÌƦĨ	-4013
ȀįĨȍ	-4014
ÌĨȀįĨ	-4015
ȀuƳȲ	-4016
ȀįŦĨÑ	-4017
ĨÑÌȀįĥĨ	-4018
ĨŎ	-4019
ĨȀįÑȶŦ	-4020
ÁȀŦ	-4021
Ìȶu	-4022
ơİƦĨƋ	-4023
ĨuȀÁȀȲİ	-4024
ÁƳǟÑÌ	-4025
▁ƅ	-4026
īĨDȶ	-4027
DȶįȶƋȀ	-4028
ȲȀľȶ	-4029
ȀįŦĨȶ	-4030
ĨuǟDöȶ	-4031
ĨƖİ	-4032
uĨİDƳǟÑĨ	-4033
ƅȶİȲÑÌĨ	-4034
ǐĨNÑȎuĨ	-4035
ĨDİį	-4036
ÌȶįƳÁȶį	-4037
ƦǐȎýÌȶĨ	-4038
ȶĨŦȶįȶ	-4039
ȀuİuÑȶ	-4040
ȶÑÑƦĨ	-4041
ĨȀuĨȍ	-4042
ȀįİÑȶ	-4043
ƦŎ	-4044
ĨơİįÑĨ	-4045
ÁİÑȀƳįĨİį	-4046
ÌȶȲȍuĨ	-4047
ƦĨÑ	-4048
ĥįƳơįĨİuĨÑÌȶĨ	-4049
ÌȀįŦ	-4050
ŦȶÑuĨ	-4051
ƦȀįŦĨÑƳĨ	-4052
ȲƳįŦȐÑȶ	-4053
Ȥė	-4054
ĨÑÌȶĨƖ	-4055
ȀȶįÑuĨ	-4056
ȭȶĨ	-4057
ŦƳİȲ	-4058
ÌĨƦȶİ	-4059
ƦĨƤ	-4060
öǟuÑȀ	-4061
ȍİȀ	-4062
ȶǡǟȶįÑȲƦĨ	-4063
ƅƳ	-4064
ƦȀȶȲ	-4065
ȀƋƋ	-4066
ĨȍƳÑȶįÑȀ	-4067
ȀİįuĨ	-4068
Ïȍ	-4069
ȎȐĨƤ	-4070
ÌǟŦȶĨ	-4071
ĨİĨȍȶ	-4072
ȀÁȍȲƦĨ	-4073
ĨÑƳĨƋȀį	-4074
▁ȀN	-4075
İuȶĨ	-4076
ÁİįİŦȶ	-4077
ÁȶȲ	-4078
ÑȀƳįĨƋƳ	-4079
ǡǟȀÑȶĨ	-4080
uǐĨý	-4081
ÏƋƋȀ	-4082
ĨÑȶę	-4083
İȲǟİDȲȶĨ	-4084
īĨÁƳ	-4085
ǡǟİįÑȀ	-4086
żƥƥȤ	-4087
ǐĨÔȶ	-4088
ȶįÑuȎ	-4089
ȶĨįƳĨ	-4090
ȲȀĥȶ	-4091
ǐȎȐĨȸ	-4092
ĨơȀÑÌȀįĨÑÌȶĨ	-4093
ÑuīĨİį	-4094
ĨȍƳuuȀ	-4095
ĥĨƳ	-4096
ĨÑÌȶĨȀį	-4097
İÁȍİȀŦį	-4098
ȲǟįŦ	-4099
ƨȎýÌȶĨ	-4100
ȶÐ	-4101
ĨNįÑȶ	-4102
ȀįİÑȀƳį	-4103
ȶĨÑÌȶĨƋȀ	-4104
ÁƳįŦ	-4105
īĨƦƳǟĨ	-4106
uÑƳį	-4107
ƳƋĨuȶ	-4108
ȶĨơȀȲȲĨDȶĨ	-4109
İȲİę	-4110
ǶƳƳ	-4111
ÔȶƳȍȲȶĨ	-4112
ȶĨÑƳĨȍ	-4113
ĨȍȲİįÑĨ	-4114
ĥĨƳįĨÑÌȶĨ	-4115
ȀȶuĨƋƳ	-4116
ȶĨÌȶİ	-4117
ǗR	-4118
ĨȶęÑȶį	-4119
ĨƋİȲȲ	-4120
▁ÌƳ	-4121
ȶİuÑ	-4122
ƦĨŦ	-4123
uȶȍİ	-4124
ĥĨƳǟÑĨ	-4125
ĥȀȍȶ	-4126
ơȶĨİ	-4127
ȶĨŦȀ	-4128
ÁİȀįÑİȀį	-4129
ÏƋ	-4130
ȀįȶuĨ	-4131
ĨƋȲƳơȶ	-4132
Ƌİu	-4133
ǟuĨİį	-4134
īĨÑÌȶuȶĨ	-4135
ćŦƦȍ	-4136
ǐĨtį	-4137
İȀįȀįŦĨ	-4138
ȲȲȶ	-4139
õż	-4140
ȶĨDȶÑơȶȶįĨ	-4141
ÁƳuÑĨȀÁȍƳ	-4142
ȲƳįŦĨ	-4143
ȀÑƦĨȀuĨ	-4144
ȶȲȀŦȀƳį	-4145
ĨÑÌȀu	-4146
ÑİȲĥ	-4147
ĨİƋƋȶ	-4148
ȶİǟ	-4149
DȲƦĨ	-4150
ǟÑÑȀįŦĨ	-4151
İȎuĨ	-4152
ŦİÑÌȶ	-4153
ȲİuÑ	-4154
ȶįÑİÑȀƳį	-4155
uǐĨNÑĨȀuĨ	-4156
īĨơÌȶį	-4157
DȀƳÑȀ	-4158
ĨÁȶİįuĨ	-4159
ȀȲȀÑ	-4160
DȶĨȍ	-4161
ĭĭ	-4162
ƳȀįŦĨ	-4163
Rİơ	-4164
ȶįŦȶ	-4165
İÑĨȲȶİuÑĨ	-4166
ǟįİ	-4167
ĨƳƋƋȀ	-4168
ȶĨȶę	-4169
ƳįuȀuÑ	-4170
uǐĨN	-4171
İȍİįȶuȶĨ	-4172
ȀįŦĨİDƳǟÑĨ	-4173
īƥƥƥĨ	-4174
ŦȶÑĨÑÌȶĨ	-4175
ĨȀįuȶ	-4176
ÑÌǡǟİ	-4177
ĨNu	-4178
ȶĨÑÌȶĨu	-4179
ƤÌȀįȶuȶĨ	-4180
ÏÑÌȶ	-4181
ƳÁÁȀÑÑȶ	-4182
ĨÌƳơĨ	-4183
uĨÁƳ	-4184
ȀƳu	-4185
Ĩp	-4186
ƳȲƳŦƦ	-4187
ÑĨƳį	-4188
ȸuuƳ	-4189
ȶȀŦÌÑĨ	-4190
õƯ	-4191
DȶÌȀį	-4192
DƳǟ	-4193
ȍƳȀįÑ	-4194
ȶĨƋȀį	-4195
ƳȲǟįÑȶȶ	-4196
įȀİĨ	-4197
ÁȀę	-4198
űȤ	-4199
ĨįİÁ	-4200
ǨĨÑÌȶĨ	-4201
ÑuĨÌİ	-4202
ƳÁİuĨ	-4203
ÑȀƳįuĨƳƋĨ	-4204
ÑƦīĨ	-4205
īĨŻȹ	-4206
ĥĨƳįĨ	-4207
ƳƋȶuuȀƳįİȲĨ	-4208
ȶȶȐ	-4209
ŦȶĨƳƋĨÑÌȶĨ	-4210
ȀįŦĨuĥȀȲȲ	-4211
ÑuĨȱ	-4212
DİD	-4213
ȀįŦǐ	-4214
ƋİÁƳǟuĨ	-4215
ÁİÑÌ	-4216
uǐĨǶƳ	-4217
İȍÑȀ	-4218
Ĩuǡǟİ	-4219
ƤƳįŦ	-4220
ĨƳDuȶ	-4221
ƳįuǟÁ	-4222
ƳȲǟÑȀƳįĨ	-4223
ƳÁİ	-4224
ĨuȍȀ	-4225
ĨơİuĨİĨ	-4226
ćęȍȲƳ	-4227
īĨȎ	-4228
żƥŻÀ	-4229
ĨȀįĨİĨu	-4230
ĨuȶÑĨ	-4231
ÁǟȲÑȀȍȲȶĨ	-4232
ȀįŦĨuÑǟ	-4233
ÌȶȲȍȶ	-4234
ĨÑÌȶĨȶį	-4235
Ĩįǟ	-4236
ƦơÌȶ	-4237
uǟDuÑİį	-4238
ȶȲȶuuĨ	-4239
ĨNN	-4240
ȶİuƦĨ	-4241
ćR	-4242
İȲȲƦĨÑÌȶĨ	-4243
ȀİDȲȶĨ	-4244
İĨƋȶơ	-4245
ƦĨÔ	-4246
įīĨ	-4247
ĨDȶĨȍ	-4248
ơÌƳȲ	-4249
İÑȶīĨ	-4250
ƳȲȲȶŦȶĨ	-4251
ȶĨȲȶ	-4252
ƳƋȶuuȀƳįİȲ	-4253
ĨȀįuȀ	-4254
įȀįŦīĨ	-4255
ĨơÌȀÑȶĨ	-4256
ƦĨÌİ	-4257
ǐƯ	-4258
ȲȀŦÌÑȲƦĨ	-4259
ƳȍÑȀÁ	-4260
ƳƳĥuĨ	-4261
Ŧİu	-4262
ĥįƳơĨÑÌİÑĨ	-4263
īĨơÌȀȲȶĨ	-4264
õÀ	-4265
ȐÑƳȐ	-4266
żƥŻĭ	-4267
ÁƳȲȶ	-4268
İǟuȶĨƳƋĨÑÌȶĨ	-4269
ǐȎɁ	-4270
uÑƦ	-4271
Ƴįȶu	-4272
ĥĨȀįĨ	-4273
ơÌȀÑȶĨ	-4274
İȲƳįŦĨÑÌȶĨ	-4275
ȶuuȶȲ	-4276
uƦÁ	-4277
ȀİȲĨȍ	-4278
ȲİįÑȀ	-4279
İÑȀƳįuĨƋƳ	-4280
Ȁįuǟ	-4281
ĆȀ	-4282
ÔÌȀȲ	-4283
ĨÁİƦĨDȶĨ	-4284
DƦ	-4285
ÑȀÁȶīĨ	-4286
ÁǟȲÑȀ	-4287
ĭÀ	-4288
űű	-4289
īĨÑÌȶȀ	-4290
Ƴuİǟ	-4291
ȀÑīĨ	-4292
ǟȲȶuĨ	-4293
NÏĀ	-4294
ȀįŦǐĨýÌȶĨ	-4295
ŎȲȲ	-4296
ȲǟuÑȶ	-4297
ȀuȶuĨ	-4298
ĨÌȶİȲÑÌĨ	-4299
ÁƦ	-4300
ĨÑÌȀuĨİ	-4301
ĨuÌȶ	-4302
ĨƋȲƳƳ	-4303
ƤÌȀįİ	-4304
ǟįȀÑĨ	-4305
ȶİuƦĨÑƳĨ	-4306
▁F	-4307
İįĨȶį	-4308
uĨƳȲ	-4309
ȶĨƳƋÑȶįĨ	-4310
ÁİĥȶĨÑÌȶĨ	-4311
ȶuÑīĨ	-4312
▁ÁȀÑÌ	-4313
İuĥȶ	-4314
ƳȍƳu	-4315
īĨÑÌȶƦĨİ	-4316
ƤƤ	-4317
ÌƳÑĨ	-4318
İįĨȶę	-4319
uÌƳơȶ	-4320
ÅýÌȶĨ	-4321
ƳƋĨÑÌȶu	-4322
ƳÁĨȍ	-4323
ǐȎȸĨ	-4324
ȍȀȶ	-4325
īĨÑÌȶį	-4326
İÁİÑȀ	-4327
ĨȍȲİƦȶ	-4328
żƥƥȹ	-4329
ÑȀƳįĨȀįĨ	-4330
ÁƳDȀȲ	-4331
ǟȲÑƦĨ	-4332
ȀÑİȀį	-4333
ƳȲȲƳơ	-4334
ȍȲİƦȶ	-4335
ȸuu	-4336
ĨȀįĨơÌȀ	-4337
ĨÌǟį	-4338
ȶĨơȶĨ	-4339
ŦȶƳŦ	-4340
ĨȸǟuÑ	-4341
ĥĨİ	-4342
uȶȲȶ	-4343
İįīĨ	-4344
ÌİuȶĨ	-4345
ÐĨÑÌȶĨ	-4346
İįĨDȶĨƋƳǟį	-4347
ĨȀįÑȶį	-4348
ƳįƦÁ	-4349
ȲȀȶuĨ	-4350
Ñİȍ	-4351
ȀÑȶĨÑÌȶĨ	-4352
ƅÏ	-4353
ȶĨȀuĨįƳĨ	-4354
ÑȶuÑȶ	-4355
ǶƳǟį	-4356
ĨÑƳĨŦȶÑĨ	-4357
İįuȲİ	-4358
Ȏų	-4359
▁Ɩ	-4360
ÑİÑȀƳįĨ	-4361
ŦȀįŦĨ	-4362
ÌİįįȶȲ	-4363
ȶĨȶİ	-4364
ȀÑȀƳįuĨ	-4365
żƥƥƥ	-4366
ȀįīĨ	-4367
ĨŦȶÑĨ	-4368
ȲȶÁȶįÑ	-4369
ƳÁȍƳįȶįÑuĨ	-4370
ȀuƳįĨ	-4371
ȶİuȶĨÑÌȶĨ	-4372
ĆƳƳŦȲȶĨ	-4373
ƳįȶȐ	-4374
ĨuÑȶ	-4375
õŻ	-4376
ĨİĨÑ	-4377
ȶȍȶ	-4378
Ƴľ	-4379
İȀȲİDȲȶ	-4380
ĨįǟÑ	-4381
ȍİŦȶ	-4382
ȶuȍȀ	-4383
ȀȶuĨȀįĨ	-4384
İÑȀƳįīĨİį	-4385
uƳǟÑÌ	-4386
Ȑǟȍ	-4387
ÌȀįȶĨ	-4388
ƦĨD	-4389
ǐĨÏÑÌȶ	-4390
ȀįĨơÌȀ	-4391
İĥȶĨ	-4392
İÑĨİĨ	-4393
żƥŻȤ	-4394
ȀuÑȀįŦǟ	-4395
uǐȎƤ	-4396
ǐĨÏǟ	-4397
ǐȎȱ	-4398
ƳįȲȀįȶĨ	-4399
ƯİƦ	-4400
Ĩuǟį	-4401
ȶĨȀƋ	-4402
ȀįȶĨİį	-4403
ȶƋȶį	-4404
ĥĨȍ	-4405
ȶĨų	-4406
ǟuÑƳÁȶ	-4407
ȎȎĨ	-4408
ȍȲİįÑĨ	-4409
ÁȀȲȀÑİ	-4410
ȶĨİįĨİ	-4411
żƥŻż	-4412
ÁƳįȶƦĨ	-4413
ĨŻƥƥ	-4414
ƋƳȲȲƳơȶ	-4415
ȍƳuuȀDȲȶ	-4416
ĨơƳį	-4417
ǟuÑƳÁ	-4418
ĨǡǟȶuÑȀƳį	-4419
ÅĨȱ	-4420
İȲĨƋ	-4421
ĨȲȀÑȶ	-4422
uȶǡǟ	-4423
İįȎÑĨ	-4424
ȶĨįȶ	-4425
ĀƯ	-4426
Ćȶį	-4427
ĨuÑȶȍ	-4428
ȶĨć	-4429
ȶİÑȶuÑĨ	-4430
ŦƦ	-4431
ÌİÑŎuĨ	-4432
ÑȀƳįĨȍ	-4433
ȶĨȀÑuĨ	-4434
ƖƳƳĥ	-4435
Ĩuơ	-4436
ĨƖȶ	-4437
ȲǟuȀ	-4438
żƥŻű	-4439
ȀÑȀƳįĨƳƋĨ	-4440
ȲİƦĨ	-4441
İŦȶĨİį	-4442
İÁȶįÑ	-4443
ƨĨȭÌİÑĨ	-4444
ĨƋƳȲȲƳơ	-4445
ĨǡǟİȲ	-4446
ȀįuȀ	-4447
ǟuÑȶ	-4448
ĨuÌİȍ	-4449
ȲȲȀŦȶį	-4450
ĭȤ	-4451
ƳƳƋ	-4452
ĨÑȶİÁ	-4453
Ĩćİ	-4454
ȶĨȀuĨİ	-4455
ȶǐĨýÌȀuĨ	-4456
ȶuǐȎȐĨ	-4457
ȶuǐĨȸ	-4458
ÁȶİįuĨ	-4459
ȹė	-4460
ȀŦȶįƳǟuĨ	-4461
ÌȲƳ	-4462
uĨuÌƳǟȲ	-4463
Ĩȸȍ	-4464
ƤƳȲ	-4465
ĨÑÌȶĨuİÁȶĨ	-4466
ƳÁȶuĨƋ	-4467
İƦĨƳƋĨ	-4468
İÌ	-4469
ǟuȀƳį	-4470
ȶȲȲȶįÑĨ	-4471
ĨÑÌȶĨƳ	-4472
ȀįĨÑÌȶĨȍ	-4473
İŦƳ	-4474
ȀȶÑȀ	-4475
İįĨȸÁȶ	-4476
ÑȶęÑ	-4477
ȶİuȀįŦĨ	-4478
ȶuĨÑÌ	-4479
ĭű	-4480
ĨDȶĨǟuȶ	-4481
ȲƳơȐ	-4482
įȶơu	-4483
ĨÑÌȶĨÁƳuÑĨ	-4484
ȀÑƦĨƋƳ	-4485
ĨDȲǟ	-4486
ȀÑȀuÌ	-4487
ĨÁİȍ	-4488
ȀÁȍȶ	-4489
ÑİŦ	-4490
ȍƳį	-4491
ȎȐĨÔ	-4492
İȍÌƦ	-4493
īĨĀ	-4494
DǟȀȲÑĨ	-4495
Ĩơȶȶ	-4496
Ìİuȶ	-4497
Ƴuȍȶ	-4498
İÑȶŦȀ	-4499
ȶuĨÑÌİÑĨİ	-4500
ÑÌȶƦĨÌİ	-4501
ȎĀ	-4502
Dȶȶį	-4503
ǐȎNÑĨ	-4504
ĨȍƳuuȀDȲȶĨ	-4505
ȶįȶơİDȲȶĨ	-4506
ȶĨÌƳơ	-4507
ĨÑƳƳ	-4508
ĨƳƋĨÑÌȀuĨ	-4509
īĨơÌȶįĨ	-4510
ȐƳȲ	-4511
ÑȀįŦĨȍ	-4512
ƳȲƳŦƦĨİį	-4513
İÑȀįŦ	-4514
ƦĨƦȶİ	-4515
ĨơȀįÑȶ	-4516
İǟuȶĨȀÑĨ	-4517
ȶĨİÑĨÑÌȶĨ	-4518
ÑȶȲȶ	-4519
ƦĨÌİuĨ	-4520
ȀİÑȶȲƦĨ	-4521
ǟȲÑĨÑƳĨ	-4522
ȲȀuÑĨƳƋĨ	-4523
İÑȶȲȲ	-4524
īĨƅ	-4525
ĨơÌȀȲ	-4526
ŎuĨİ	-4527
ĨȍİŦȶĨ	-4528
Ȏİį	-4529
ȲȶuuĨÑÌİįĨ	-4530
Ȳȶİu	-4531
ȶĨơİ	-4532
ȎȐĨȸ	-4533
▁ȀR	-4534
ƳDȲȶÁuĨ	-4535
įȀŦÌÑ	-4536
ȶuÑĨİį	-4537
ƳȲƦ	-4538
▁ƳȲ	-4539
ƳȍƳuȶ	-4540
ȎɁ	-4541
ȲȀuÑĨ	-4542
ƤÌȀ	-4543
ÁȀįŦ	-4544
tuȀįŦĨ	-4545
İÑȀƳįĨȀįĨ	-4546
uơ	-4547
ȍȶƳȍȲȶ	-4548
ȶįÑĨƳ	-4549
įİȲĨƳƋĨ	-4550
ƅƳơĨ	-4551
ȀƳęȀ	-4552
ĨÑÌȶĨuÑǟ	-4553
įĨİDƳǟÑĨ	-4554
ȶĨuİ	-4555
ÌȀŦÌȲȀŦÌ	-4556
ĨÑȶuÑĨ	-4557
ȍƳuȀÑȀ	-4558
ĨȀuĨÑƳĨ	-4559
īĨDǟÑĨÑÌȶĨ	-4560
ÑǨĨ	-4561
uƳÁȶÑȀÁȶuĨ	-4562
ȀįŦĨȱ	-4563
ȹȹ	-4564
ĨơİȲȲ	-4565
DȀį	-4566
ȍȶȶ	-4567
ÁİȀįȲƦĨ	-4568
ơİįÑĨÑƳĨ	-4569
İȲĨuÑ	-4570
ĨơİÑ	-4571
İĨÑ	-4572
ȲȶȐ	-4573
įƳį	-4574
ĨÁİȲ	-4575
ÁȀįȶĨÑÌȶĨ	-4576
żƥŻõ	-4577
ƋÑĨ	-4578
ƳŦįȀľȶ	-4579
ȲȀÁİÑȶ	-4580
tý	-4581
uĨǟį	-4582
ǐȎýƳĨ	-4583
ĨuƳȲİ	-4584
Ĩųȶuȶİ	-4585
ȶȲȶÑ	-4586
▁Ʀ	-4587
ǐȎƖǟÑĨ	-4588
ȶuīĨȀį	-4589
ȶuuǐȎ	-4590
İȲÁ	-4591
ÌİȲȲȶįŦȶĨ	-4592
uĨơƳ	-4593
▁ȀȐĨ	-4594
ĨơȶȲȲȐ	-4595
ƳÁȍǟ	-4596
▁ȀɁ	-4597
ȶīĨİ	-4598
ȍƳȲȀÑȀ	-4599
ȀuuȀƳįĨ	-4600
ĨÑÌİÑĨȀÑĨ	-4601
DİįĨ	-4602
İƦĨÑƳĨ	-4603
ÌİįŦȀįŦĨ	-4604
ĨÑÌȶĨȶ	-4605
ƦȀįŦĨÑÌȶĨ	-4606
▁İÑǟ	-4607
Ĩuİį	-4608
ȶuĨȀuĨ	-4609
ƳȲǟÑȀƳįİ	-4610
Ĩĥȶȶȍ	-4611
ƳƳȍ	-4612
īȎĨuİȀ	-4613
ȍƳȍǟȲİÑȀƳį	-4614
ȶuĨƳįĨ	-4615
Ưȶu	-4616
Ƴĥȶ	-4617
ƳÑĨ	-4618
İÁÁȶ	-4619
ȶÁȶįÑĨƳƋĨ	-4620
uȀľȶ	-4621
ĨİįİȲƦuȀuĨ	-4622
īĨĆ	-4623
ȶuīĨDǟÑĨ	-4624
ĨƋȶơ	-4625
ĨȲƳƳĥ	-4626
İuÑīĨ	-4627
ȲƳŦȀ	-4628
ĨİDȀȲȀÑƦĨ	-4629
ĨuÁƳ	-4630
ȲǟD	-4631
ÑÌƳu	-4632
ŦİįȀu	-4633
Ƕǟ	-4634
▁ȀÏ	-4635
ÁȶÑİȲ	-4636
ĨȀįȀÑȀ	-4637
īĨÌİ	-4638
İÑİĨƋ	-4639
ĨȀÑĨơİuĨ	-4640
ȭİȲ	-4641
ƦDȶ	-4642
ĨȶįŦ	-4643
ĨÁİįİŦȶÁȶįÑĨ	-4644
ėȐ	-4645
ĨǟuĨ	-4646
ȲƳȍ	-4647
ÑÑİ	-4648
ÁuĨİį	-4649
ȶĨİȍȍ	-4650
Ȏȱ	-4651
ĥĨơȀÑÌ	-4652
İȲĨơƳ	-4653
ƳȲƳŦȀuÑĨ	-4654
Ƕǟį	-4655
ȶįįȀ	-4656
ƳȲǟÁį	-4657
DƳǟį	-4658
DȲȶĨÑƳĨ	-4659
ĨȀįu	-4660
ćįŦȀįȶȶ	-4661
▁ȍİįȀuÌ	-4662
ƳįÑȀįǟȶĨÑƳĨ	-4663
įȀÑ	-4664
ȀįŦǐĨ	-4665
ĨİǟÑƳ	-4666
uĥȀȲȲ	-4667
ÑĨƳƋĨİĨ	-4668
ȶĨȲȀ	-4669
▁ƳǟÑÌȶ	-4670
ĨDƳį	-4671
ÑƳƳÑÌ	-4672
İÑÑȶÁȍ	-4673
ÑƳęȀ	-4674
uĨƋƳǟį	-4675
ȶȍİȀ	-4676
ĨİȲȲĨ	-4677
ȶuīĨơÌȀ	-4678
ƦĨơȀÑÌ	-4679
ĨİĨȲİ	-4680
ȶuuȶįÑȀİȲĨ	-4681
ơÌƳĨÌİ	-4682
īĨÑ	-4683
ȶĨDȶȀįŦĨ	-4684
ĨuƳÁȶÑÌȀįŦĨ	-4685
ơÌƳĨİ	-4686
ȶĨƳƋÑȶį	-4687
ǟȲȲȶ	-4688
ĨŻż	-4689
ȶĨİƋÑȶ	-4690
uĨơİuĨ	-4691
ÑȀuÁ	-4692
ǐĨȭÌȀȲȶĨ	-4693
İƦuīĨ	-4694
ȶīĨȍ	-4695
ĥĨȱ	-4696
İơį	-4697
ȶuuǐĨ	-4698
ƳÁĨƤ	-4699
ÁƳÑƳ	-4700
ĨȶęȍƳu	-4701
ƳįĨÑÌȶȀ	-4702
ÌĨƋ	-4703
İȲƦuȀu	-4704
ĨǶİ	-4705
żƥŻŻ	-4706
ƳįȶĨÑƳĨ	-4707
ĨÌƳÁȶĨ	-4708
ĨÁƳȲȶ	-4709
ǐĨNÑuĨ	-4710
İȲȲĨƳƋĨ	-4711
ȶĨÑÌȶuȶĨ	-4712
ȀįŦĨuǟ	-4713
uƦÁȍÑƳÁ	-4714
ȶȲȀÁȀį	-4715
Àƥƥ	-4716
ȀİŦįƳuȶ	-4717
ŻȤƥ	-4718
ĨDƳİ	-4719
ƳȲƳŦȀuÑuĨ	-4720
ÁƳÑȀ	-4721
ÑİįÑ	-4722
ȲȶİŦǟ	-4723
ƖǟÑĨ	-4724
ÌĨȱ	-4725
ÑÌȀįĥ	-4726
Ȏȍ	-4727
ĨįƳÑĨDȶĨ	-4728
Żƥǐ	-4729
ƋȲǟȀ	-4730
ÑÌƳȲȀ	-4731
uǟƋƋȶ	-4732
uÑƳƳ	-4733
ƳȶuįŎÑĨ	-4734
▁R	-4735
ȶįÑƳ	-4736
ƳįŦĨ	-4737
ȶĨöǟuÑĨ	-4738
ćȲ	-4739
ĨuÑȀȲȲ	-4740
ÌĨƦƳǟ	-4741
ȶĨİįƳÑÌȶ	-4742
ǐȎNƋĨƦƳǟ	-4743
Ìǟu	-4744
ȶĨƳįȲƦĨ	-4745
ĨơȶĨİ	-4746
ĨȲƳįŦ	-4747
ĨÑÌİÑĨȍ	-4748
ĨȍƳȍǟȲİÑȀƳį	-4749
uȎýÌȶĨ	-4750
ĨuȀę	-4751
ÁƳǟ	-4752
ȸȀ	-4753
DƳơ	-4754
ƳįĨȍ	-4755
ȲȶİįĨ	-4756
ȀįĨƳǟ	-4757
ĨÑÌȶƦĨơȶ	-4758
ĨİÁƳǟį	-4759
ĨDȀŦ	-4760
ÑǟÑƳ	-4761
ƳȲĨ	-4762
ĨȀÑȶÁ	-4763
ĨÑƳĨǟį	-4764
ȶįĨÁƳ	-4765
ĥĨÑƳĨÑÌȶĨ	-4766
ĨȲƳu	-4767
ĨÑȶȶÑÌ	-4768
İȲĨuƦuÑȶÁ	-4769
▁İÁ	-4770
ȀuuǟȶuĨ	-4771
uI	-4772
İÁÁȀįŦĨ	-4773
ĨÁǟȲÑȀȍȲȶĨ	-4774
uĨÑ	-4775
ĨƖǟ	-4776
ȀȶuīĨİį	-4777
ÑÌȶįĨ	-4778
ĨÁƳįȀÑƳ	-4779
ćÔ	-4780
ÑÌȶÁuȶȲ	-4781
ȶÑơƳ	-4782
įȀÑǟ	-4783
ȶǨ	-4784
żƥƥű	-4785
ȶİuĨƳƋĨ	-4786
ǟįįȀįŦĨ	-4787
İuȍ	-4788
ȲȶÁȶįÑİ	-4789
ćįȶ	-4790
ƳȍȲȶīĨ	-4791
İȍİDȲȶĨ	-4792
ƳơįĨÑÌȶĨ	-4793
ȶİuȀįŦȲƦĨ	-4794
ȀÑȀȶuĨİ	-4795
ȶĨȲȀĥȶȲƦĨÑƳĨ	-4796
ȀÑƦīĨİį	-4797
ĥĨƳƋĨÑÌȶĨ	-4798
űĭ	-4799
ƳįĨÑÌȀuĨ	-4800
ÑȀƳįuĨƳƋĨÑÌȶĨ	-4801
ȀÑİŦȶĨ	-4802
ƨȎȸ	-4803
ĨơȶİÑÌȶ	-4804
ƅƳơĨÑƳĨ	-4805
ȶuÑĨƳƋĨÑÌȶĨ	-4806
ȀuÑīĨ	-4807
ÑȀįŦĨÑƳĨ	-4808
ȀįİĨ	-4809
ÁİƦĨįƳÑĨ	-4810
uǐȎýÌȀuĨ	-4811
ÑuĨơȶ	-4812
ŦȲİ	-4813
ĨuȶȲƋȐ	-4814
ĨƋȶȶÑĨ	-4815
ĨÑƳȍȀ	-4816
▁ơȶ	-4817
ƳȍǟȲİÑȀƳį	-4818
ĨÑÌȶĨuȶ	-4819
İȲȲĨİ	-4820
ȶĨİDȲȶĨÑƳĨ	-4821
ȎuĨİ	-4822
ĨǗİį	-4823
ȶĨƅ	-4824
Ĩõƥ	-4825
ȀÑĨİį	-4826
ƦĨƖ	-4827
įȶÑ	-4828
ǐĨųȶ	-4829
ȀDȲȀ	-4830
ȶƋǟ	-4831
ĨȀÁȍƳ	-4832
İÑȀu	-4833
ȲİįÑĨ	-4834
ĨÌƳÁȶ	-4835
ȀįŦĨuƳ	-4836
FĨƳ	-4837
ȀuÑȀİį	-4838
ÏįȶĨƳƋĨÑÌȶĨ	-4839
İȲƳįŦĨơȀÑÌ	-4840
ȀuȲİ	-4841
ȶȶÑĨ	-4842
ǐĨýÌȶȀ	-4843
ȭİuÌȀįŦÑƳį	-4844
ĨÑÌȶĨÔ	-4845
ÌİuĨİ	-4846
ȶÁƳÑȀƳį	-4847
ƳÁȶĨİ	-4848
ȀƋĨƦƳǟĨ	-4849
ÁǟuȶǟÁ	-4850
ȶĨĆ	-4851
ƳȲĨİį	-4852
ȶįȀ	-4853
ƳǟŦÌȲƦĨ	-4854
ȀįȀƳį	-4855
ȍƳÑȶįÑȀ	-4856
ȶȶÑ	-4857
ųȶȍǟDȲȀ	-4858
ǐȎNƋ	-4859
ƤƳȲǟÁ	-4860
ȲȲİ	-4861
uĨǟȍ	-4862
ƳDȀ	-4863
ŻȤȤƥ	-4864
ȶĨÑơƳĨ	-4865
ȀȶįÑȀuÑ	-4866
ƳįuȀu	-4867
ĨÑȀÁȶuĨ	-4868
ȶįǟ	-4869
ƳÁĨÑÌȶȀ	-4870
ćİuÑĨ	-4871
Ĩćǟ	-4872
ȶĨN	-4873
ȶįuƳ	-4874
ĨĥȀȲ	-4875
ÌȶİȲÑÌĨİį	-4876
ȀuĨÑÌİÑĨ	-4877
Ĩİơİ	-4878
ȶuǟuĨ	-4879
ǐĨƅȶĨơİuĨ	-4880
ƤÌȶ	-4881
ȲƳuȶȲƦĨ	-4882
DȶĨÑÌȶĨ	-4883
ĨİĨuȀįŦȲȶĨ	-4884
ĨDƳę	-4885
ǗİƦ	-4886
ȀįŦĨuÑİ	-4887
ǗİĥȶĨ	-4888
Ĩuȶę	-4889
ȀÁÁȀŦ	-4890
īĨR	-4891
żƥŻȹ	-4892
İǟŦÌÑȶ	-4893
▁ȶȲȶ	-4894
ƳÑÑ	-4895
ĨuȲȶȶȍ	-4896
ĨÑƳǟ	-4897
ƳÁȶĨƋ	-4898
ÔȀ	-4899
ȲİȀÁȶ	-4900
ƳÁƳÑȶĨ	-4901
ǗȀȲ	-4902
Ƴơuȶ	-4903
ĨİŦİȀį	-4904
ȲȶİƋ	-4905
FÐ	-4906
ĨÌȀŦÌȶ	-4907
Ñİįȶ	-4908
ȶįŎuĨ	-4909
īĨř	-4910
uÌȶĨ	-4911
ȶȲȲȀįŦĨ	-4912
ƳƋĨuǟ	-4913
ȎȭÌİÑĨ	-4914
ĨŻĭ	-4915
ýȶęİuĨ	-4916
ĨȍƳuȀÑȀƳį	-4917
▁Ǘ	-4918
ÑȀÁȶĨİį	-4919
ÑȀȶ	-4920
ƖǟȀȲ	-4921
ȶǐȎȸ	-4922
ĨƋȀŦǟ	-4923
ƳįuǟȲ	-4924
ƳuȀuĨ	-4925
uÌİȍ	-4926
ĨȀÁȍİ	-4927
İȲĨŦ	-4928
ȀİÁȶÑȶ	-4929
ÑǟįȀÑƦĨÑƳĨ	-4930
ƳȍÑȀƳį	-4931
ĨÌİȲƋ	-4932
ȶįuȶĨƳƋĨ	-4933
uǐĨýÌȶuȶĨ	-4934
ƦȍȀ	-4935
İȲơİƦ	-4936
ÌƳǟuȶÌƳȲ	-4937
ǐǐǐĨ	-4938
ĨȍǟDȲȀuÌȶ	-4939
ĨÑȶį	-4940
īĨų	-4941
ĨƅȀuÑƳ	-4942
ĨȀuĨǟuȶ	-4943
ĨŻű	-4944
ĨȀįƋȲǟȶį	-4945
ĨuƳÁȶÑȀÁȶuĨ	-4946
uȀƳįĨƳƋĨ	-4947
ŦȶȲƦĨ	-4948
ƤƳǟ	-4949
▁ǐ	-4950
ŦȶįÑĨ	-4951
ȀįŦuĨİ	-4952
ƳįÑȶÁȍƳ	-4953
ȶęȍȶįuȀ	-4954
ȀuȀÑ	-4955
ȶȶľ	-4956
ÌİuĨÑÌȶĨ	-4957
īÅĨuİȀ	-4958
ȭÌȶįĨ	-4959
Ȁįöǟ	-4960
ȶęÑȶ	-4961
ȎĨȱ	-4962
ƤÔ	-4963
ȀŦİ	-4964
ųƳÁİįĨ	-4965
ÌƦȍƳ	-4966
ƅý	-4967
Ȏİ	-4968
ȀÁÁǟįȶĨuƦuÑȶÁ	-4969
ĨÌȀŦÌĨ	-4970
ÌȶȲȍƋǟȲ	-4971
ĨÌǟÁİįĨ	-4972
İȲȲȀ	-4973
ȶįÑȲƦīĨ	-4974
ĨÑÌȶĨȸ	-4975
uĨȀÑĨ	-4976
uȀÑƦīĨ	-4977
įİÑȀƳįİȲ	-4978
ÑȀƳįīĨİį	-4979
▁Ʀį	-4980
ƅǟ	-4981
ÑÌȲȶ	-4982
ȶĨDİ	-4983
ĥuĨİ	-4984
Ìİľİ	-4985
ėȤ	-4986
ȶȀį	-4987
İuuȀ	-4988
ÁÁ	-4989
ÑÌĨŦ	-4990
ȶįľ	-4991
uÑȀȲȲĨ	-4992
ÁİuuȀ	-4993
İȶȲ	-4994
ȀÁȶįÑuĨ	-4995
ÑƳĨƦƳǟ	-4996
ǐǐǐȎ	-4997
ĭȐ	-4998
ȀÑİį	-4999
ȶįȎÑĨ	-5000
ƳȲȲȶİŦǟ	-5001
īĨÑÌƳǟŦÌ	-5002
ȶįƳǟŦÌĨ	-5003
ƳįÑİȀįĨ	-5004
uĨơȀÑÌĨÑÌȶĨ	-5005
▁ȀĆ	-5006
ƦĨDƦĨ	-5007
Ĩö	-5008
tuȶ	-5009
ȎuĨȍ	-5010
ȲƦĨİ	-5011
ĨưƳǟ	-5012
ȀȶơĨƳƋĨ	-5013
ŦİįĨ	-5014
įƳÑȶĨ	-5015
ÑǟįİÑȶ	-5016
ȶȶįÌƳǟuȶĨ	-5017
RİDƳ	-5018
ÁȀįƳ	-5019
ǐĨĀƳ	-5020
ȶİÑÌĨ	-5021
ĨÑÌȶĨĆ	-5022
ǗƳuÑĨ	-5023
İȍȀÑİȲĨ	-5024
ĨuǟDuÑİį	-5025
ȶĨįƳơ	-5026
uĨơ	-5027
ĨįȶÑơƳ	-5028
ĨȀįÑƳ	-5029
ÌİÑȶ	-5030
ǐȎýƳ	-5031
ÌƳȲƳŦȀ	-5032
Ôǟ	-5033
ĀƳÑȶ	-5034
ĨȲȶÑÑȶ	-5035
ƳƋĨÑÌ	-5036
ĨÑƳĨƋƳ	-5037
İDȲȶīĨ	-5038
ȶįÑȀƳįĨ	-5039
İuĥ	-5040
ĨƅȶİȲÑÌĨ	-5041
ơȀȲȲĨÌȶȲȍ	-5042
ǟȲƋ	-5043
İȲȐ	-5044
ÁİĥȶĨuǟ	-5045
Ŧǟį	-5046
ųȸ	-5047
ƖȶȲ	-5048
ȶÅ	-5049
ȀįŦĨD	-5050
ĨơȶDuȀÑȶ	-5051
ÁȶȶÑ	-5052
İȲȀİįĨ	-5053
ÑÌÁİ	-5054
Áİįįȶ	-5055
ĨƤÏ	-5056
ƅİį	-5057
ȲȶĨȀuĨ	-5058
ƳƋȀȲ	-5059
ǟuĨƳįĨ	-5060
ĨȀįÑƳĨİĨ	-5061
ȹȤ	-5062
ÑƦȍȶuĨ	-5063
ÔİǟȲ	-5064
İÑȀƳįuĨİ	-5065
uǐĨƯ	-5066
ȶĨȍƳơȶ	-5067
ȶęȍȲİȀįȶ	-5068
ĨȲİơ	-5069
ÑȀįŦĨİ	-5070
ȶęȀuÑȀįŦĨ	-5071
ÁȶįÑĨİį	-5072
ȶİȲİį	-5073
ÔƯǶ	-5074
İuuİ	-5075
ÑuĨơȀÑÌ	-5076
uȶÑ	-5077
ȶİĨ	-5078
ĨơȶĨÌİ	-5079
Ĩȍȶį	-5080
ȀŦȀįĨ	-5081
uīĨƋ	-5082
uĨDȶƋƳ	-5083
ĨuȀÁȍȲȶĨ	-5084
ųƳDȶ	-5085
ĨÑƳĨDȶ	-5086
ȶơȀuÌĨ	-5087
uĨÑƳĨİ	-5088
ƳƦȶ	-5089
ƳÁȀ	-5090
uĨǟuȶ	-5091
ȲƳƳĥȀįŦĨƋƳ	-5092
ȀuÑÁİ	-5093
ÑƳĨuÑİ	-5094
ĀİÑȀ	-5095
ĨȍƳȀįÑĨ	-5096
DȶİǟÑȀƋǟȲ	-5097
Ƴİu	-5098
uīĨİĨ	-5099
ȶĨİơİ	-5100
ƳuÑİ	-5101
ƦƳ	-5102
ÑƦȍȶ	-5103
Ȁuuǟȶ	-5104
ȶįÑuĨƳƋĨ	-5105
ȲİÁ	-5106
İȍÌȶ	-5107
ȶĨƳƋĨÑÌȀuĨ	-5108
ȶuÑuĨÑÌİÑĨ	-5109
ŦȲȶ	-5110
ȀȶÑƦ	-5111
İǟuȶĨÑÌȶƦĨ	-5112
ȶuȶįÑİÑȀ	-5113
ĨĀİÑȀƳįİȲĨ	-5114
ƦīĨDǟÑĨ	-5115
ĨȲİuÑĨ	-5116
Żėƥ	-5117
ĨuİƋȶ	-5118
İŎuĨ	-5119
tƤ	-5120
Ĩųȶİ	-5121
ȀįŦĨÑƳĨİĨ	-5122
ĨDȀȲȲȀƳį	-5123
ĨÌİȍȍ	-5124
ÌƳƳȲĨƳƋĨ	-5125
ȀľȶĨÑÌȶĨ	-5126
Ñǟu	-5127
ǗƯ	-5128
ȀįŦĨȍȶ	-5129
ǟÑȀȲȀľ	-5130
ÑȲƦ	-5131
ȶĨDƳ	-5132
ȶįÑĨƋƳ	-5133
ȶǡǟİȲ	-5134
ȶƋȀįȀÑȀƳįĨƳƋĨ	-5135
ÑÌİÑĨȀuĨ	-5136
ĨǡǟİȲȀÑƦĨ	-5137
ǟuĨÑƳĨ	-5138
ǗÔ	-5139
ȀÑĨƋƳ	-5140
ĨuÑİƋƋ	-5141
RİĥȶĨ	-5142
ǐĨƅİ	-5143
ĀǟÁDȶ	-5144
ÑÌİÑĨİ	-5145
ȸǟŦǟuÑĨ	-5146
ĨDȶuÑĨ	-5147
ƋİÁȀȲȀİ	-5148
ƳŦȶįĨ	-5149
ÑȀƳįĨƋ	-5150
ÑȀƋȀȶ	-5151
īĨuƳĨ	-5152
ȶŦȶįȶ	-5153
ĀȀ	-5154
ȶįÑĨȀįĨ	-5155
İȍÌƦĨ	-5156
įȶĨ	-5157
ĨÑÌȶĨįȶęÑĨ	-5158
ĨDƦĨȍ	-5159
ƨĨƅ	-5160
ĨİĨÁƳ	-5161
ƳÁȍİįȀȶuĨ	-5162
ĨơȶȀŦÌÑĨ	-5163
İįuÁȀÑÑȶ	-5164
ǟuȀįȶuu	-5165
ƤƳȲƳ	-5166
ƳȲȲǟ	-5167
ȶĨǟuǟİȲȲƦĨ	-5168
ÌȀįȶ	-5169
uǐĨýÌ	-5170
ǐȎż	-5171
ÑȀįĨ	-5172
İįĨȀ	-5173
ĨÑÌȶĨÁƳ	-5174
ȀuĨƳƋĨ	-5175
ȶĨįȶȶ	-5176
ƳįĨƦƳǟ	-5177
▁ȍİįȀuÌĨ	-5178
ƳĥȶĨ	-5179
uǐȎÔ	-5180
ÁȶįÑİȲĨ	-5181
ƦĨȍİ	-5182
ǟuuĨ	-5183
NįuÑȀÑǟÑȶĨ	-5184
uǐĨƅƳơȶ	-5185
ȶĨȀįĨİĨ	-5186
ȶuǐĨýÌȀuĨ	-5187
ĨȲİįŦǟİŦȶĨ	-5188
ĭǐ	-5189
Ǘǟ	-5190
ȶİÑÁȶįÑuĨ	-5191
Ǘǟu	-5192
ƋȀȲÁ	-5193
ĥȎ	-5194
ơİȲ	-5195
ǟȲİÑƳ	-5196
ȲȀƋȶĨİį	-5197
ĨųƳ	-5198
ĨƋǟȶȲ	-5199
ĨȀįĨƳǟ	-5200
ǐĨȸÑĨ	-5201
ȶȍÑÌ	-5202
ėȹ	-5203
żī	-5204
Ìİȍȶ	-5205
ÌÑÑȍǨÛÛơơơǐ	-5206
ȶuǟȲÑĨƳƋĨ	-5207
ÑȀƳįĨÑƳĨÑÌȶĨ	-5208
ȀuȍƳu	-5209
ÁİŦįȶÑȀ	-5210
ȶuȀŦįĨ	-5211
ĨÑÌƳuȶĨơÌƳĨ	-5212
ǐȎưƳǟ	-5213
ĨuİƋȶÑƦĨ	-5214
ȀȲĨȭİ	-5215
ĨİĨÁ	-5216
ȶÁƳį	-5217
īĨơÌİÑĨ	-5218
ĨƯİ	-5219
ȀľȶĨ	-5220
ĨƋİȀȲ	-5221
ȀuİDȀȲ	-5222
ĨÑƳĨÑÌȶȀ	-5223
uİƋ	-5224
İȲĨÔ	-5225
īĨÌƳơȶ	-5226
ĨÌİDȀÑ	-5227
ĥȀȲ	-5228
ÁȀįȀuÑȶ	-5229
ȲȀÁD	-5230
uİį	-5231
ÁİęȀÁǟÁ	-5232
ȃĨ	-5233
ȶĨƦȶİ	-5234
ĨȍuƦ	-5235
ȀÑȀȶuǐȎ	-5236
ĨuƳƋÑơİ	-5237
uƳÁȶÑÌȀįŦĨ	-5238
ȶǨȎȐĨ	-5239
uǐĨȸį	-5240
įŦȶ	-5241
ƳDÑİȀįȶ	-5242
NR	-5243
ȀįȀ	-5244
ÁƳȲ	-5245
ȶĨİDƳǟÑĨÑÌȶĨ	-5246
İȲĨơİ	-5247
ǐĨýÌȶĨİ	-5248
ĨİĨȍİ	-5249
ȎȲȲ	-5250
ĨDȀƳ	-5251
ƳįÑȀįǟȶĨ	-5252
ƳÁĨÑÌȀuĨ	-5253
ƋƳƳÑ	-5254
ǐȎýÌȶĨȍ	-5255
ÌȶuīĨ	-5256
įǟİȲĨ	-5257
ȀuįȎÑĨ	-5258
ȶįƳ	-5259
İƦȎuĨ	-5260
ÌƦȍȶ	-5261
ȀįuȍȀ	-5262
NįuÑȀÑǟÑȶĨƳƋĨ	-5263
ĥĨȀį	-5264
ȶuuȀDȲȶĨ	-5265
Ưȸ	-5266
ȶÁİȲȶĨ	-5267
ȶęÑȶįuȀ	-5268
ǐĨȸȲuƳ	-5269
ÁƳǟįÑİȀį	-5270
ȀİDȶÑȶuĨ	-5271
ĨȀƋĨƦƳǟ	-5272
İDuƳ	-5273
ĨuȶȶÁ	-5274
uĨȀįĨİĨ	-5275
uǐĨƖǟÑĨ	-5276
ÑİĥȶĨİĨ	-5277
uƳƳį	-5278
īĨȍİ	-5279
įĨÑÌȶĨ	-5280
īĨÌ	-5281
ȶĨȍȶƳȍȲȶĨ	-5282
ƳÁȀu	-5283
ƳįƳǟį	-5284
ĨơȀÑÌĨƦƳǟ	-5285
Àż	-5286
ȲƦĨȍ	-5287
ĨİuĨİį	-5288
▁ȍƳ	-5289
ÁƋǟȲ	-5290
ǗİįƦĨ	-5291
ƋİȀȲǟ	-5292
ȀÑȀƳįĨÑƳĨ	-5293
ǗİŦ	-5294
ĨİÑÑȶÁȍ	-5295
ÁȀȲȲȀƳį	-5296
öƳȀįÑĨ	-5297
uȀȲ	-5298
ǗİȲ	-5299
ĨćįŦȲȀuÌĨ	-5300
ȀȶuĨƳƋĨÑÌȶĨ	-5301
ÑȀįŦĨu	-5302
ĨÔƳ	-5303
uƳȲİ	-5304
ƳǟįŦ	-5305
İF	-5306
ľȀį	-5307
ȀįƳuİǟ	-5308
ĨƤÌȀį	-5309
uĨÑÌİÑĨÌİ	-5310
ĨƤÌİ	-5311
ÔÌ	-5312
ȶęİÁȍȲȶuĨ	-5313
ÏįȶĨ	-5314
ƦĨȸ	-5315
ĨƦ	-5316
İÑȶĨȍ	-5317
ƅȶį	-5318
řįƳơ	-5319
ÌĨŦ	-5320
▁ǟȍȶ	-5321
ÁİÑǟ	-5322
ÑÌȀįŦuĨ	-5323
ėű	-5324
ǐȎȎýÌȶĨ	-5325
ĨÑƳĨŦ	-5326
Ĩįİ	-5327
ƳÁĨƦƳǟ	-5328
Ôİȍȶ	-5329
řȀįŦĨ	-5330
ćİuÑȶ	-5331
ȶuÐ	-5332
ǐĨǶȀį	-5333
ĨÁİöƳ	-5334
uǨȎȐĨ	-5335
İȀŦÌÑĨ	-5336
ȀÑĨÑƳĨ	-5337
▁ĥ	-5338
ǐÁ	-5339
ÑĨƳƋĨİ	-5340
ƋȀȲȲȶ	-5341
ȍÌİDȶ	-5342
İįȐ	-5343
ÌȐ	-5344
ÌƳȲȀ	-5345
īĨǟį	-5346
ƳįĨȀuĨ	-5347
İȲuĨİį	-5348
ǨĨÅ	-5349
RƳǟ	-5350
ĥuĨƋƳ	-5351
İÑȶĨu	-5352
ćƤ	-5353
įȀįŦĨu	-5354
ȶuĨDƦĨ	-5355
ÌƳȲȶuÑȶ	-5356
ƳǟÑĨƳƋĨÑÌȶĨ	-5357
ĨÏǶ	-5358
ÌƳuÑĨ	-5359
ȶƨȎ	-5360
ƦĨuȶ	-5361
ƳÁÁƳ	-5362
ÑȀƳįĨƳ	-5363
ÁȀŦÌÑĨDȶĨ	-5364
ćĨ	-5365
ĨȍÌƳÑƳŦ	-5366
ĨÌƳȍ	-5367
ȀÁȶĨ	-5368
İȐ	-5369
ȍÌȶ	-5370
ȶƦȶ	-5371
ĨNĨ	-5372
İŦȶį	-5373
ȀDȲȶ	-5374
ÑÌƳǟŦÌĨÑÌȶĨ	-5375
ĨÑƳĨÁƳ	-5376
İįĨǟuȶĨ	-5377
řȶȶȍ	-5378
ȶĨÑÌȶĨİ	-5379
ȀÑȀƳįİȲ	-5380
ĨRȶ	-5381
ĨuÌƳơȶ	-5382
Ȳȶȶ	-5383
ĨƤÌȀȲ	-5384
RȀƋ	-5385
ȶÁİȀįȶ	-5386
ƳǟįÑİȀįĨ	-5387
ȶǐĨNį	-5388
ȀįĨŻȤ	-5389
ÅȎ	-5390
İįĨÑ	-5391
įİĨ	-5392
ƳÑȲİį	-5393
ȶȀįƋƳ	-5394
ȍǟÑ	-5395
ȀŦȀÑ	-5396
İÁȀȲƦĨ	-5397
ƦīĨơÌȀ	-5398
▁ƳȲİ	-5399
īĨÏ	-5400
ÀF	-5401
ƳĨƦƳǟĨ	-5402
ȀÑĨƳƋĨ	-5403
ĨÑÌȶĨȲİuÑĨ	-5404
ĨuÑİÑȶÁ	-5405
ȶįÑuĨơȀȲȲ	-5406
ȀuȎ	-5407
ųƳƦ	-5408
ȶĨuÌƳơį	-5409
ĨÑƳĨĥȶȶȍ	-5410
ȀįŦĨÑÌȶuȶĨ	-5411
ȶȍȶİÑȶ	-5412
İǐ	-5413
ȀįŦĨİuĨ	-5414
īĨȀƋ	-5415
ĨȍȲİƦ	-5416
ÑİįÑĨƋƳ	-5417
ĨơȀÑÌĨİį	-5418
ȀȍİÑȶĨ	-5419
ȶĨuÌƳơ	-5420
ĨƋȀįİį	-5421
ƤȲȀ	-5422
ŦȲǟ	-5423
ŦȶįÑ	-5424
ÁuīĨ	-5425
DȀİĨ	-5426
ĨȀįuÑȶİ	-5427
ǞȐ	-5428
ǟȀį	-5429
ĨƖȀ	-5430
▁ÌȀ	-5431
ÑȀÑȲȶĨ	-5432
ƳuÑȲƦĨ	-5433
İȲȲƦĨİ	-5434
īĨİuĨơȶȲȲĨİuĨ	-5435
ǟįȀÑ	-5436
ÑȀȲȶĨ	-5437
ĨÑȶȲȲ	-5438
ȀįĨÑÌȶĨơƳ	-5439
DȶŦİį	-5440
ȀȶįÑȀuÑĨ	-5441
ȶįŦİŦȶĨ	-5442
Àõ	-5443
ȲƳuȶĨ	-5444
ĨÑÌȶĨȍİuÑĨ	-5445
ĨRİį	-5446
ÑīĨDǟÑĨ	-5447
ƳǟŦÌĨİĨ	-5448
ĨƤƳį	-5449
įȶuuĨİį	-5450
ÁƳuÑȲƦĨ	-5451
Dȶį	-5452
ĨȍƳǟį	-5453
ȸȲȲ	-5454
İȎ	-5455
ƳǟDȲȶ	-5456
Ƴȍȶįȶ	-5457
ǐĨRȶİ	-5458
ȶĨuİƦ	-5459
Ĩuȶǡǟȶį	-5460
ȀǟÁĨ	-5461
İȀȲİDȲȶĨƋƳ	-5462
ƳȍÑȀ	-5463
ĀƳĨ	-5464
İįŎÑĨ	-5465
İÑȀƳįĨÑƳĨ	-5466
uĥȀį	-5467
ėǐ	-5468
İuÑİ	-5469
ȀuĨƋƳ	-5470
▁İȀį	-5471
ƯĨ	-5472
Ƥȸ	-5473
ȀuÁĨİį	-5474
īĨÌȶĨ	-5475
ĀÏ	-5476
İȍÑȶ	-5477
ȶİĥuĨ	-5478
İĨŦƳƳ	-5479
ÔÌƦuȀ	-5480
ÑȀÁȶĨƳƋĨ	-5481
ȍƳuuȀDȲȶĨÑƳĨ	-5482
ÑƳȲȶ	-5483
ơİį	-5484
ÌÑ	-5485
ǨĨÌÑÑȍǨÛÛ	-5486
uȀƳįĨƳƋĨÑÌȶĨ	-5487
ĨDȶƦƳį	-5488
uĨȀįÑƳĨ	-5489
ȶĨȸÁȶ	-5490
İĨƋƳ	-5491
ĨÁİįǟƋİ	-5492
ƳƳƋĨ	-5493
ŻĨİį	-5494
ĨƳȀȲ	-5495
ȶīĨȀį	-5496
ĨȲȀÁ	-5497
İuĨơȶȲȲ	-5498
uFĨ	-5499
ǐȎNÑĨȀuĨ	-5500
İľȀȲ	-5501
ÁİįȶįÑĨ	-5502
ĨŦİÁ	-5503
ÑuĨƳįĨ	-5504
ǐȎƅȶ	-5505
uȶȲƋȐ	-5506
ȲȶuǐȎ	-5507
ȀÑȀƳįĨİį	-5508
ƤİÑÌƳȲȀ	-5509
İȲÑÌƳǟŦÌ	-5510
ǨĨƯ	-5511
ĨÑÌȶĨuǟ	-5512
ƳŦǟ	-5513
ȲİuÌ	-5514
ÌƳuȍȀÑİȲ	-5515
İȲȀľȶ	-5516
Ĩýƅć	-5517
İȲīĨİį	-5518
ȶĨÑÌȶĨÁƳuÑĨ	-5519
żƥƥĭ	-5520
ǗÏ	-5521
ȲİuuȀƋȀ	-5522
ȍƳȀįÑȶ	-5523
ĥĨƤ	-5524
ÁİŦȶĨ	-5525
▁t	-5526
ÁİÑȀƳįĨƳįĨ	-5527
Nų	-5528
ÑƳĨÑÌȀuĨ	-5529
▁ȀȲ	-5530
ÁÁİȲ	-5531
ȶĨơȀ	-5532
İȲȲƦīĨÑÌȶĨ	-5533
ȍƳȶÁ	-5534
ȶuĨƳįĨÑÌȶĨ	-5535
īĨuİȀ	-5536
İÁuĨ	-5537
▁ȀÁ	-5538
İuȶuīĨ	-5539
ÑȶD	-5540
DȲƳŦ	-5541
ųȶȍƳ	-5542
ȍİÑȀȶįÑuĨ	-5543
ƳơÑÌĨ	-5544
ÅĨİį	-5545
ÁȶİįȀįŦ	-5546
ÑȀįŦīĨ	-5547
ȶįĨȀįĨ	-5548
▁ÌƳơ	-5549
ȶȲȶÁȶįÑĨ	-5550
ÌĨD	-5551
İȍȀÑİȲ	-5552
İȲuƳĨȍ	-5553
ĨuƳÁȶĨƳƋĨÑÌȶĨ	-5554
įƳu	-5555
ȀÑİÁȀį	-5556
ĥƳ	-5557
ȀÑÑȀįŦĨ	-5558
ƨĨȸ	-5559
ȶuuƋǟȲȲƦĨ	-5560
ȀÑÑȲȶĨ	-5561
RÏ	-5562
ȀįŦĨȍƳ	-5563
ȲǟÁ	-5564
ÑơƳȐ	-5565
İīĨİį	-5566
ĨȍȲİįÑuĨ	-5567
ÑF	-5568
ȀȶuĨȀį	-5569
ȶĨơİƦ	-5570
ĨƋİÑ	-5571
ĨuÑİÑǟ	-5572
ƳǟÑȍǟÑĨ	-5573
ĥīĨİį	-5574
Ñuǐ	-5575
ÑȀƳįĨȀį	-5576
ȶīĨİĨ	-5577
įȶȀŦÌDƳ	-5578
ȲİDȶȲ	-5579
ȀÑȶĨİį	-5580
DȶĨu	-5581
ȶľ	-5582
ȎȎȎ	-5583
Ĩę	-5584
uÁƳ	-5585
İÑȀƳįĨƳ	-5586
ÌƦÑÌ	-5587
ƳȲƋ	-5588
İȲȲȶȲ	-5589
ƤƳįÑ	-5590
ȶįŦÑÌĨ	-5591
ĨÁƳÑÌȶ	-5592
Ƌȶİ	-5593
ÑȶįuȀƳį	-5594
ȶįÑuĨȀįĨ	-5595
ȎȐĨýÌȶĨ	-5596
ŻȎ	-5597
ǡǟȶĨ	-5598
İȲĨƳƋĨÑÌȶĨ	-5599
ƦF	-5600
ȶuĨƦƳǟ	-5601
ǟuȀįŦĨİĨ	-5602
ǐĨćę	-5603
ǨȎýÌȶĨ	-5604
İȲȶįÑĨ	-5605
ĨİuĨİĨu	-5606
ƳįȶĨȀuĨ	-5607
ƦĨơƳ	-5608
ÌİÁDȶ	-5609
ÑȀƳįĨÑÌİÑĨ	-5610
ȶuĨİÑĨ	-5611
ĨŻȤȤ	-5612
įȶę	-5613
İǟÑƳ	-5614
İuÌȀ	-5615
Ǩƥƥ	-5616
Ĩuĥ	-5617
İȲuƳĨȀį	-5618
ȶÑīĨ	-5619
Ĩİȍ	-5620
ĨƳƋÑȶįĨ	-5621
Ƴơİ	-5622
ȶuȍȀÑȶĨ	-5623
ýÌȶƳ	-5624
ȶįÑĨÑÌȶĨ	-5625
ȭÌȶį	-5626
ƦĨȶ	-5627
ĥĨƋ	-5628
ȀįŦĨÌȀuĨ	-5629
ȶįÑuǐȎ	-5630
ƳÁÁȀuuȀƳį	-5631
İįįƳÑĨDȶĨ	-5632
ȶuÑĨƳƋĨ	-5633
ƳƋĨȍİ	-5634
ÀīĨ	-5635
ÑĨÑÌȶȀ	-5636
ÌįƳȲƳŦƦīĨ	-5637
ȶĨȀuĨįƳ	-5638
ĨÑÌȶĨȍȶ	-5639
Ȑƥ	-5640
ȶuĨƳį	-5641
ĨÑƳĨȀÁȍ	-5642
▁ƳǟÑÌĨȸƋ	-5643
ȲȀľİ	-5644
ơȀuȶĨ	-5645
ĨİĨuÑǟ	-5646
ȀȍȲȶuĨ	-5647
ȶįĨƋ	-5648
İȲȲĨƳƋĨÑÌȶĨ	-5649
ÑơȀ	-5650
ȀuuȀ	-5651
ƳÁȶĨÑƳĨ	-5652
İȲuīĨ	-5653
Ƴuȶȍ	-5654
uĨȲİÑȶ	-5655
NįĨÑÌȶĨ	-5656
ĨuÑƳȍ	-5657
ȀȶơĨƳƋĨÑÌȶĨ	-5658
ǨĨƖ	-5659
ǟDDȶ	-5660
ÑȀİȲĨ	-5661
ėĭ	-5662
ĨDȶÌȀį	-5663
İįĨDȶĨİ	-5664
ÁİÑȀƳįīĨ	-5665
ǟę	-5666
įȶǟÑ	-5667
ýÌǟ	-5668
İȍȍİ	-5669
NȲȲ	-5670
ĨȭȀȲ	-5671
ÌİȶȲ	-5672
ĨÑÌİÑĨÑÌȶ	-5673
įȶuuīĨ	-5674
ƳįƋȀŦǟ	-5675
İuÌĨ	-5676
ƋȲƳ	-5677
ȶDƳƳĥ	-5678
ȶĨȍǟ	-5679
ȀǟuĨ	-5680
ȶƋǟȲȲƦĨ	-5681
ÑȀuÑ	-5682
ȀÑÌÁ	-5683
RİįŦǟİŦȶĨ	-5684
ÌİįŦȶĨÑÌȶĨ	-5685
ȀÑƦĨȀįĨ	-5686
ȶĨÁǟ	-5687
İȲĨȍȶ	-5688
ÔƳơȶ	-5689
ĨȍÌƳÑƳ	-5690
ĨýƳ	-5691
ȶuȍƳįuȀDȀȲȀÑƦĨ	-5692
NįÑ	-5693
ĨŻŻ	-5694
ĨÁȶįÑİȲĨ	-5695
ÌȎ	-5696
ĨȶęȍƳuǟ	-5697
RİD	-5698
Ĩuǟu	-5699
ƋǟȶȲ	-5700
ÑǟÁƳ	-5701
ǐȎȸƋÑȶ	-5702
ĥįƳơįĨƋƳ	-5703
ÑĨƳƋĨu	-5704
ȀÑuĨȍ	-5705
ȶęÑȀį	-5706
DȶȲƳįŦ	-5707
ÑƦȍȶĨ	-5708
Ĩuȍȶį	-5709
İįĨÁİĥȶĨ	-5710
ȸȸ	-5711
ÌİȀį	-5712
ȶȲȲǟ	-5713
ĨİȲȲĨÑÌȶĨ	-5714
ÌȶȀŦÌÑĨ	-5715
ȲȀįȶİ	-5716
ĨÁƳD	-5717
uĨŦ	-5718
ÑÌƦ	-5719
ĨuİƋ	-5720
ĨuÌȶĨ	-5721
ƳĨȀuĨ	-5722
ȶÑȲİį	-5723
Ȥȹ	-5724
RȀÑȶ	-5725
RİÑȀįĨ	-5726
ŎĨ	-5727
ǐȎNįĨÑÌȶĨ	-5728
ȀŦįƳ	-5729
uĨơƳǟȲ	-5730
İƳ	-5731
įĨȀįĨ	-5732
ȶĨƳÑÌȶ	-5733
ĨƳƋĨÑÌȶȀ	-5734
ĥȀįŦĨİį	-5735
ȶęİÁȀįȶ	-5736
ƳDȶu	-5737
ȀÑȶĨİĨ	-5738
ȶĨƳǟÑĨ	-5739
ȶĨÑƳĨİ	-5740
ȶİȲȐ	-5741
ųȶƋȶ	-5742
İÑȶĨİ	-5743
ŦȶuĨƳƋĨ	-5744
ĨȀįÑƳĨİ	-5745
▁ýćǗ	-5746
ƳȲȶĨȀįĨ	-5747
İÑȶȲȲȀÑȶĨ	-5748
uƳįȎuĨ	-5749
ĨÑȀÁȶĨ	-5750
ȲȶƦĨ	-5751
ȶȍÑȶ	-5752
ĨÑƳĨǟuȶĨ	-5753
ĨȲȀĥȶĨÑƳĨ	-5754
ĨuĥȀį	-5755
żȎ	-5756
ǐȎȸuĨ	-5757
ǐĨư	-5758
ĨƤİįİ	-5759
ȀuȀÑȶ	-5760
DȀȲȀÑƦ	-5761
İȲuƳĨĥįƳơįĨİuĨ	-5762
ĨȀįĨÑÌȶĨtįȀÑȶ	-5763
İuĨȀÑĨ	-5764
ƳÁƳÑ	-5765
ȶƋİ	-5766
ÌƳƳuȶĨ	-5767
DİÁİ	-5768
ȀįŦĨȍȲİ	-5769
ĨDİÑÑȶ	-5770
żƥƥė	-5771
ĨȍƳÑȶįÑȀİȲĨ	-5772
ȶȲƦīĨ	-5773
ȶİÑȀƳį	-5774
ȀįŦĨÑȶ	-5775
ȶuuÁȶįÑ	-5776
įȀįŦĨÑƳĨ	-5777
ĨȍȲİuÑȀ	-5778
ȶÁȍÌİ	-5779
Ïę	-5780
ĨDİȲİį	-5781
ǟįȀǡǟȶĨ	-5782
ȲȀȶuÑĨ	-5783
ȀįŦuĨƳƋĨ	-5784
ȀįŦĨƳǟ	-5785
Ȳİȍ	-5786
ĨÑÌȀuĨȀuĨ	-5787
İÑȶŦƦĨ	-5788
ȶÁȍÌİu	-5789
ĨȶǡǟȀȍ	-5790
ćĀý	-5791
ƦĨÁƳ	-5792
ȶįÑĨu	-5793
ĭõ	-5794
öƳȀįȶ	-5795
ȶİDȲȶĨ	-5796
įȀįŦĨÑÌȶĨ	-5797
ĨRƳ	-5798
ȶuƳȲ	-5799
ĨDȶĨÑÌȶĨ	-5800
uÑİÑǟ	-5801
ĨÌİuĨDȶȶįĨ	-5802
ƦƳǟĨơȀȲȲ	-5803
ȶȲȀȶ	-5804
űǐ	-5805
ÑȀuÑĨ	-5806
ĨÁȀįȶ	-5807
įİȀȲ	-5808
ĨÑƳĨơƳ	-5809
ȸǟ	-5810
ÌİD	-5811
ȶİuȶĨ	-5812
▁ȍȀ	-5813
ȀŦÌÑĨÑƳĨ	-5814
uǐĨć	-5815
ÔƤ	-5816
ĨƤȶįÑȶ	-5817
NȎ	-5818
ƳuÑuĨ	-5819
ĨĥįƳơ	-5820
ǟuȶĨİį	-5821
ȶuīĨƳ	-5822
İįįȶ	-5823
İÁȶįÑİȲĨ	-5824
ƳÁĨȸ	-5825
ȶęȍȲİį	-5826
ŻƥĨ	-5827
ȍƳȲȀ	-5828
Rȶuu	-5829
ȶįĨƳ	-5830
ȶİuĨİį	-5831
İÑȀƳįĨİ	-5832
ĨȲƳơȶ	-5833
ÑȀȲȀľȶ	-5834
ơȶDuȀÑȶ	-5835
▁ơ	-5836
ƳȍƳȲ	-5837
ǐĨųȶİ	-5838
ĨÁİŦ	-5839
ǐȎǗƳ	-5840
ƳįuÑȶ	-5841
İuĨÑÌȶƦĨ	-5842
ȶuīĨuǟ	-5843
ĨuƳȲǟÑȀƳį	-5844
▁Ȁų	-5845
ĨÔȲİį	-5846
ĨuȶÑĨƳƋĨ	-5847
ÁȲ	-5848
İȲȲƦĨİį	-5849
ÌƳįƳ	-5850
ȶȲȶÁȶįÑ	-5851
ĨÑİĥ	-5852
ĨȀuuǟ	-5853
İuīĨ	-5854
ȶįĨÑÌ	-5855
ǐȎƅƳơ	-5856
İÑȶĨƋƳ	-5857
ȶįĨƋƳ	-5858
ÑÌȀįŦĨÑÌİÑĨ	-5859
ƤƳįƋȶ	-5860
ȶuĨÑƳĨÑÌȶĨ	-5861
Ñľ	-5862
ȐŻ	-5863
ȀįŦĨȍȲİį	-5864
ÑÁȶįÑ	-5865
NǗ	-5866
ȶĨȀuĨįƳÑĨ	-5867
ŦȀįĨ	-5868
ƳÑȶȀįĨ	-5869
ĨİDuƳ	-5870
İȲĨÁƳ	-5871
ȶįĨÌİ	-5872
ĆȶƳŦ	-5873
ÑȶĨu	-5874
ȶĨƋƳƳ	-5875
ĨįİÑȀƳį	-5876
ĥĨǟȍ	-5877
ȀȶuĨȱ	-5878
ȶęȀuÑ	-5879
ĨǗƳį	-5880
ȍȲİƦ	-5881
ȀįŦĨİȍȍ	-5882
ȶȶȍȶ	-5883
Ìİȍȍȶįȶ	-5884
ÌȀÁuȶȲƋ	-5885
ŦȶÑÑ	-5886
ĨİȲȲƳơ	-5887
ȶĨÌȀuĨ	-5888
ĨİĨuÁİȲȲ	-5889
ĨȍƳƳ	-5890
uĨÔ	-5891
ĨŦǟ	-5892
ȶĨȀÑ	-5893
ơƳį	-5894
İÑȀƳįȎ	-5895
İįĨƋȀį	-5896
İȲƦľȶ	-5897
ƳǟuĨİį	-5898
řȶ	-5899
ȲƳƦ	-5900
ĨÁİu	-5901
ȀŦƳ	-5902
ȀįŦĨİÑĨÑÌȶĨ	-5903
İȲĨŦƳ	-5904
ƳįuȀuÑuĨƳƋĨ	-5905
ǐĨNÑŎuĨ	-5906
ơÌƳȲȶĨ	-5907
ơÌİÑĨȀuĨ	-5908
İȲÑÌƳǟŦÌĨ	-5909
ĨȍİŦȶ	-5910
ȍİuu	-5911
uĨƤ	-5912
DİÑÑȶ	-5913
ĨÑÌȶĨȍİ	-5914
ƳįȶĨu	-5915
uĨơȀȲȲĨ	-5916
ÌȶȲȍĨƦƳǟ	-5917
ĨÁȀȲȀÑİ	-5918
ÑǟD	-5919
uǟu	-5920
ǐȎȭȀÑÌ	-5921
ĨİȲÑȶ	-5922
ĨƳƋĨƦƳǟ	-5923
ƦĨİÑĨ	-5924
DȀƳȲƳŦȀ	-5925
ƦǐĨȸ	-5926
ȶÛ	-5927
ĨÑÌǟuĨ	-5928
ȶĨƳƋĨƦƳǟ	-5929
ĨơİȲ	-5930
uƳĨÑÌİÑĨ	-5931
ĨİȲÁƳuÑĨ	-5932
Āć	-5933
İȲȲĨƳ	-5934
▁ǟȍȍƳ	-5935
İĨÔ	-5936
uǐĨǶ	-5937
ǐȸ	-5938
ÁĨÑÌȶĨ	-5939
ÑƳĨȍȶ	-5940
ȶĨÁƳuÑĨ	-5941
ĨÑİĥȶĨ	-5942
ȸÑȲİįÑȀ	-5943
ĨÑƳĨÑÌȀuĨ	-5944
ĥuĨƳƋĨ	-5945
ƳȲȶĨƳƋĨ	-5946
ƋȀDȶ	-5947
ÌİDȀÑİÑĨ	-5948
ÑÌĨƤ	-5949
ȶuȀȲ	-5950
ƦƳǟĨuÌƳǟȲ	-5951
ƳǟŦÌÑĨÑƳĨ	-5952
řȶį	-5953
ȀȶÑİ	-5954
ȶƨ	-5955
ĨǗİƦĨ	-5956
ƳǟÑD	-5957
ȀÑĨÑÌȶĨ	-5958
ȐŻż	-5959
ĨȀįuÑȀÑǟ	-5960
Ñİĥȶ	-5961
▁ȀȸĨ	-5962
ȶȲuȶ	-5963
İŦȶīĨ	-5964
ƳįƳÁȶ	-5965
ĨȀÑȎuĨ	-5966
īĨȍȲȶİuȶĨ	-5967
ȀȶuĨƋ	-5968
ȲȀįĥuĨ	-5969
ĨÑÌȶĨȍȲİį	-5970
ȶĨȀÑĨȀuĨ	-5971
ÑĨÑƳĨÑÌȶĨ	-5972
ȀÑȀƳįĨƳƋĨÑÌȶĨ	-5973
ƳÁȶĨİĨ	-5974
ȶęȀuÑȶį	-5975
ƋƋƳ	-5976
uȀįŦĨ	-5977
ȶįuȀÑƦĨ	-5978
ĨDȀȲȲȀƳįĨ	-5979
ƤİȲ	-5980
ȶȲuīĨ	-5981
ĆƳȲ	-5982
Ǘȶİį	-5983
ȶįÑĨȀį	-5984
ĨRȀ	-5985
Ĩľ	-5986
İȲŦƳ	-5987
uƦȲ	-5988
ȶįÑuĨÌİ	-5989
ŦƳȀįŦĨÑƳĨ	-5990
ĨÁƳÑƳ	-5991
ƖǗ	-5992
ĨİŦȶĨ	-5993
ǐĨǐĨ	-5994
ƳƋĨuÑ	-5995
ȶįĨơȀÑÌ	-5996
İįĥĨ	-5997
ÑÌƳuȶĨ	-5998
ƦĨuƳǟ	-5999
ȲƦīĨÑÌȶĨ	-6000
ǐĨĀƳơ	-6001
ĨȶįöƳ	-6002
ȶȲƳȍÁȶįÑĨİį	-6003
ĨÑÌƳuȶĨơÌƳ	-6004
ȀȲȀÑƦ	-6005
ĨDǟuȀįȶuuĨ	-6006
ƳÁƳÑȶ	-6007
Ȥű	-6008
ÌȶȀÁȶ	-6009
ȶĨDȶƋƳ	-6010
ƋȀŦÌÑĨ	-6011
ÁǟȲÑȀȍ	-6012
ĨuÑİÑȀuÑȀ	-6013
İȲǟȶĨƳƋĨ	-6014
ȶÑÌȀ	-6015
ÌȀįŦĨİį	-6016
ȲǟŦ	-6017
ĨÌȀ	-6018
ĨÁİƦĨÌİ	-6019
ýÌİÑĨ	-6020
ŦİȀįĨ	-6021
ƳuuȐ	-6022
uİƋȶ	-6023
uĨȐĨ	-6024
řȶƦ	-6025
ÀŻ	-6026
Nȸ	-6027
İÑuĨ	-6028
DȀŦŦȶuÑĨ	-6029
ȲȀĥȶĨİĨ	-6030
FīĨÑÌȶĨ	-6031
ȶǐŦǐĨ	-6032
Ȏȸį	-6033
ȀuÑĨİį	-6034
ĨȀuĨÑÌİÑĨ	-6035
ĨƋȶÁİȲ	-6036
ȲȀįȶuĨ	-6037
ÑÌȀu	-6038
NÁȍ	-6039
İÑȀƳįǨĨ	-6040
ȶĨÏ	-6041
ȀľƳįÑ	-6042
ÑƳȍĨƳƋĨÑÌȶĨ	-6043
ÑİȀįȲƦĨ	-6044
ĥu	-6045
ȶİÑȲƦĨ	-6046
Ȑȶ	-6047
ĨȲİƦȶ	-6048
ȶuȀŦįĨİį	-6049
İÑȶǨĨ	-6050
ƅȀŦÌĨ	-6051
ȶȶĨƳƋĨ	-6052
Ȁuİȍȍȶİ	-6053
ȀuĥĨƋƳ	-6054
ÑƳĨȍİ	-6055
ÌȀįŦĨÑÌȶĨ	-6056
uĨD	-6057
ȲȶŦİȲĨ	-6058
ĨÑÌȶĨȲİ	-6059
ĨơİuÑȶĨ	-6060
ǐĨNįĨƋİ	-6061
ĨȀįĨÌȀuĨ	-6062
ơȀÑÌȀįĨÑÌȶĨ	-6063
ȶĨơȀÑÌƳǟÑĨ	-6064
ÑȀƳįǐȎ	-6065
ĨuÌȀ	-6066
ȀȍȲȶĨ	-6067
uǟŦŦȶuÑĨ	-6068
ĨơÌƳȲ	-6069
ƳįĨƳƋĨ	-6070
Ƥİȍ	-6071
ÑƳĨuǟȍȍƳ	-6072
ȀİĨİ	-6073
ȲȀįĨ	-6074
İȲƦÑȀ	-6075
ÁȶȲȲ	-6076
ĆƳƳ	-6077
ȭȀĥȀȍȶ	-6078
uǐĨȸȲ	-6079
ȹĨ	-6080
uƳȲǟÑȀƳį	-6081
uĨįȶȶ	-6082
ȶįĨȀƋ	-6083
ÑȀƳįĨƳƋĨu	-6084
ȀÑȀȶuĨƳƋĨ	-6085
ƳƋĨȍȶ	-6086
Ǘİȍ	-6087
ĨȀįĨƖ	-6088
ȹƥƥ	-6089
ĨȶƋƋƳ	-6090
ŻǐĨ	-6091
uÑİÑȶÁ	-6092
ȀİÑȀƳįĨ	-6093
ȶȲȀȶƋ	-6094
ÑƳĨuǟ	-6095
ÌİȍuĨ	-6096
ǡǟȀÑƳ	-6097
ȶȍÑƳ	-6098
ȶuuĨȀuĨ	-6099
ƦĨȀÁȍƳ	-6100
uÑƳįȶĨ	-6101
ȹǐ	-6102
İÑȀƳįǐ	-6103
ĨÌƳǟu	-6104
ĨƳƋĨȸ	-6105
ýÌƳÁİuĨ	-6106
İÑȀƳįuǐȎ	-6107
İȍƦĨ	-6108
ĨȶįŦȀįȶȶ	-6109
ƅǟį	-6110
ÌȀŦÌĨu	-6111
ÌȶuĨİį	-6112
ȀDȶuĨ	-6113
ƦȲȀį	-6114
uȶįÑȶį	-6115
ƳįÑİȀįȀįŦĨ	-6116
DȶȲȀȶƋ	-6117
ƳƳĥȀįŦĨ	-6118
ĭƥƥ	-6119
ȲȶįÑ	-6120
ĨȶęȍȲİȀį	-6121
ǰǟȶuÑȀƳį	-6122
ǐĨýÌȶĨƋȀ	-6123
ȀİÁ	-6124
ȶÑȎuĨ	-6125
ȶŦȀƳįİȲĨ	-6126
ĨÑƳĨȶ	-6127
ȍƳuÑȶ	-6128
ÑuǐĨýÌȶĨ	-6129
▁ÑİÑȶĨtįȀ	-6130
ȀİȲĨİ	-6131
ÑİÑȀ	-6132
ÑǟİȲ	-6133
ĨÑƳĨĥįƳơ	-6134
īĨȶuȍȶ	-6135
İȲuƳĨÌİ	-6136
ƳȶuĨÑÌȶĨ	-6137
Ʀİį	-6138
ýÌȀuĨȀuĨ	-6139
ȐȲȀĥȶĨ	-6140
İDȀ	-6141
ȲȶęȀ	-6142
ĨÁǟȲÑȀ	-6143
ĨÌİuĨİĨ	-6144
ǐĨȸÑĨÑÌȶĨ	-6145
ȶơİ	-6146
ĨƅȶİȲÑÌ	-6147
▁Ȁȸį	-6148
ƅƯ	-6149
ȶįÑĨȀuĨ	-6150
ĀİÑȀƳįİȲĨÔİ	-6151
ƋȲȀ	-6152
İįĨȀįÑȶ	-6153
Ŧİȍ	-6154
īĨǗİ	-6155
ĨDȶĨu	-6156
ĨÁȀę	-6157
įĨÌƳơĨÑƳĨ	-6158
ƅȀŦÌ	-6159
ȀÁȶįÑİȲĨ	-6160
ơȶȲȲȐ	-6161
ŦȲƳ	-6162
ȀuȀÑĨÑÌȶĨ	-6163
ȀÑuĨİ	-6164
ĥĨȀįĨÑÌȶĨ	-6165
ȶÁȶįÑİ	-6166
ĨİįƦĨƳÑÌȶ	-6167
ȲȀŦ	-6168
ȀÁȍİȀ	-6169
uÑƳȍ	-6170
ǐȎõ	-6171
ƋƳuuȀȲ	-6172
ȶǡǟȀȍÁȶįÑĨ	-6173
uƦÁDƳȲ	-6174
ĨȀįįƳ	-6175
ǐĨNƋĨÑÌȶĨ	-6176
ƦƳǟŎ	-6177
Ȳǟį	-6178
ĨÁȶuu	-6179
ƳuÑĨƳƋĨ	-6180
ĨơȀÑÌȀįĨ	-6181
▁ȶȶ	-6182
ƳİÑ	-6183
ȶŦį	-6184
Ĩȍİu	-6185
űĨ	-6186
ȶįÑuǐĨ	-6187
ơȶİȲ	-6188
ȶuǟȲÑĨ	-6189
ŦȲȶĨ	-6190
İDȀȲȀÑƦĨƳƋĨ	-6191
DȶįȶƋȀÑ	-6192
uİƦĨ	-6193
ȲƳƳĥĨİÑĨÑÌȶĨ	-6194
ǟuÌȶ	-6195
ĨÌȶȲ	-6196
DȲȶīĨ	-6197
ǐFȎ	-6198
ĨÌƳǟuȶ	-6199
ƳÁİȀį	-6200
ȶİĨİį	-6201
ĨöƳD	-6202
NŎ	-6203
ȲȀÁİÑ	-6204
ȶİÑȶįȶ	-6205
ǐȎȭÌȶįĨ	-6206
ȶİuīĨ	-6207
ĨȲƳơ	-6208
ǐĨÔİ	-6209
ȸƖ	-6210
ÑȶÁȍȲİ	-6211
ȀƳįȶȶ	-6212
Ȳȶęİį	-6213
ĨƋȶȶÑ	-6214
ĨuȀȲ	-6215
ȶȍÑuĨ	-6216
ĨÑÌȶĨuİÁ	-6217
ȀȍİÑȶ	-6218
ȶĨuƦÁȍÑƳÁ	-6219
İƋȶ	-6220
ÑƳĨuÑǟ	-6221
ȀįŦĨİįĨ	-6222
ȶI	-6223
ơȀÑÌĨİ	-6224
ȶĨȀįÑƳĨ	-6225
ȀÑȶuĨ	-6226
ĨÁȀŦ	-6227
ƳȲǟÑȀƳįuĨ	-6228
ƳÁİįĨ	-6229
ƯÔ	-6230
ǟÁuÑİį	-6231
İÁȍȲȶ	-6232
ÑuĨƳįĨÑÌȶĨ	-6233
uȶĨȀuĨ	-6234
ȶÁȶĨ	-6235
ÑÌȶĨƋȀ	-6236
īĨįƳÑĨ	-6237
īĨuȶ	-6238
ŻȤÑÌĨ	-6239
ǟȲÑȀÁİÑȶ	-6240
ȀŦįÁȶįÑĨ	-6241
ȱuF	-6242
ĨÁǟuÑĨDȶĨ	-6243
İȀÁ	-6244
İǟÁİ	-6245
ȹĭ	-6246
ĨÁȀȲȶuĨ	-6247
ľÌȶȀÁȶ	-6248
ȀįŦĨȀÑuĨ	-6249
ȶuuİƦ	-6250
įȶơuȍİȍȶ	-6251
ƳơįĨİį	-6252
Āǟ	-6253
ƳİÑĨ	-6254
ȎǶƳ	-6255
ĨuȶįuƳ	-6256
ÌĨȀuĨÑÌȶĨ	-6257
uȎĨ	-6258
ĨȶȀÑÌȶ	-6259
ȍȶƳȍȲȶĨİ	-6260
ĨǟȍĨÑƳĨ	-6261
ĨDȶŦİį	-6262
ĨÁÁ	-6263
ĨȲȀŦÌÑĨ	-6264
űż	-6265
uȶę	-6266
İŦŦ	-6267
ǐĨNƋĨƦƳǟĨ	-6268
ƖƦĨ	-6269
ȶȶĨÑƳĨ	-6270
İÑİĨİį	-6271
ĨƦƳǟĨİ	-6272
ȶȲȲǟȲİ	-6273
ȶĨİD	-6274
ȶĨȍƳȍǟȲİ	-6275
ƳȀįĨ	-6276
ȸǟÑÌƳ	-6277
ĨuǟȍȍȲƦĨ	-6278
öȀ	-6279
īĨDƦĨ	-6280
ȶÁȍȶ	-6281
ɁĨ	-6282
ƳįuȀuÑuĨ	-6283
ĨơȶȲ	-6284
uFīĨ	-6285
ȶĨȲȀĥȶȲƦĨ	-6286
ǐȎȐĨƤ	-6287
ƳuĨ	-6288
ĨơÌİÑĨȀuĨ	-6289
ĨİuĨȍİ	-6290
ŦȶuīĨ	-6291
NƯȐŻȤ	-6292
Ǘȸ	-6293
İơİƦĨ	-6294
ǟįĥįƳơį	-6295
ȀİĨȱ	-6296
ĨİÑÑ	-6297
ȶĨuÌƳ	-6298
ÌįƳȲƳŦƦ	-6299
ĨÑÌȶĨuÑƳ	-6300
ȶĨuȀŦįȀƋȀ	-6301
FǐȎýÌȶĨ	-6302
ȶuĨơÌȀ	-6303
ĨȶŦŦ	-6304
ƳơȲ	-6305
ȶĨDǟÑĨ	-6306
ĨȀįĨƋ	-6307
ĨÑƳĨơ	-6308
ơȶȎ	-6309
Ĩưȶİ	-6310
ÁȀȲȲ	-6311
ĀȶÑơƳ	-6312
ÌĨuÑǟ	-6313
įÁȶįÑuĨ	-6314
ÁƳƳį	-6315
Ȑõ	-6316
ƋȀįİȲĨ	-6317
ȭİuÌȀįŦÑƳįĨ	-6318
ƳÁȍƳuȀÑȀƳį	-6319
ƳƋȐ	-6320
ȎȐĨƯ	-6321
ƳƳĥȶ	-6322
īĨȀįĨÑÌȶĨ	-6323
żį	-6324
ƋİÑ	-6325
ƋǟȲȲĨ	-6326
ĨDȶȲȀȶƋ	-6327
Ȁuİ	-6328
ÁȶįÑȀƳįȶ	-6329
ÑĨİuĨ	-6330
ȀįŦǨĨ	-6331
ƳĨȱ	-6332
ĨŻÀ	-6333
ƳȲÑİŦȶĨ	-6334
ǐĨƖǟ	-6335
ĨDȶįȶƋȀ	-6336
ȶęȀuÑĨ	-6337
ǐĨýÌȀuĨȍ	-6338
ȶuƳȲǟÑȀƳį	-6339
ƳįÑȀįǟƳǟuĨ	-6340
ȀȶuĨȀįĨÑÌȶĨ	-6341
ȍƳuȶ	-6342
ÌĨơȀȲȲ	-6343
Ĩȸȍȍ	-6344
ƳįuƳ	-6345
ĥǐ	-6346
ǐĨȸuĨİĨ	-6347
ŦȶD	-6348
ÑȀƳįȎ	-6349
żƥÑÌĨ	-6350
İÑȶĨÑƳĨ	-6351
ÌİȲȲȶįŦȶ	-6352
ȶįÑȀƋƦĨÑÌȶĨ	-6353
ǟuĨȱ	-6354
FǨĨ	-6355
ĨȶįƳǟŦÌ	-6356
ȀȲȀÑȀȶuĨ	-6357
īĨơȀÑÌĨ	-6358
ȶĨȶįȶ	-6359
ȶįŎÑĨ	-6360
ȀİȲȀľȶ	-6361
İȲĨuÑǟ	-6362
ƳǟįÑȀįŦĨ	-6363
ýơ	-6364
ǟȍĨ	-6365
Ćć	-6366
ÑĨÔ	-6367
İĨƤ	-6368
ĨÑƳį	-6369
ÁİĥȶĨȀÑĨ	-6370
ÑİÑƳ	-6371
ơİįÑĨ	-6372
ĨÑÌȶĨƋƳ	-6373
ĨÁȀuuȀƳį	-6374
RİuÑĨ	-6375
ĨƤƳǟįÑ	-6376
ȀİȲĨÁȶ	-6377
ȶuǐȎȸ	-6378
ȶuǐĨNį	-6379
ĨƳǟÑĨƳƋĨ	-6380
ȲİȀ	-6381
ÌįƳȲƳŦȀ	-6382
ȀŦÌÑȀįŦĨ	-6383
ȭÌİÑĨȀuĨ	-6384
ƅȶȲȍ	-6385
ȍİį	-6386
ĨÑÌȶuȶĨİ	-6387
ƳęƦŦȶį	-6388
ÁȶİįuĨÑÌİÑĨ	-6389
ÏǟÑ	-6390
ÌƳơĨÁǟ	-6391
ƳÁÁȀÑ	-6392
ĨÑƳĨİuĨ	-6393
İĨuÁİȲȲ	-6394
ǗȀu	-6395
ĨȲȀD	-6396
ƋȲİŦ	-6397
ȀįȐ	-6398
ĥȲȶĨ	-6399
▁İƋȶÑƦĨ	-6400
ȶuǟȲÑȶ	-6401
ǟÁȶįÑİ	-6402
īĨȭ	-6403
ȶĨİĨƋȶơ	-6404
ǐȎȭÌȶį	-6405
ÑȀŦÌ	-6406
ĨİȍȍȲƦĨ	-6407
ƦĨuƦuÑȶÁ	-6408
ĨȀįĨÁİįƦĨ	-6409
īĨȲȶİ	-6410
ȲƳuuĨƳƋĨ	-6411
ĨȶįÑȶ	-6412
uĨuȶ	-6413
ȶȲuĨİį	-6414
ȶĨȀįĨİ	-6415
ȶĨDİuȶ	-6416
ƯȀuÑ	-6417
īĨȶÑ	-6418
ȀÑÑȶįĨDƦĨ	-6419
ƳƋĨȍȶƳȍȲȶĨ	-6420
ȹű	-6421
İȲuƳĨİ	-6422
ĆȶÑĨ	-6423
İƦŎuĨ	-6424
ȲİuuȀƋȀȶ	-6425
ƳįĨu	-6426
uǟƋƋȀ	-6427
ȶĨİuu	-6428
ŦƦĨİį	-6429
ǗȶÑÌƳ	-6430
ȶȶƋ	-6431
ŻuÑĨ	-6432
İǟuȀįŦĨ	-6433
ȶĨR	-6434
ȲƦÁȍ	-6435
ȶİuȶĨȀįĨ	-6436
ƋȶÁİȲ	-6437
ȶȲȶŦ	-6438
ǟŦŦȲȶĨ	-6439
İįuȲİÑȶ	-6440
ȀȐ	-6441
ƦĨȍȶ	-6442
ĨİĨįǟÁDȶ	-6443
▁ƳÁȶĨƳƋĨÑÌȶĨ	-6444
ÑȀƳįuǐȎ	-6445
Żȹƥ	-6446
ĨǗȶęȀ	-6447
İÑÑȲȶ	-6448
ǟȀÑuĨ	-6449
ȀįŦīĨÑÌȶĨ	-6450
ĨƋȀįŦȶ	-6451
öǟȀ	-6452
ėõ	-6453
▁Ȑ	-6454
ĨuƳÁȶƳįȶĨ	-6455
ĥȶuĨ	-6456
įŦȶȲ	-6457
ÁȀįȀÁǟÁ	-6458
İįÑÌ	-6459
įƳÑ	-6460
ƳįuÑİįÑĨ	-6461
ÑȀƳįĨȀįĨÑÌȶĨ	-6462
ƳȲȲİȍ	-6463
ƳÁĨƳÑÌȶ	-6464
DǟȲİ	-6465
ǟuÌĨ	-6466
ćć	-6467
ƅÔ	-6468
Ĩįȶǟ	-6469
ĥİĨ	-6470
ÑǟDȶ	-6471
uİÑȀƳį	-6472
ǡǟȶuÑȀƳįĨ	-6473
İuĨİį	-6474
ĨİĨuÑİ	-6475
ƳÁDȀįİÑȀƳįĨƳƋĨ	-6476
uĨDǟÑĨ	-6477
ÑȶÁĨ	-6478
ȶĨDȀ	-6479
NÏ	-6480
İȀįĨİį	-6481
ȀuȍȲİƦĨ	-6482
ȶĨuȍİ	-6483
İuȶĨƳƋĨ	-6484
ĨNĀ	-6485
NǶ	-6486
ȶĨƋȶ	-6487
▁ǟȍ	-6488
ȶĨǟu	-6489
įȶƦ	-6490
ȶȲÑĨ	-6491
uǐĨNƋ	-6492
ƳȍÌȶ	-6493
uĨÁİ	-6494
ĨÑƳĨȶį	-6495
ÑƦȲȶ	-6496
ĨȸÑ	-6497
ĨİuĨÑÌȶƦĨ	-6498
ȀÑǟİȲ	-6499
Ĩơİu	-6500
ĨȶęİÁȀį	-6501
ĨNuȲİį	-6502
ćÁȍȀ	-6503
İįuīĨ	-6504
ȶuǨȎ	-6505
ĨİuÑ	-6506
uīĨÑÌȶƦĨ	-6507
ƦuÑȶÁİÑȀ	-6508
ȶĨİŦİȀįuÑĨ	-6509
ƋȲƦĨ	-6510
ǟȍĨİį	-6511
ĨÑƳĨuÑİ	-6512
ĨȍİÑ	-6513
ƳƋĨuƳ	-6514
ȀįįƳ	-6515
ȲȀƋȶu	-6516
ÁǟȲ	-6517
ýÌȶuȶĨİ	-6518
ÑȀƳįĨİ	-6519
ƳÁȶuĨÑƳĨ	-6520
▁ÑİÑȀuÑȀ	-6521
ĨÑƳĨƳ	-6522
ȶuīĨȍ	-6523
įȀįŦĨİ	-6524
İȶ	-6525
uȲȶȶȍ	-6526
ȶȍȲȀ	-6527
īĨuƳÁȶĨ	-6528
ĨÑƳĨƳÑÌȶ	-6529
ėÀ	-6530
ƋȀȲÑȶ	-6531
ȀuȶİuȶĨİį	-6532
ƯÏ	-6533
Ɩİu	-6534
DȀȲȀÑȀȶuĨ	-6535
ÁƦuÑȶ	-6536
ćt	-6537
ĭż	-6538
ľƳ	-6539
ƯİÑİ	-6540
uǐĨÏį	-6541
ĨÑÌȶĨDƳ	-6542
ĥȍȲİ	-6543
ĨÑÌİÑĨơİuĨ	-6544
ĨÁƳǟÑÌ	-6545
ȶŎ	-6546
ȶĨơÌȶÑÌȶ	-6547
ĨǡǟȶuÑȀƳįuĨ	-6548
Ĩýǟ	-6549
ȶĨȀįÑ	-6550
ȶĨȍȀ	-6551
ÑȀƳǟuĨ	-6552
ĨćįŦȲȀuÌ	-6553
ĨŻõ	-6554
İÑȀƳįǐȎ	-6555
ƳuȍȀÑİȲ	-6556
DǟÑÑ	-6557
NuĨ	-6558
ȶĨơȶȲȲ	-6559
ÌƳƳȲĨİį	-6560
ȶįÑuĨÑÌİÑĨ	-6561
ȀÑuĨƳơį	-6562
İÑȶȲ	-6563
ƳǟȍĨ	-6564
İȲĨÑȶ	-6565
ǐȎȐĨÔ	-6566
İuĨơȶȲȲĨİuĨÑÌȶĨ	-6567
ȐȲȶ	-6568
ÁİįİŦȶĨ	-6569
ĨuȀÁȍȲƦĨ	-6570
ÑƳÑİȲ	-6571
ÑİĥȶĨÑÌȶĨ	-6572
ȲƦĨÑÌ	-6573
ĨİuuȶuuÁȶįÑĨ	-6574
ȀİȲuĨİį	-6575
ÌÑÑȍuǨÛÛ	-6576
ÑƳįȀ	-6577
ĨÑÌȀuĨƦȶİ	-6578
ýƦȍ	-6579
ȶĨơȀÑÌĨİĨ	-6580
ƳįȶĨİį	-6581
İǐĨ	-6582
ĨơƳÁİį	-6583
ȶǐĨNÑĨ	-6584
Ñȶįİį	-6585
ȶÁİȀįĨ	-6586
Ȁľľ	-6587
ÑÌȎuĨ	-6588
ȶƋǟŦȶ	-6589
▁Ĩİį	-6590
ÁȶįÑĨƳƋĨ	-6591
uȎȸ	-6592
ÌȀÑ	-6593
Ĩėƥ	-6594
ȀİȲĨu	-6595
ÑİȲȲ	-6596
ȐĨİį	-6597
ǐĨƅƳơ	-6598
ȶİȲȀľ	-6599
ȶȶÁȶįÑĨ	-6600
ǟȲİÑȶĨÑÌȶĨ	-6601
ĥȀÑ	-6602
İįĨŦȶÑĨ	-6603
ǐĨýÌȶĨu	-6604
İȲȎ	-6605
ǟuĨȀuĨ	-6606
ĨƳįĨÑÌȶȀ	-6607
ȀȶįÑȀuÑuĨÌİ	-6608
ƅǟÁİįĨ	-6609
ƋȀuÌĨ	-6610
ęȀȶÑ	-6611
Ĩȍȶȶ	-6612
ȀÑȀİÑȀ	-6613
uĨơÌȶįĨ	-6614
űõ	-6615
ȶȶīĨ	-6616
ÁȶİįȀįŦĨ	-6617
ĨƳįĨİ	-6618
ȲİŦ	-6619
ȶuǐĨƤ	-6620
űÀ	-6621
ǟȲȲƦĨ	-6622
ĨuÌƳơuĨ	-6623
ǨĨȭ	-6624
İȍİDȲȶĨƳƋĨ	-6625
ÌĨơȶ	-6626
ȀÑİDȲȶĨƋƳ	-6627
ƳȍȶĨ	-6628
ȀįŦĨÔ	-6629
ĨÑÌİÑĨȀį	-6630
uĨÌİuĨ	-6631
ĨơİuÑȶ	-6632
İȲĨuȶ	-6633
ĨȀÑuȶȲƋ	-6634
ĨİuĨơȶȲȲ	-6635
ĨȀuĨİįĨ	-6636
ŦȶƳÁȶÑ	-6637
ĨǶȶD	-6638
ȶįÑĨƦȶİ	-6639
ÑÌŎuĨ	-6640
ȶĨDȶÑơȶȶį	-6641
ȐƤ	-6642
İȀÑ	-6643
ȶDȶ	-6644
ȀuÑȀİįĨ	-6645
ĨơİuĨİ	-6646
ȍȍȀįŦĨ	-6647
ÁȍȀ	-6648
ǟȍĨÑÌȶĨ	-6649
ǨȎȎ	-6650
ȲƳį	-6651
ĨơȀÑÌĨȍ	-6652
ĨDǟÑ	-6653
ĨÑİȲ	-6654
ŦȀİįÑĨ	-6655
ĨÑÌȶÁĨÑƳĨ	-6656
İDD	-6657
ĨȀįĨÑÌȶĨơƳ	-6658
İĨİ	-6659
ƖȲǟ	-6660
ȶĨİȲȲĨ	-6661
ĨȍȶƳȍȲȶĨİ	-6662
ƳȍĨ	-6663
Ĩżė	-6664
ǗİÑ	-6665
ǐĨǶǟ	-6666
Ĩȶęȍİį	-6667
ĨİuĨȀÑĨ	-6668
ȀįŦĨuƳÁȶĨ	-6669
ȀuĥĨƋİ	-6670
ĨĆȶįȶ	-6671
įĨƋ	-6672
ơÌƳuȶĨ	-6673
▁Ƕ	-6674
ÑÌȶuȀuĨ	-6675
ǼȎ	-6676
ȶİÑĨİį	-6677
İįĨİȲuƳĨDȶĨ	-6678
Ĩuİơ	-6679
ĨuÌȀȍ	-6680
żƥżŻ	-6681
ĨơƳÁȶįĨ	-6682
ȀuƳȲİÑȶ	-6683
ĨƤİį	-6684
ÌȶÑÌȶ	-6685
ýǟȶu	-6686
ȶİīĨ	-6687
ĨȱƳ	-6688
ǟDȀ	-6689
ĨƳƋÑȶį	-6690
ƳįĨȱ	-6691
ÑÌĨƤİ	-6692
FĨƋƳ	-6693
ȀȲȲİŦȶĨ	-6694
ȀľƳį	-6695
uĨȲȶİ	-6696
ĨȀįĨȍİ	-6697
ĨİŦȶ	-6698
ȎȸĨ	-6699
İȲĨƤ	-6700
ȶĨÁȶİuǟ	-6701
ȶȍÌİį	-6702
ǟuuȀƳįĨ	-6703
ȶuÑİÑȀƳį	-6704
ÁȀįȀÁ	-6705
ÔǟDȲȀuÌȶ	-6706
ĨƳįȲȀį	-6707
ȀƳįĨƳƋĨ	-6708
ÑİÑȀƳįuĨ	-6709
ĨŦȶįȶÑȀ	-6710
DǟŦ	-6711
uĨȶİ	-6712
ǐĨȭÌȀȲ	-6713
ÑȀƳįĨƳƋĨİ	-6714
ȭÌȀÑȶĨ	-6715
ȶįįuƦȲ	-6716
ƳÁÁȶįÑuĨ	-6717
DȀȲȲ	-6718
ȶÁȍȀ	-6719
ȀuȍȲİƦȶ	-6720
NNN	-6721
ĨȍİŦȶuĨ	-6722
ÑȀÑ	-6723
ĨĆİ	-6724
ųȶuȶ	-6725
įȀįŦĨȍ	-6726
ÑİDƳȲ	-6727
İȲĨȀuĨ	-6728
FĨȀįĨ	-6729
ÑǐȎýÌȶĨ	-6730
uƳǟÑÌȶ	-6731
ȶĨơİƦĨ	-6732
ǐĨýÌȶuȶĨİ	-6733
ǟȶĨÑƳ	-6734
ųƳu	-6735
ǟuǟİȲĨ	-6736
ȶĨȭ	-6737
ȶĨİuĨİĨ	-6738
ÌĨÑ	-6739
ĨuȀÁ	-6740
ǐȎƅƳơȶ	-6741
ȀuȶĨİį	-6742
ȀȶuȎ	-6743
ĨýÏ	-6744
ȀȲȲȶĨ	-6745
ĨuȶİuƳį	-6746
ĨƯƳ	-6747
ÁİĥȶĨİĨ	-6748
ĥuÌȶȶÑ	-6749
İįĥuĨ	-6750
ȲĨ	-6751
uīĨȀÑĨ	-6752
uĨƳƋĨİĨ	-6753
ÑȀƳįǐ	-6754
DǟuȀįȶuuĨ	-6755
ÏÌȀ	-6756
Ȳȶİįȶ	-6757
ȶįÑȎuĨ	-6758
ÑȀƳįǐĨýÌȶĨ	-6759
ÌǟuȶÑ	-6760
ĨȍȲİƦĨ	-6761
uIȎ	-6762
ƥǐƥ	-6763
uīĨƋƳ	-6764
ŻȤȤȤ	-6765
ŎuĨȍ	-6766
ĨİuĨİįĨ	-6767
ƦȎȐĨ	-6768
ýĨ	-6769
ȶŦȀuÑ	-6770
Ĩȍȶİ	-6771
ƿĨ	-6772
ȶĨÅ	-6773
FĨÑƳĨ	-6774
ĨƳįĨƦƳǟ	-6775
uīĨÑÌ	-6776
īĨơȀȲȲ	-6777
İÑȶĨÑÌİÑĨ	-6778
ĨİuuȀuÑĨ	-6779
ȀǐȶǐĨ	-6780
ĨRİ	-6781
ǐĨǶȀ	-6782
ȀİįĨİį	-6783
ƅİơİ	-6784
įƳĨȲƳįŦȶ	-6785
ÁȶİįĨ	-6786
ĨRȀį	-6787
ĥȀįŦĨÑÌȶĨ	-6788
ȶuīĨİ	-6789
uĨơÌȶį	-6790
ÑȀįŦĨİĨ	-6791
ƳuȀu	-6792
ŦȶuĨİį	-6793
ȎȎȎĨ	-6794
ȀȶuǐȎ	-6795
ȶuÑÌȶÑȀ	-6796
ƳįuȀuÑȶįÑĨ	-6797
ȲƳƳĥĨƋƳ	-6798
ƋİuÑĨ	-6799
ƳÁȶÑÌȀįŦĨ	-6800
ĀĆ	-6801
ÑĨÑÌȶÁ	-6802
ƳįÑƳ	-6803
ÑȀįƦĨ	-6804
ÑȀȶuĨƳƋĨ	-6805
Ƥƅ	-6806
ĨDȶį	-6807
İÑȶuĨİį	-6808
ĨuǟÁÁȶ	-6809
uȲȀ	-6810
ĥȶȍÑĨ	-6811
öǟÁȍ	-6812
İƦĨȀuĨ	-6813
DȶƦƳį	-6814
ȶįĨȱ	-6815
uȀÑƦĨİį	-6816
ȶĨȲȶuuĨ	-6817
ȶȶĨİį	-6818
ĨƳǟÑuȀ	-6819
ȀȶuǐĨýÌȶĨ	-6820
ƳuȀƳį	-6821
ȶȲȀİDȲȶĨ	-6822
ȶīĨȀÑĨ	-6823
ȶÁƳÑȀƳįİȲĨ	-6824
ȀįŦĨƳǟÑĨ	-6825
ȶĨŦƳȀįŦĨÑƳĨ	-6826
ȀįuǟȲİ	-6827
ȐƖ	-6828
▁ȭ	-6829
ȶİuȀȲ	-6830
Ĩųİ	-6831
ĨöƳǟ	-6832
ĥĨƳį	-6833
ȶįÑȀÑƦĨ	-6834
ÑƳĨuÌİ	-6835
ĨuȶįÑȶį	-6836
FĨýÌȶĨ	-6837
ƳįƳÁƦĨ	-6838
ĨDǟȲ	-6839
ÑİĥȶĨİ	-6840
ĨİơİƦĨ	-6841
ȶȍȀuƳ	-6842
ȶęÑĨ	-6843
ȀįŦīĨƳ	-6844
▁ȀÁȀȲİ	-6845
ȍȀį	-6846
Ĩȶįuǟ	-6847
ĨơȀÑÌĨÑÌȶȀ	-6848
ȲȶĨƳƋĨÑÌȶĨ	-6849
İuÑȲȶĨ	-6850
ȀįŦĨİĨȍ	-6851
ĨÑÌȶĨƦȶİ	-6852
uƳįīĨ	-6853
ĨįİÁȶ	-6854
ÌĨÑÌȶƦĨ	-6855
ȶĨȀįuÑ	-6856
RƳįŦ	-6857
ǐĨİį	-6858
İįuȍİ	-6859
ÑīĨƳ	-6860
ĨuƳǟÑÌ	-6861
ȶĨİĨŦ	-6862
▁ȀįŦ	-6863
ȶǐȎNį	-6864
ȀİȲȀuÑĨ	-6865
ĨİȲơİƦuĨ	-6866
tȲ	-6867
ǐĨNįĨŻȤ	-6868
ĆÔ	-6869
İįȶĨ	-6870
ȶöȶ	-6871
ǨĨý	-6872
İȲuƳĨDȶĨ	-6873
ȀŦÌÑĨİį	-6874
ĨȸĀƯ	-6875
ȶİÑÁȶįÑĨƳƋĨ	-6876
DǟÑÑȶ	-6877
ȶĨuƳÁ	-6878
ȶÁȶįÑĨİį	-6879
İÁȶĨÑÌȶĨ	-6880
ƳÁȍȲȶęĨ	-6881
ǰǟȶȶį	-6882
ĨȀįuȍȀ	-6883
ĥuÌȶȶÑĨ	-6884
ƦĨƳįĨ	-6885
uĨȀįĨơÌȀ	-6886
ȶȲȲȀ	-6887
ÌȶİȲÑÌĨȍ	-6888
İȍÌĨ	-6889
ÑȀȲȲĨ	-6890
ųƳƦİȲĨ	-6891
ĨuȲİ	-6892
Ĩİuĥȶ	-6893
ÌƳƳȲuĨ	-6894
ȶÁȶÑȶ	-6895
ȶȲȀÌƳƳ	-6896
ĨơȶȶĥuĨ	-6897
įȶơĨuÑǟ	-6898
ĥǐȎ	-6899
RĨ	-6900
ÁİĥȶuĨȀÑĨ	-6901
ĨŦƳĨ	-6902
ǟuĨİ	-6903
ƦƳǟįŦĨ	-6904
ȶÁƳÑȶĨ	-6905
ȶİuȶuĨ	-6906
ȲȀľİDȶ	-6907
uǐȎƯ	-6908
ÌİȶƳȲƳŦȀ	-6909
ÏįĨ	-6910
ȀįİÑȀįŦĨ	-6911
NįuÑȀÑǟÑȶ	-6912
ÑƳĨD	-6913
ƳƋĨÑÌİÑĨ	-6914
ȀİȲĨƋƳ	-6915
ȀDȶĨÑÌȶĨ	-6916
▁ȀýÌȶ	-6917
ȀuȍȲİƦ	-6918
ȶŦǟȲİÑƳ	-6919
ǡǟİį	-6920
ơİuÑȶĨ	-6921
ǟȲȍÑǟ	-6922
ȶȲÑȶ	-6923
ÑȀİȲȲƦĨ	-6924
ȀuȶİuȶuĨ	-6925
ǐĨÔȲȶİuȶĨ	-6926
Ɩȶİ	-6927
ǟÁȍȶ	-6928
ĨȲȶuuƳį	-6929
řȀįŦ	-6930
uFȎ	-6931
ŻȤȹƥ	-6932
ƳȶuĨȀÑĨ	-6933
İįĨƦƳǟ	-6934
ȀuƳįȶ	-6935
Ìȶȶ	-6936
▁ĥȀȲȲ	-6937
ĨȸuȀ	-6938
ȶĨDǟȀȲ	-6939
Ȁuȍȶ	-6940
ĨÑƦȍȶuĨƳƋĨ	-6941
ŻȤĭƥ	-6942
FĨȀuĨİĨ	-6943
ÑĨơȀÑÌĨ	-6944
İȲĨȱ	-6945
uĨuİȀ	-6946
ǐĨȸȲÑÌƳǟŦÌ	-6947
İįuȲİÑȀƳį	-6948
Ȁuǟ	-6949
▁ƦÁȍÑƳÁ	-6950
ŦȀȶį	-6951
İÑȀƳįĨȀį	-6952
ȀȶuĨƳ	-6953
įĨƤ	-6954
ÌƳȍȶ	-6955
ȶĨƳƋĨƳǟ	-6956
İÑȀƳįĨȀįĨÑÌȶĨ	-6957
ĨǶȀ	-6958
FĨȍ	-6959
Ƥȶ	-6960
ȀįŦĨơȀÑÌĨ	-6961
ǐĨųȶuȶİ	-6962
ĨÑÌƳǟŦÌÑĨ	-6963
uĨp	-6964
ȶŦȶÑİÑȀƳį	-6965
ĨDİŦ	-6966
ĨȍİȀįÑ	-6967
ȀuĥuĨ	-6968
uȶįuȀÑȀ	-6969
ĨÑÌİÑĨÑÌȀuĨ	-6970
ĨuƦÁDƳȲ	-6971
ĆȲƳDİȲĨ	-6972
ǐĨtu	-6973
uīĨÑÌȶ	-6974
ĨuȲƳơ	-6975
ĨDƦĨÔ	-6976
uƳÁȶĨƳƋĨÑÌȶĨ	-6977
uȶĨİį	-6978
ĥİDȲȶĨ	-6979
DȶįȶƋȀÑuĨ	-6980
ȶīȎ	-6981
Ƕȸ	-6982
ÁĨƋƳ	-6983
▁ų	-6984
Ƴľȶį	-6985
İĨƳ	-6986
ƳuÑȐ	-6987
ĥȀįŦĨơȀÑÌ	-6988
ȶĨȶęÑ	-6989
ĥĨơİuĨ	-6990
ÑƳĨÑÌȶĨȍ	-6991
▁Ìİĥ	-6992
ǐĨNĨ	-6993
īƥƥƥĨƦȶİ	-6994
ȶuÌĨ	-6995
ȐŻȹ	-6996
ȀįŦǟȀuÑȀ	-6997
ȀȶơĨÑÌȶĨ	-6998
įİȍ	-6999
ưƳǟįŦ	-7000
uÐĨ	-7001
Ĩǰ	-7002
ƳįİȲ	-7003
ƳȲǟÁȶĨ	-7004
Ȑİį	-7005
ƳįÁȶįÑĨİį	-7006
ƤƳǟįÑƦĨ	-7007
ȶĨuĥȀȲȲ	-7008
FĨơİuĨ	-7009
ĨİĨuÌƳ	-7010
ǟDuÑİį	-7011
ȲİƦ	-7012
ȶȶĨȍ	-7013
ȶĨƋİÁȀȲ	-7014
ȍÌƳį	-7015
Żǐė	-7016
ȀÑȲȶ	-7017
ƳÁȍȀȲȶ	-7018
İįĨDȶĨȍ	-7019
ƖƳu	-7020
ǐĨÏƋ	-7021
ȶƦȶĨ	-7022
ƳįȶȎuĨ	-7023
ǐȎưƳǟĨ	-7024
ĨÑÌİÑĨƦƳǟ	-7025
ĨÑÌİÑĨİĨ	-7026
ĨÁİÑÌȶÁİÑȀ	-7027
ĨÑȶu	-7028
ȀuȶīĨ	-7029
uǐȎȎ	-7030
DD	-7031
Ȳİuȶ	-7032
ƳƋƋĨÑÌȶĨ	-7033
Ȁuuİį	-7034
ǗİįİŦȶÁȶįÑĨ	-7035
ƖȀŦ	-7036
ƨĨýÌȶĨ	-7037
ƳDƳÑȀ	-7038
uÑīĨ	-7039
ƳÁƳu	-7040
İÑȶĨơȀÑÌ	-7041
ȶȍÑĨƳƋĨ	-7042
ȀȲƳ	-7043
ĨuƳǟÑÌȶ	-7044
ȀȶÑįİÁ	-7045
ĨȱÔ	-7046
ȸÁ	-7047
ƳįĨƳ	-7048
Ĩýȶİ	-7049
ĨȍƳȀįÑ	-7050
ÌįƳȲƳŦȀȶuĨ	-7051
ȀīĨ	-7052
ȀÑȀŦ	-7053
ȶĨDȶÑơȶȶįĨÑÌȶĨ	-7054
uǟÁ	-7055
ĨİĨȲƳįŦ	-7056
ȀľȀįŦĨ	-7057
ȎĨƳ	-7058
ƳȍİŦ	-7059
ȀŦȀįİÑȶ	-7060
ȶuÑĨȀįĨ	-7061
ȶuȍƳįuȶ	-7062
ÏÔ	-7063
ÑȀÁȶĨƋƳ	-7064
ĨƖƳ	-7065
ȶįĨȍ	-7066
Ȑż	-7067
ŦƦīĨ	-7068
İȲĨÌȀuÑƳ	-7069
ĥȶįĨ	-7070
Ìȶơ	-7071
ĨřȀ	-7072
ȶįȶơİDȲȶĨȶįȶ	-7073
ÑȶĨİ	-7074
ƳȍƦĨ	-7075
ȶŦȶÑİDȲȶuĨ	-7076
ȐuÌİȍȶ	-7077
ÑĨơȀÑÌĨÑÌȶĨ	-7078
uĨƳƋĨƦȶİ	-7079
ÑƦĨƳƋĨ	-7080
ŦƳȀįŦĨ	-7081
ŦƳȶuĨ	-7082
ȶĨÑȶİ	-7083
ÏęƋƳ	-7084
ÑȀƳįuĨÑƳĨ	-7085
ƳÁÁȶÁƳ	-7086
ƳȍÌİ	-7087
ȶĨuƳĨ	-7088
ȶĨÑÌȶƦĨİ	-7089
ŦƳÑĨ	-7090
ƳįŦȲƦĨ	-7091
İÑȀƳįǐĨýÌȶĨ	-7092
ĨǟuȀįŦĨÑÌȶĨ	-7093
uĨÑÌȶƦĨ	-7094
uǟŦİ	-7095
ĆN	-7096
ǼĨ	-7097
ĨȲİDƳ	-7098
ƦĨuÑ	-7099
ǐĨȸȲȲĨ	-7100
ÑƳĨuÌƳơ	-7101
ĨƳƋĨÑÌȶuȶĨ	-7102
uÑİŦȶĨ	-7103
ĨDƳÑÑ	-7104
ĨǟuǟİȲȲƦĨ	-7105
ŦİÁȶĨ	-7106
İÑȶȲȲȀÑȶ	-7107
Āİľ	-7108
uİȲĨ	-7109
ĨƳƋĨÔ	-7110
ĨƦƳǟĨÌİ	-7111
ÑĨİÑĨ	-7112
ȶįÑĨÑƦȍȶuĨƳƋĨ	-7113
įȎ	-7114
ÁĨȱ	-7115
ĨįȶơĨ	-7116
ĨȀÁİŦ	-7117
ĨDȀƳȲƳŦȀ	-7118
ǡǟİÑȀ	-7119
ȶĨơİuĨİĨ	-7120
řȀį	-7121
ȲȶŦȀuȲİ	-7122
uǐÅ	-7123
ȀįÑȶuÑ	-7124
İÑİȲƳŦ	-7125
ĨÑƳĨȍİ	-7126
ǐĨȸȲÑÌƳǟŦÌĨ	-7127
İȲǟȶuĨ	-7128
ǨĨǶ	-7129
İƦĨȀįĨ	-7130
İÁȶĨƋ	-7131
ĨuÌƳơį	-7132
ĨȀuĨȀį	-7133
ȶįŦȀį	-7134
ĨÑƳĨŦȀ	-7135
ȶƋȀįȀÑȀƳįĨ	-7136
uFĨİį	-7137
Ĩİuĥ	-7138
İȲȲƳơĨ	-7139
ĨƳę	-7140
ÌƳuȶĨ	-7141
ĨÑÌȶĨįǟÁDȶ	-7142
ĨįƳÑȶ	-7143
ųƳÁİį	-7144
İÑȀƳįuǐĨ	-7145
ƅƦ	-7146
ƳįÑȀįǟȶuĨÑƳĨ	-7147
ŻǨ	-7148
ĨDȶİǟÑȀƋǟȲ	-7149
▁ƳÁȶÑȀÁȶuĨ	-7150
ÌįȀǡǟȶuĨ	-7151
ȶǡǟȶįÑĨ	-7152
ĨİįĨȶ	-7153
ƳȍÌƦuȀ	-7154
ÁȶuuİŦȶĨ	-7155
ȀįŦȎȐĨ	-7156
ȀÁȍȲȶÁȶįÑȶ	-7157
ŻȤȤȹ	-7158
ȀuįŎÑĨ	-7159
ĥįƳơĨơÌİÑĨ	-7160
ĨÁİįƦĨƳÑÌȶ	-7161
ȀįŦĨơƳ	-7162
uƳįŎuĨ	-7163
ȐƳƋȐ	-7164
ÑuĨȍ	-7165
ĨİįĨǟį	-7166
ÁƳįİ	-7167
ȶįuĨ	-7168
ȶĨuȀį	-7169
ȀįŦīĨDǟÑĨ	-7170
ĀƤ	-7171
ȀįŦĨơİÑȶ	-7172
ȲƳÑ	-7173
ȀĥȶĨ	-7174
ÑƳĨuȍ	-7175
ƳįuīĨ	-7176
ȶuuĨİ	-7177
ǡǟȀÑ	-7178
ƋİuÑȶ	-7179
ƳįÁȶįÑuĨ	-7180
ĨÑƳĨÑÌȶĨȍ	-7181
ƳǟuȶĨ	-7182
İȲĨƋİ	-7183
ǟįu	-7184
ȲȀDȶ	-7185
ÑĨÑÌȀuĨ	-7186
ȶĨuƳÁȶĨƳƋĨÑÌȶĨ	-7187
ÌĨÑÌİÑĨ	-7188
ĨÁİĥȀįŦĨ	-7189
ȲȀİÁ	-7190
ȀįÑȀįŦĨ	-7191
ȍİÑȀȶįÑĨ	-7192
ȀİŦȶĨ	-7193
uİơ	-7194
ȶįŦİŦȶ	-7195
ĨŦȲǟ	-7196
ǗƳu	-7197
ÑȀÑȀƳįȶ	-7198
ƳƋȀÑĨ	-7199
ĨƳƋĨƤ	-7200
İȲȲƦĨȍ	-7201
ÌīĨİį	-7202
ÑȀƳįuĨȀįĨ	-7203
ĨřȀįŦ	-7204
uÌİȍȶ	-7205
ÁȀęȶ	-7206
ÌȀu	-7207
Ȁȶuǐ	-7208
ƅȀį	-7209
ȭƳƳ	-7210
ǐȎȐĨƯ	-7211
ơİƦuĨÑƳĨ	-7212
ȀįĨÑÌȶĨtįȀÑȶ	-7213
ÑİuÑ	-7214
ȲǟuĨ	-7215
ȶÁȍÌİuȀuĨ	-7216
ĨİDȀȲȀÑƦĨÑƳĨ	-7217
ÑȀÑȲȶ	-7218
ŻȤűƥ	-7219
ÑȶȶįÑÌĨ	-7220
żĨİį	-7221
uȀÑǟİÑȀƳį	-7222
İĨƳƋĨ	-7223
Āȶǟ	-7224
ÑǟįȀÑƦĨ	-7225
ƦĨuÑƳ	-7226
ĨÌǟ	-7227
ĨơȀÑÌĨƳÑÌȶ	-7228
ÑƦȐ	-7229
īĨDǟÑĨȀÑĨ	-7230
uĨơȀȲȲĨDȶĨ	-7231
ÏDuȶ	-7232
İįÑĨİį	-7233
ƦÐ	-7234
ŦƳį	-7235
įȶơuĨ	-7236
İȲĨȶį	-7237
ƦĨİuĨ	-7238
ƦīĨƳ	-7239
ĨRȀD	-7240
ƳÁĨƳǟ	-7241
İįĨȶęȍȶ	-7242
ƳİȲ	-7243
ÑȀȲȀÑƦĨ	-7244
ĨDȶįȶƋȀÑ	-7245
İįĨDȶ	-7246
ƳƋĨuÑǟ	-7247
ȀȶuĨȀuĨ	-7248
ĨȶƋƋȀ	-7249
ơƳÁȶįĨ	-7250
ȶŦȶÑİDȲȶĨ	-7251
ĨÑƳȍ	-7252
ǟȲÑȀÁİÑȶȲƦĨ	-7253
ÏDöȶ	-7254
ŦİȲİę	-7255
ĨÌİuĨİ	-7256
ĨÑÌȶĨuÑ	-7257
ýÔ	-7258
ȱƳ	-7259
ųȶƋ	-7260
▁ƖĀ	-7261
ƳÁȶĨİį	-7262
ĨƯȀuȶİu	-7263
ĨȱƤ	-7264
ȀDȀȲȀÑƦĨ	-7265
ćǶ	-7266
Ñȶįȶ	-7267
ĨÑƳĨȶįuǟ	-7268
ȶĨİÁƳįŦ	-7269
ƳÁĨÑÌȶĨȍ	-7270
İįĨȶİ	-7271
ȶǐĨȭ	-7272
ȀuȀƳįĨƳƋĨ	-7273
ĨÑȀuuǟ	-7274
ȶįĨȀį	-7275
ĨuÌİȍȶ	-7276
Ȥĭ	-7277
ƳǟuīĨ	-7278
ǡǟƳÑȶ	-7279
ȶĨÑÌȶĨơƳ	-7280
▁ÑİÑȶuīĨ	-7281
İuÑĨİį	-7282
ĨƳįȲȀįȶĨ	-7283
ȀȲȲįȶuuĨ	-7284
▁ǰ	-7285
īĨżƥŻõ	-7286
ƳįÑİÁȀįİÑȶ	-7287
ÑƳơȶ	-7288
ƅƳơȶ	-7289
İǐĨýÌȶĨ	-7290
İuuȀƳį	-7291
ĨȀįĨȀÑuĨ	-7292
ĨƳȍȍƳ	-7293
Ûȸ	-7294
ÑÌƦĨ	-7295
ÌȀDȀ	-7296
ȶȀŦįĨ	-7297
ƳÁĨȀÑuĨ	-7298
ÑuĨuǟ	-7299
ƅƳǟuȶĨ	-7300
ȶÁȶįÑȀ	-7301
ĨȸƯ	-7302
ĨȭȀ	-7303
ȀİȲīĨ	-7304
ĨƅN	-7305
ȶÁƦĨƳƋĨ	-7306
ÑƳƳĨÁǟ	-7307
NįuÑ	-7308
ǟÁȶįÑȶ	-7309
İįÑīĨ	-7310
İÑȀƳįĨƋ	-7311
ƳȍÌƦ	-7312
ĨȀįĨȸ	-7313
İĨƖ	-7314
▁īĨ	-7315
ĨǡǟȀ	-7316
ĨơİȲĥ	-7317
īĨơÌȀȲ	-7318
õī	-7319
ȸįÑİ	-7320
ĨÑÌȶĨǶ	-7321
ȹÀ	-7322
ÁȶÑȀ	-7323
ĨÁİįİŦȶ	-7324
ǟįįȶ	-7325
ĨÁȀįƳ	-7326
ơİįÑȶ	-7327
įȶuƳÑİ	-7328
ȶÁȍÌİuȀľ	-7329
uÑĨȍ	-7330
ƳȍÌȀ	-7331
ȀuĨȀį	-7332
ĨÌƳơȶ	-7333
▁ȀŦį	-7334
ĨȭȶD	-7335
ƳŦȶįȀ	-7336
ȀȍÌȶ	-7337
İÑĨÑÌȶĨtįȀ	-7338
ĨýƳĨ	-7339
uĨƖ	-7340
ĨȀįĨƤ	-7341
Ȥǐ	-7342
ƯǟÑ	-7343
ÑȀÑȀ	-7344
uȀÑƦĨÔ	-7345
uĨơÌȶ	-7346
İȲȲƦĨȀį	-7347
Ưİį	-7348
▁ǟDöȶ	-7349
ǡǟİȲȀÑƦĨƳƋĨ	-7350
ȱÔ	-7351
ǟuȶĨİĨ	-7352
İįĨƳįȲƦĨ	-7353
ÑĨǟȍ	-7354
ȶơȀuÌ	-7355
ȶĨȍƳ	-7356
ĨÑƳĨÑİĥȶĨ	-7357
ĨȲȀÑÑȲȶĨ	-7358
ƳÁÁƳįȲƦĨǟuȶ	-7359
ơȶȲȲĨ	-7360
▁Ƴǟį	-7361
ƳȍȀįȀƳį	-7362
ȀuȶİuȶīĨ	-7363
ĨȭİÑȶ	-7364
ȶĨƦƳǟĨİ	-7365
tįȀƳį	-7366
İuȶīĨ	-7367
Ȳİĥ	-7368
ćęȶ	-7369
ǐȎýÌȶƦĨ	-7370
ȶDƦĨ	-7371
ĨÑƳĨuǟ	-7372
ĨÌİȀ	-7373
ĨȀÁİŦȶĨ	-7374
▁ǟÁÁȶ	-7375
ơÌİÑĨÑÌȶĨ	-7376
ȶĨǟuȀįŦĨ	-7377
ĨDƳƳĥuĨ	-7378
ĨȀuĨİĨu	-7379
ƤƳȲȲȶŦȶĨ	-7380
ƅȀȲȲ	-7381
īĨuȀį	-7382
ȀȶuĨơȶ	-7383
ǟuuĨÑÌȶĨ	-7384
ȶĨȍÌƦuȀ	-7385
uȍȶį	-7386
uīĨÑÌȀuĨ	-7387
Ǘć	-7388
ȀįŦĨƤ	-7389
ÑȀƳįuǐĨ	-7390
żėƥ	-7391
ƳȍȶĨİį	-7392
ǐĨÔȶƳȍȲȶĨ	-7393
ĨÁȀȲȲȀƳįĨƦȶİ	-7394
ĨÁȶȶÑ	-7395
RR	-7396
ÑȀƳįĨƳƋĨİĨ	-7397
ȀuuƳȲ	-7398
ȶǡǟİÑȶĨ	-7399
ĨÑÌȶĨÑȶ	-7400
ȶȲȀįȶĨ	-7401
ȲȶuuƳįĨ	-7402
ȀȍİȲ	-7403
īĨơİÑȶ	-7404
ĨŦİuĨ	-7405
ȀįŦĨơİuĨ	-7406
Ñǟİ	-7407
ȶĨÑÌȶĨuİÁȶĨ	-7408
İĨÑƳĨ	-7409
ȍȲİƦĨ	-7410
ȶĨŦƳƳ	-7411
ƯƤ	-7412
uȶįuƳ	-7413
ȶĨȶƋƋȀ	-7414
ĨİÁĨ	-7415
ȶİÑȀįŦĨİĨ	-7416
ȍİȀįÑ	-7417
ȲȀÁȀÑ	-7418
ĆƖ	-7419
ȶįÑĨuÑǟ	-7420
ƳįuǟÁȍÑȀƳį	-7421
DƳÌƦ	-7422
ȎýÌȶ	-7423
ĨÑÌȶĨƋİ	-7424
ĨȀȲȲǟuÑ	-7425
ÌİįŦȶuĨȀįĨ	-7426
uĨÑÌȀuĨ	-7427
ƳȲƳŦȀuÑ	-7428
ŦȶĨįǟÁDȶ	-7429
ȀŦİÑȀƳį	-7430
uīÅ	-7431
ȱƤ	-7432
ȶĨÑơƳ	-7433
ȶĨÑÌİÑĨȀuĨ	-7434
ȶİÑȶĨİ	-7435
ȶĨȍƳuuȀDȲȶĨ	-7436
ƦȲİį	-7437
ȸu	-7438
ȀȲȀľİÑȀƳį	-7439
ęȀį	-7440
īĨýÌȶĨ	-7441
ȶİuȶĨȀį	-7442
ȶuÛ	-7443
ȶĨÌ	-7444
ȶuȍȀÑȶĨÑÌȶĨ	-7445
ĨÑÌȶuȶĨȍ	-7446
ĨơȀȲȲĨÌİ	-7447
ȶÁDȲƦĨ	-7448
ȀİÑȀƳįĨƳƋĨ	-7449
ƳȲȶĨȀįĨÑÌȶĨ	-7450
ÑĨŦ	-7451
ÑȀÁȶuīĨ	-7452
ȶĨƋǟ	-7453
RȶŦ	-7454
ȶȲƳȍĨ	-7455
uĨȀįĨİ	-7456
ĨơÌƳȲȶĨ	-7457
ÑĨƤ	-7458
ĨįǟÁȶ	-7459
Ŧİľ	-7460
ĨȀįuǟ	-7461
ĨÑÌƳ	-7462
ȀįŦĨuȍȶ	-7463
ĨȍƳÑȶįÑȀİȲȲƦĨ	-7464
ȶuǟȲÑĨȀį	-7465
ƳǟÑīĨ	-7466
ȶĨÑÌȶįĨ	-7467
ǟİÑȶ	-7468
ƯȶȲ	-7469
ĨǗȀį	-7470
ȶȲuĨİ	-7471
ƦÁȶ	-7472
ÁȶĨ	-7473
ȶȍȲȶ	-7474
ȲȀuÌȀįŦĨ	-7475
ȶįȀįŦĨ	-7476
ĨÑÌȀįĥȀįŦĨ	-7477
ĨÁİȀįÑİȀį	-7478
ĨơİƦuĨÑƳĨ	-7479
ȶįÑÌ	-7480
ĨȭÌİÑĨ	-7481
ĨȶęȍȲİ	-7482
ơȀȲȲĨȍ	-7483
ȶĨİƋƋȶ	-7484
ĨƤǟ	-7485
ĥȀįŦīĨ	-7486
ľƳį	-7487
ȶĨDȶȶįĨİ	-7488
ȶǐĨǶƳ	-7489
ǗİÑÌ	-7490
ȶuȍȶİ	-7491
ȐÑ	-7492
ÁȶįÑīĨ	-7493
ơįĨ	-7494
İŦƳį	-7495
ơȶįÑĨ	-7496
ȶĨuȍƳ	-7497
ǗİÑÌȶÁİÑȀ	-7498
▁ƳǟÑÌĨȸÁȶ	-7499
İįÑİŦȶĨ	-7500
żƥƥÀ	-7501
ĨżƥŻż	-7502
ĨȸǟŦǟuÑĨ	-7503
ĨơÌƳĨÌİ	-7504
ĨÌȶĨuİȀ	-7505
ȶįĨȀįĨÑÌȶĨ	-7506
ƳơĨİį	-7507
ƳơÑÌĨİį	-7508
ĨƳȍȶį	-7509
ȶǡǟİȲĨ	-7510
ȸįÑȀ	-7511
ƳįuÑİįÑȲƦĨ	-7512
▁ȶÑ	-7513
uȶĨƳƋĨ	-7514
uÑĨİį	-7515
▁İįÑİ	-7516
uȀįŦ	-7517
ĨƋȶİ	-7518
ÁİuuĨ	-7519
ÌİuĨȍ	-7520
ȶĨuƳǟ	-7521
uÑȀÑǟÑȶĨ	-7522
İįŦȀįŦĨƋ	-7523
żƥĨ	-7524
ȶƦīĨ	-7525
ĨơÌȀÑ	-7526
ƳįȶĨÑÌİÑĨ	-7527
ĨÑÌȶĨtįȀÑȶ	-7528
ĨơİuĨȍ	-7529
ƳDÑİȀį	-7530
ÁƳuÑĨƳƋĨÑÌȶĨ	-7531
ćuu	-7532
ÑƳÑ	-7533
ǗƦĨ	-7534
ĨơȀȲȲĨįȶȶ	-7535
ćįÑȶ	-7536
ÔİȲ	-7537
ǡǟȀu	-7538
ȀįĨȀuĨ	-7539
ĨÁİƦĨįƳÑĨ	-7540
uȲƳơ	-7541
ÑƳĨȀį	-7542
ȍȲİįȶÑ	-7543
ȶĨƳƋƋȶ	-7544
ȶĨȐĨ	-7545
ȀÑĨơƳǟȲ	-7546
ȶuȀuÑİįÑĨ	-7547
ȶuȶįÑĨÑÌȶĨ	-7548
ĨÑƳơį	-7549
ĨćįŦȲİį	-7550
▁Ā	-7551
ĨÑȶęÑĨ	-7552
ǐĨNįuÑȶİ	-7553
ǟÑĨÑÌȶĨ	-7554
ȀÑĨȀį	-7555
ȲİÑÑȶ	-7556
ėż	-7557
uÑİƋƋ	-7558
ƳÑÌĨ	-7559
ȶĨÌȶĨ	-7560
İȲĨȍȲİį	-7561
ǟįȍ	-7562
uīĨȶ	-7563
ĨÑÌȶĨȶİ	-7564
ĨƳƋĨÑÌȶÁ	-7565
īĨżƥŻÀ	-7566
ȀŦȶuÑȀ	-7567
ȲȶŦȶį	-7568
ǟȀÑuĨİį	-7569
ȀuȍÌȶ	-7570
ȶƋȀįȀÑȶ	-7571
ĨÑƳĨuǟȍȍƳ	-7572
ųƤ	-7573
FȎýÌȶĨ	-7574
řȶƦĨ	-7575
ȀįĥȀįŦĨơİÑȶ	-7576
ŦǟÁ	-7577
ĥįȶuuĨ	-7578
öǟuÑ	-7579
ȶÑÌĨ	-7580
ǗȶÁƳ	-7581
ȶuǟȲÑ	-7582
ȶįÑȀįŦĨ	-7583
NįĨ	-7584
ȶȲİę	-7585
ȶuĨƳƋĨu	-7586
İȲĨuĥȀȲȲ	-7587
ĨİÑÁƳuȍÌȶ	-7588
Ȁuuȶ	-7589
ȶȎýÌȶĨ	-7590
ÑȀƳįĨƳƋĨȍ	-7591
uɁɁ	-7592
İȲĨȍƳ	-7593
ȀuuȀȍȍ	-7594
ȀÁȀ	-7595
ȶuȀŦįİÑȶ	-7596
īĨȍȶ	-7597
ÑǟįȀÑȀȶuĨƋƳ	-7598
ơÌȀÑ	-7599
İȍȶĨ	-7600
İȲĨuȍȶ	-7601
ĨÌȀŦÌĨu	-7602
ȶÑÌįȀ	-7603
ǟĨ	-7604
uīĨȍİ	-7605
ȶȲƦĨǟuȶ	-7606
ĨDƳǟį	-7607
ơȶȀŦÌÑ	-7608
ÑȀƋİ	-7609
ĨÑƳĨȀ	-7610
Ôİį	-7611
ȲȀuÑ	-7612
ųĀȸ	-7613
ƳĨįƳÑĨÌİ	-7614
īĨuÌ	-7615
ơİuÑȶ	-7616
İįÑuīĨ	-7617
īĨÑÌȶĨİ	-7618
ĨÑÌȶĨý	-7619
ĨÑƳĨDǟȀȲ	-7620
ǐȎȭȶĨ	-7621
ȶÑĨİį	-7622
ȀuÑuĨİį	-7623
ȀİĨȀuĨ	-7624
ĨĆǟȀ	-7625
uÁİȲȲȶ	-7626
ȲȶuīĨİį	-7627
ƳįȲƦĨÑÌȶĨ	-7628
ÁİįİŦȶÁȶįÑ	-7629
űȐ	-7630
ƤƯƤ	-7631
ȀuuȀuuȀȍȍ	-7632
Ìǐ	-7633
ĥǐĨýÌȶĨ	-7634
ǐȎųȶ	-7635
İÌĨ	-7636
▁ȍȶȶ	-7637
įƳÑÌȀįŦĨ	-7638
ȹȐ	-7639
ĨuǟŦŦȶuÑĨ	-7640
▁ƤÏ	-7641
ƳÁĨȶİ	-7642
uȲİ	-7643
İÑȶĨƳ	-7644
ȲȶęȀDȲȶĨ	-7645
ÁuĨİ	-7646
ȶÁȀİ	-7647
ƳǟuĨuƦuÑȶÁ	-7648
ƳƳȲȶ	-7649
ȶĨȶȲȶ	-7650
ȶĨuÁİȲȲ	-7651
ĥįȶơ	-7652
ȲİuÁİ	-7653
ȶİÑuĨ	-7654
ȶİĨƳƋĨÑÌȶĨ	-7655
ȀÑȀľ	-7656
uƳƋÑơİ	-7657
ƳÁDȀįİÑȀƳį	-7658
ĥȲȶ	-7659
ƦĨDȶ	-7660
ƋȀƋ	-7661
ȀįŦȐ	-7662
İÁȶĨİĨ	-7663
ĭŻ	-7664
Ŧǟȶ	-7665
ĥuÌȶȶÑuĨ	-7666
ųǟ	-7667
ƅƳǟu	-7668
ȶęǟİȲĨ	-7669
uȶǡǟȶį	-7670
ȀuÌƳȍ	-7671
ĨȀįĨÑÌȶĨİ	-7672
İǟuȶuĨƳƋĨ	-7673
ĨȀįĨƳÑÌȶ	-7674
ƦŦȶįĨ	-7675
ĨÁİĥȶuĨ	-7676
FīĨơÌȀ	-7677
ȶÑİÑȀƳį	-7678
ƋİȀÑÌ	-7679
ơİȲĥ	-7680
ȶÑĨİȲ	-7681
ĥįƳơįĨ	-7682
ȀȲĨİį	-7683
ÑÌȀįŦĨÑƳĨ	-7684
ĨÑÌȶƦȎ	-7685
ơȀȲȲĨÌİ	-7686
ȍȲİįÑuĨ	-7687
ȀƋƦĨ	-7688
ȲƳuȶĨÑƳĨ	-7689
ÁİĥȀįŦĨȀÑĨ	-7690
ĨÁİÑÌ	-7691
ĨÑÌȶĨȀ	-7692
▁ÑĨ	-7693
ȀįŦĨÌƳơ	-7694
ƳÁȀįİįÑĨ	-7695
ĨİÁƳǟįÑĨƳƋĨ	-7696
ȲƳuǟ	-7697
uĨȀįÑƳĨÑÌȶĨ	-7698
ĨȶęȍȲİį	-7699
ýƅ	-7700
▁Áİ	-7701
Ȁǐȶǐ	-7702
ÌÑÁȲ	-7703
ȎȸȲ	-7704
RȀĥȶĨ	-7705
İįuÁȀuuȀƳį	-7706
Nć	-7707
ȭÌƦĨ	-7708
ĨȶÁİȀȲ	-7709
Ìȶİȍ	-7710
ĨuĥȀįĨ	-7711
▁ÁİȲȲ	-7712
ƳįȶĨƋƳ	-7713
İÌİÁ	-7714
ĨİįĨƳ	-7715
ȶÁȍƳơȶ	-7716
ȍƳȲȲǟ	-7717
İȲǟİÑȶ	-7718
ȶÁȍȲƳƦÁȶįÑĨ	-7719
ȀÑȀįŦīĨ	-7720
ĨơİƦĨƳƋĨ	-7721
ȀįŦǐȎýÌȶĨ	-7722
ȶuĨơȀÑÌĨ	-7723
ȶȲİ	-7724
Ƴįǟį	-7725
ơİuĨİĨ	-7726
ĨuȀÑǟİÑȀƳį	-7727
ȎīĨ	-7728
Ưȶį	-7729
ȶǡǟȶuÑĨ	-7730
ȶuĨȎ	-7731
ƳǟÑȶĨ	-7732
ĨÀƥ	-7733
ƥȤ	-7734
ǟÑƳįƳÁ	-7735
ȶĨuȀÁȀȲİ	-7736
ÑǟįİÑȶȲƦīĨ	-7737
įƳÑĨÑÌȶĨ	-7738
uȶİuƳį	-7739
ÑİįŦ	-7740
īĨuÑǟ	-7741
ȶÁİȀįuĨ	-7742
ȭİÑ	-7743
ƦĨý	-7744
ȶįÑȀƳįİȲĨ	-7745
įȀįȶĨ	-7746
ŻƥȐ	-7747
ȀİD	-7748
ȶuÑÁȶįÑĨ	-7749
ȶȶĨƦȶİ	-7750
ĨÑÌİÑȎuĨ	-7751
▁Ìİĥȶuȍȶİ	-7752
ǶȀȶȲ	-7753
ĨuƳĨÑÌİÑĨ	-7754
Áȶİ	-7755
ȶuȶįÑuĨÑÌȶĨ	-7756
ȀÑƦĨȱ	-7757
ȀƋĨƦƳǟĨÌİ	-7758
ȀįŦĨÁİ	-7759
ȍȲȶĨ	-7760
ĨơȶįÑĨ	-7761
İÑȶŦȀȶuĨ	-7762
ȀįuÑȶİ	-7763
ȶuȀȲȀȶį	-7764
ÁİÑȀƳįĨƳƋĨ	-7765
ŦƳİȲĨ	-7766
ȀÑİÑȀ	-7767
ĨơȀÑÌĨÑÌȀuĨ	-7768
ǟȲİÑȀįŦĨ	-7769
ȀȶơĨ	-7770
ĨųȶuƳǟ	-7771
ĨƖƤ	-7772
ȲƦÁȍȀ	-7773
ƳÁÁȶįÑ	-7774
ȀİŦįƳuÑȀ	-7775
ȶĨuȶİ	-7776
Ƴįľ	-7777
ƳƋĨÑÌƳuȶĨ	-7778
ĨȶÁȶ	-7779
İȲÑȀ	-7780
ĨȀįÑȶȲȲȀŦȶį	-7781
ȶŦįİįÑĨ	-7782
ÌĨȀuĨİĨ	-7783
ŦǟÁȶįÑĨ	-7784
ȶuȍƳįuȶĨÑƳĨ	-7785
İȲȲƦĨƳ	-7786
uĨÑƳĨÌİ	-7787
ȀįĥuĨ	-7788
▁ȍİȀį	-7789
İȲuĨİ	-7790
ȶĨİįĨȀį	-7791
ƋİD	-7792
ƳǟÑȀį	-7793
ȶįĨDƦĨ	-7794
ȶįİDȲȶĨ	-7795
ȶĨÑÌȶĨŦ	-7796
uÑİÑȶĨƳƋĨ	-7797
Ĩuȍȶİĥ	-7798
ĨĀİÑȀƳįuĨ	-7799
įİu	-7800
Ȳİǟ	-7801
ȶĨÁİÑȶ	-7802
ȶįÑĨÑÌİÑĨ	-7803
řǟ	-7804
ȀƋĨƦƳǟĨİ	-7805
uÑĨÑȀÁ	-7806
ƋƳȲȲƳơȀįŦ	-7807
ȶuǟ	-7808
ĨİÑĨÑÌȶĨȶį	-7809
ȶĨDȶÌİ	-7810
ƤƳÁÁƳįĨ	-7811
İĨȍİ	-7812
ÛĨ	-7813
ȀDȶuĨÑÌȶĨ	-7814
Áǟį	-7815
ȶĨDǟ	-7816
uÑİÑȀuÑȀ	-7817
Ƴįöǟį	-7818
İĨȍȶ	-7819
įĨİ	-7820
įȶuuȶ	-7821
ȲƳƳĥȀįŦĨİÑĨ	-7822
Ƴȶ	-7823
ĨİuuȀuÑİį	-7824
ÑĨȀuĨİĨ	-7825
ǐĨƅƳơĨ	-7826
uĥȀ	-7827
ƳuƳƋÑĨ	-7828
ĨĥȀį	-7829
uĨơȀÑÌƳǟÑĨ	-7830
ĨİȲȲȶ	-7831
ǟİȲuĨ	-7832
ĨÑƳĨȍȶ	-7833
ƳÑİÑȀƳį	-7834
ȶĨuȀŦį	-7835
ȶȲȶȍÌİį	-7836
İȲuƳĨİĨ	-7837
ƳÁİÑȀ	-7838
ĨȶįÌİį	-7839
ȀuÁīĨ	-7840
İīĨÑÌȶĨ	-7841
ƋȲİÁÁİÑƳ	-7842
ÌİuĨDȶȶįĨİ	-7843
ÔuƦ	-7844
ȶŦȀį	-7845
ÌįƳȲƳŦƦĨİį	-7846
ȶįȲƦĨ	-7847
tįȀƳįĨ	-7848
ÏįȲȀįȶĨ	-7849
ȶuÑȀŦİÑȶ	-7850
ǐĨýÌȶƦĨÌİ	-7851
ƅȶD	-7852
ȀįŦĨȎ	-7853
ǶȀȲ	-7854
ȶƳu	-7855
DǟȲD	-7856
ÑƳĨȍȲİ	-7857
ȀDȲȀƳŦ	-7858
FĨȱ	-7859
ȭÌİÑĨİ	-7860
ȀÑĨÌİuĨ	-7861
uĨȀįĨÑÌȶȀ	-7862
ȶÑơȶ	-7863
İÁȶĨÑƳĨ	-7864
ƳȲȶĨȀį	-7865
ȶuĨÁƳ	-7866
ĨÌİuĨDȶȶį	-7867
ÁD	-7868
ŦȀİ	-7869
ŦȶÑȶ	-7870
▁İƋȶ	-7871
İÑȶĨİĨ	-7872
ÑƳȍĨ	-7873
ȲƳƳȍ	-7874
ĥuĨÑƳĨ	-7875
ƳĨƤ	-7876
ƳǟȍuĨ	-7877
ȶĨİȀ	-7878
ĨÁİÑ	-7879
ǐĨȸuĨÑÌȶĨ	-7880
ĨÁƳįȶƦĨ	-7881
ĨİįȀÁİȲĨ	-7882
ĨÑÌȶĨuȍ	-7883
ÏR	-7884
ƦǐȎȐĨ	-7885
NĨơİuĨ	-7886
ƦǐĨýÌȀuĨ	-7887
NĆ	-7888
Ȁȍȍȶ	-7889
İƦĨƋƳ	-7890
uȀÁǟȲİ	-7891
ƳÁȍİįȀȶ	-7892
ĨÑƳƳĨ	-7893
ĨƋȀȲÁ	-7894
ÑơȶįÑ	-7895
ȍİÑÑȶ	-7896
ĨƋȀȲÑȶ	-7897
uȀuÑ	-7898
ȶȲƳơ	-7899
ȸįŦ	-7900
ĨuÁİȲȲĨ	-7901
ȶÁȶį	-7902
ƳǟįuȶȲ	-7903
ĨÑÌȶĨȀįÑȶ	-7904
ŦȀįȀİĨ	-7905
ƦĨȎ	-7906
ÌȀÑȶĨ	-7907
NÑȎuĨ	-7908
ǟuǟ	-7909
ĨİĨȲȀÑÑȲȶĨ	-7910
ĨįȶęÑĨ	-7911
ƳÁȍȲȀuÌ	-7912
ĨȍÌƳį	-7913
▁ȀǶƳ	-7914
ĨơȀÑÌĨİĨu	-7915
ȶuÑȀį	-7916
ȶuÑȀįŦ	-7917
ĨƤȶįÑ	-7918
ÑĨƳƋĨȍ	-7919
ȹõ	-7920
ȲȶÑ	-7921
uĨȍİ	-7922
ȶĨuƳȲ	-7923
ĨįȶŦİÑȀ	-7924
ȀŦįÁȶįÑ	-7925
ƳįuÑȀÑǟÑȀƳį	-7926
ȶĨuÑȶȍ	-7927
ĥȀįŦĨÑƳĨ	-7928
ǗİÑȶ	-7929
ÁȀįǟÑȶ	-7930
ĨuƳȲȀ	-7931
RİÑȀį	-7932
ȀÑİÁȀįĨƯ	-7933
ƳÁĨŻȤ	-7934
įȀįȶ	-7935
ǗǟuȀ	-7936
ĨǶȶ	-7937
ĨuȶȶĨ	-7938
ĨȀįĨȶİ	-7939
ŦİįȀľİÑȀƳįuĨ	-7940
▁ȸŎuĨ	-7941
ƳǟÑȲȀį	-7942
ȀįŦĨDİ	-7943
ǐȎýÌȶĨuÑǟ	-7944
ȀȍȲȀįİ	-7945
ȸǟŦ	-7946
uȍȶİĥ	-7947
ȲƳuu	-7948
ȀŦÌÑuĨİį	-7949
ÑȀƳįuĨÑÌİÑĨ	-7950
ĨƋȀȲȲ	-7951
ȭƳÁȶį	-7952
ćŦƦȍÑȀ	-7953
ȶǐĨƤ	-7954
ĨÌȶİÑĨ	-7955
ĨƋȲƳ	-7956
ĨDȶĨİĨ	-7957
ȶuĨƳƋĨȍ	-7958
İÑÑȲȶĨƳƋĨ	-7959
ȭȀu	-7960
İįĨŦ	-7961
ĨŦȲƳD	-7962
ÁȶįĨ	-7963
ĥuĨÑÌȶĨ	-7964
ȀİȲuīĨ	-7965
İȀįƋİȲȲ	-7966
İuȶuĨƳƋĨ	-7967
ȀÁÁǟįȶĨ	-7968
ƋȲİÁÁİÑȀƳį	-7969
ȐƳ	-7970
ȀÑƦĨƳ	-7971
ĨuȀÑ	-7972
ƳÁİŦ	-7973
ȶĨÁİƦĨ	-7974
NƋĨƦƳǟĨ	-7975
ĨȀįĨŻű	-7976
ĨƳįȶĨƳƋĨÑÌȶĨ	-7977
ĨİơİƦ	-7978
uȶȶįĨ	-7979
īĨİĨȍ	-7980
İÑȶĨƋ	-7981
uİÁȶĨÑȀÁȶ	-7982
II	-7983
ƳȲǐĨ	-7984
ĨȀÑŎuĨ	-7985
ȶęȍȲƳu	-7986
ȤĨ	-7987
ĨİDįƳ	-7988
īĨÑÌȶĨƋȀ	-7989
ĨƳƋĨÌȀuĨ	-7990
ĨȲȶƋÑĨ	-7991
ȶĨuǟȍȍƳ	-7992
ȶȲȶÁȶįÑİ	-7993
ȀįuÑȀÑǟ	-7994
öǟuÑĨÑÌȶĨ	-7995
İĨÌİ	-7996
İÁĨİį	-7997
ÑĨİÑÑİ	-7998
ĨįİÑȀ	-7999
ȀįŦĨÌȶ	-8000
ĨȀįÑƳĨu	-8001
İȲȍÌİDȶ	-8002
ĨİȀÁ	-8003
ĨȀÁÁȶ	-8004
ơȀÑÌĨƦƳǟ	-8005
ƅȀ	-8006
ĥĨÑÌİÑĨ	-8007
ǟuȶĨÑƳĨ	-8008
ÑĨÑ	-8009
ȀÑȀƳįİȲȲƦĨ	-8010
įĨÌƳơ	-8011
ĨȍȶƳȍȲȶĨİį	-8012
ÌĨơƳ	-8013
ÌĨȍİ	-8014
įȀİīĨ	-8015
ĨƋİÑÌȶ	-8016
uĨÑƳĨÌȶȲȍ	-8017
ȶęİÁȍȲȶuĨƳƋĨ	-8018
ȀÑǐ	-8019
ĥȲƦ	-8020
ƳÁȀįȶįÑĨ	-8021
ȀuÑȀįŦǟȀuÌ	-8022
ýƳƳȲ	-8023
ǟįį	-8024
ƳuȀÑȀ	-8025
ƋȀD	-8026
FĨȎ	-8027
ȶȶu	-8028
ĨǟuȶuĨ	-8029
ȶĨƤƳįÑ	-8030
ÐȎ	-8031
īĨįƳ	-8032
ȍƳȀįÑuĨ	-8033
ȲƳơȶuÑĨ	-8034
ƖȀDȲȶĨ	-8035
ǗİȀį	-8036
ȲȀÑÑȶ	-8037
ǐĨȭÌȶįĨÑÌȶĨ	-8038
ȀÑƦǐȎ	-8039
ÑƳƳÑÌĨ	-8040
ȀÑƦǐĨýÌȶĨ	-8041
ǐĨNÑĨȀuĨİĨ	-8042
ĨİuĨİĨȍ	-8043
ƳÁȶīĨ	-8044
İȍÑİÑȀƳį	-8045
ÌİȲȲȶįŦȶuĨ	-8046
İuuȶuuÁȶįÑĨ	-8047
ǐĨƤȲȀ	-8048
İįuĨİį	-8049
īĨÁİ	-8050
ȀÑľ	-8051
ƳȲǟÑȀƳįĨƳƋĨ	-8052
ȶȲuȶĨ	-8053
ƳÁĨƳįȶĨ	-8054
İȀȲİDȲȶĨÑƳĨ	-8055
ųƳİ	-8056
õƥĨ	-8057
ȀƳİ	-8058
Ôȶį	-8059
ƳÁȶĨÁƳ	-8060
İȀÑĨ	-8061
ǟuȶĨƳƋĨÑÌȶĨ	-8062
űƥƥ	-8063
ĨİįĨȀįÑȶ	-8064
uȶÑÑȲȶ	-8065
ȀuĨÑÌȶĨƋȀ	-8066
ĨǞ	-8067
ÑÌǡǟİĥ	-8068
İįİȲƦuȀuĨ	-8069
ĨƳįĨÑÌȀuĨ	-8070
ĨĀİ	-8071
żǐė	-8072
▁ȀȭÌİÑĨȀuĨ	-8073
ƳDİ	-8074
uĨÑÌȶ	-8075
įİÁȶǐ	-8076
ŦĨ	-8077
uǐȎý	-8078
İƦīĨÑÌȶĨ	-8079
ȀÑĨȀuĨįƳÑĨ	-8080
ĨƯȀu	-8081
ȶĨİȲơİƦuĨ	-8082
ĨȍȲİÑƋƳ	-8083
Żƥƥƥ	-8084
īĨȀÑĨơİuĨ	-8085
ȲİÑ	-8086
ƳÁĨƳ	-8087
ǐĨýÌȶį	-8088
İįÑuĨÑƳĨ	-8089
ƳÁȀįİÑȶ	-8090
ƳuȶȍÌĨ	-8091
ĨȍȶƳȍȲȶīĨ	-8092
ȶįȶuuĨƳƋĨ	-8093
ǨĨÌÑÑȍuǨÛÛ	-8094
ȀDDȶ	-8095
ȸįuơȶ	-8096
ȀDǟÑȶĨÑƳĨ	-8097
ÑǟįįȶȲ	-8098
ȶƋȀįȶĨ	-8099
ęȐ	-8100
ĥȶÑuĨ	-8101
ȶȍǟDȲȀ	-8102
Ƴǟuȶ	-8103
İįİĨ	-8104
ĨơȶİȲ	-8105
ȐÁİ	-8106
ĨƳƋĨƳǟ	-8107
ǟuÑİ	-8108
ƳįȎÑĨÌİ	-8109
ƖƳİ	-8110
ƳİuÑĨ	-8111
İơȀįŦĨ	-8112
ȀÑȀįŦĨİį	-8113
İįuÁȀuuȀƳįĨ	-8114
ýÌȀ	-8115
ƳĨuƳ	-8116
ǟȍȀÑȶ	-8117
ȍȲȶİuȶĨ	-8118
ȭȭ	-8119
żƥƥõ	-8120
İȍİįȶu	-8121
ĨÌȶĨơİuĨ	-8122
ȀįŦĨuÑƳ	-8123
ÌƳƳȲĨuÑǟ	-8124
ŦȲİu	-8125
ȶuǐĨNÑĨ	-8126
ĨơÌȀÑȶ	-8127
ȶĨDƦĨÑÌȶĨ	-8128
İÑȀƳįĨÑÌİÑĨ	-8129
ÑȶȲ	-8130
İÑȶuīĨ	-8131
ȶįÑȀƋƦ	-8132
īĨơȶ	-8133
ÁİÁÁİȲ	-8134
NƋĨƦƳǟĨİ	-8135
ǐĨƖǟÑĨÑÌȶĨ	-8136
ÑƳƳĥĨ	-8137
ȀįĨŻȹ	-8138
űŻ	-8139
ÑȀƳįuĨȀį	-8140
ĨuȶŦ	-8141
ȶİÑÁȶįÑĨƋƳ	-8142
ǐȎÀ	-8143
ǟuȶīĨ	-8144
uȀÑȶuĨ	-8145
ǟÁİįĨ	-8146
İȍÌƦīĨ	-8147
uȶǡǟȶįÑĨ	-8148
uĨƳƋĨÑÌȀuĨ	-8149
ƋȲȶ	-8150
ƦĨuÑǟ	-8151
ÑÌĨȶ	-8152
uǟȍȍȲƦĨ	-8153
ÁİÑȀƳįĨƋ	-8154
ŻȤėƥ	-8155
ĨÁƳu	-8156
ȀȲȲǟÁȀį	-8157
ƤƳįuȶ	-8158
ƖȀƳ	-8159
NuȲİ	-8160
ȀȶįÑȶ	-8161
ȲİuÑĨƦȶİ	-8162
ȶÁȶįÑĨƳƋĨÑÌȶĨ	-8163
uǐĨų	-8164
Ĩİuȍȶ	-8165
įĨİDƳǟÑĨÑÌȶĨ	-8166
ȶęǟİȲ	-8167
ƳįȎ	-8168
ȶuǟu	-8169
ĨuȀįŦȲȶĨ	-8170
ơÌȀÑȶ	-8171
ơÌȀȲȶĨÑÌȶĨ	-8172
İįuİ	-8173
ǟȍȀȶ	-8174
ƤȲȀÁİÑȶĨ	-8175
ȲİuÑȶ	-8176
ƳÁĨÑÌȶĨtįȀ	-8177
ĨĀȸ	-8178
ȶĨÑÌȀįĥ	-8179
ȶęİÁȍȲȶǐ	-8180
ƖƳƳĥĨ	-8181
ƳȲį	-8182
ȶĨƳƋĨÑÌȶȀ	-8183
ĨİŦİȀįuÑĨÑÌȶĨ	-8184
Żīƥƥƥ	-8185
ĨȱÑÌȶĨ	-8186
ÌĨơƳǟȲ	-8187
İįĨȶȲȶ	-8188
ĨżƥŻƥ	-8189
ȀİīĨİį	-8190
ĨȍÌȀȲƳuƳȍ	-8191
ÁĨİ	-8192
īĨżƥŻƥ	-8193
ĨƋİÁȀȲȀȶuĨ	-8194
ƳÁİu	-8195
ÑȀƳįǐĨ	-8196
ĨuȶÑÑȲȶ	-8197
İÑȀƳįuĨȀįĨ	-8198
ÑĨÑÌİÑĨÑÌȶĨ	-8199
ǐĨƤİ	-8200
ȀİįuĨİį	-8201
ȀÑǟİȲĨ	-8202
ȶįÑuĨơȀÑÌ	-8203
ȀÑƦĨȀįĨÑÌȶĨ	-8204
ȀÑȀƳįİȲȲƦīĨ	-8205
uĨİįĨİ	-8206
ȶĨơȀį	-8207
tįȀÑĨ	-8208
ÁİŦįȀÑǟ	-8209
ȶȀȲ	-8210
ǨĨć	-8211
uǐȎǶƳ	-8212
ȶĨƤƳǟ	-8213
ĥİŦ	-8214
ȲƦĨȀį	-8215
ÑĨȀuĨÑÌȶĨ	-8216
ÑÌȶȲ	-8217
ƳÁĨơÌȀ	-8218
ȍÁ	-8219
ÑĨƳǟ	-8220
ƳÁȍȶįu	-8221
ŦȀƋ	-8222
ǐȎƯǟ	-8223
ĨÑƳƳĥ	-8224
ǐȎȸȲȲ	-8225
ĥįȶ	-8226
ĨÁƳÑȀ	-8227
ƳÁȶĨȀį	-8228
ÌİįŦȶĨİį	-8229
ǶƳǟ	-8230
ȍİuÑĨ	-8231
ǟįÑȀȲĨÑÌȶĨ	-8232
DF	-8233
İƦǐ	-8234
ÑƳĨÌİ	-8235
ƳĥȶįĨ	-8236
ĨÔȲİ	-8237
ȍÌƳįȶĨ	-8238
İȲĨȀįÑȶ	-8239
ǟDöȶ	-8240
ǟÁīĨ	-8241
ĨȭȀȲȲȀİÁ	-8242
ÑÌǟ	-8243
ȀįÑİDȲȶĨ	-8244
ėŻ	-8245
ȱȸ	-8246
ȀÑƦȎ	-8247
ȶÁƳŦ	-8248
ȶȲȍÌȀ	-8249
NÑŎuĨ	-8250
ȶȲȀÁ	-8251
ÌȀİÑ	-8252
ĨuȲȀ	-8253
ȀįŦĨÑÌȶĨİ	-8254
ÌĨƳįĨ	-8255
İȲȍ	-8256
ȀƳǟuĨİį	-8257
ÑuĨƳƋĨu	-8258
ƨĨƤ	-8259
ĨȍƳȶÁ	-8260
ȶuǨ	-8261
ȶuuȀƳįĨƳƋĨ	-8262
ƦÁȍ	-8263
İȲǟȶĨ	-8264
uīĨİuĨơȶȲȲĨİuĨ	-8265
ĨƋƳȲ	-8266
ƳDȲȶÁĨuƳȲ	-8267
ȀuÌĨİį	-8268
ĨĥȀȲƳÁȶÑȶ	-8269
uǐĨȭȶĨ	-8270
ȀDǟÑȀƳįĨ	-8271
ĥĨƳǟÑĨÑÌȶĨ	-8272
ƥȹ	-8273
ÌǟÁȀ	-8274
ȶįÑuĨơȶ	-8275
īĨżƥŻż	-8276
▁ơȀÑ	-8277
ȶĨƳįȶĨ	-8278
ȶĨȀuĨȍ	-8279
ǟuǟİȲ	-8280
ÑİǟŦÌÑĨ	-8281
ȶĨȍǟDȲȀ	-8282
ȶİÑƳ	-8283
ŦȶÑĨİĨ	-8284
ȲİuuȶuĨ	-8285
İȲȀİĨ	-8286
ȀŦÌÑȐ	-8287
ƤÌİȍÑȶ	-8288
ƳÁȍǟÑ	-8289
ȶȲƦĨİ	-8290
ÑơƳĨƦȶİ	-8291
ĨơİuĨDƳ	-8292
ƳįuȀuÑȀįŦĨ	-8293
ƋȀįŦȶ	-8294
▁ȶÑĨ	-8295
Ƴįİǟ	-8296
İįĨDȶĨÑ	-8297
ȶİȲȀuÑȀ	-8298
ȲȶįÑƦĨƳƋĨ	-8299
ĨȀuĨİĨȍ	-8300
İįĨȀÁȍ	-8301
ȎŻ	-8302
ėīĨ	-8303
ƳĨÑÌȶĨ	-8304
ȶuuīĨİį	-8305
ÏįÑİ	-8306
ÁİįȀȍ	-8307
ĨȍƳuÑȶ	-8308
İȍȶǟÑȀ	-8309
ĨDȶĨİDȲȶĨÑƳĨ	-8310
ĨȍǟȍȀȲ	-8311
İÑȀƳįǐĨ	-8312
ȶĨƤƳÁÁƳį	-8313
Ưć	-8314
İÑȶuĨİ	-8315
ǐĨȭȶĨİ	-8316
▁ÌƳǟȲ	-8317
ÑīĨơÌȀ	-8318
ƳÁDİÑĨ	-8319
ȀȍİȲĨ	-8320
ȸýNÏĀ	-8321
ĨÑÌȶĨȍǟ	-8322
ÑƳÁȀ	-8323
ĨơÌƦ	-8324
ȶȶĨƋ	-8325
ȶȐDİuȶ	-8326
ǐż	-8327
uȀÑȀ	-8328
ƳįuĨİį	-8329
ȶuÌơİÑȶ	-8330
ĨȍȶÑ	-8331
ĨÁİÑÑȶ	-8332
Ǩõƥ	-8333
ȶĨơȶD	-8334
ơȶuÑ	-8335
ĨơİįÑȶ	-8336
ȍȲİįȶÑĨ	-8337
İȲĨuÑİ	-8338
ȀįȶuuĨ	-8339
ȶÁDȲȶĨ	-8340
İƦĨÑÌȶĨ	-8341
ȶÁDȲȶ	-8342
ȸDƳǟÑĨ	-8343
İuȶĨuÑǟ	-8344
uÑȐ	-8345
ƳȲȍ	-8346
uĨơȀÑÌĨİĨ	-8347
ĨȸD	-8348
uǐĨȭȀÑÌ	-8349
İȲǟȶ	-8350
Ôȶİ	-8351
ĨuƳįŦ	-8352
ĨȍİÑȀȶįÑ	-8353
ȶİÑĨÑÌȶĨ	-8354
ƳÁĨƋ	-8355
ǐĨƖİ	-8356
ȶȍǟ	-8357
ĨİơİƦĨƋ	-8358
ÌİȲƋĨƳƋĨÑÌȶĨ	-8359
ȶĨDƳƳĥ	-8360
Ȥõ	-8361
uǡǟİ	-8362
İȲĨȀįƋƳ	-8363
ƳȍǟȲ	-8364
ȶuƳ	-8365
ŻȤȤű	-8366
ƦĨƋİ	-8367
ŦİȀįȶ	-8368
ƋƳƳÑĨ	-8369
Ǘİuuİ	-8370
ĆİȲ	-8371
ĨȍȀȍ	-8372
FĨƳƋĨ	-8373
ƳÁȍȶÑȀÑȀ	-8374
ǐŻ	-8375
ÁĨȀuĨ	-8376
ȀÑȀȶuĨÑÌİÑĨ	-8377
ȀįĨƖ	-8378
ȶĨİŦ	-8379
ȲƳįŦĨİį	-8380
ȀÑȀƳįuĨİį	-8381
ÌįȀǡǟȶu	-8382
ȀįŦĨÑÌȶĨƋȀ	-8383
īĨİĨu	-8384
ÑİĨ	-8385
ȀÑǟİÑȶ	-8386
İÑȀƳįuĨȀį	-8387
DĨ	-8388
ȭȶȲȲ	-8389
İįĨƋƳ	-8390
ųĨ	-8391
ÑÌȶƦĨơȶ	-8392
ȶȲĨȀuĨ	-8393
uǐĨÏ	-8394
ĨuİƦĨ	-8395
ĥĨÑƳŦȶÑÌȶ	-8396
ȀįĨȱ	-8397
īĨơȀÑÌĨÑÌȶĨ	-8398
ǟuÑİȀįİDȀȲȀÑƦĨ	-8399
uǐȎÅ	-8400
İįuȍȲİį	-8401
ȶĨǗİ	-8402
NƋĨƦƳǟĨÌİ	-8403
ȍƳuÑ	-8404
ÌȶuÑĨ	-8405
uǐȎƖ	-8406
Ʀǟ	-8407
uÌȶȲȲ	-8408
▁ǟu	-8409
ĨÑƦȍȀ	-8410
ǐĨȸįƳÑÌȶ	-8411
ȲȶĨu	-8412
ĨȀįĨĀƳ	-8413
ĨÑƳĨȶİ	-8414
İÁĨȀuĨ	-8415
ĥơİ	-8416
ĨƋȲǟȀ	-8417
ȀȍÑȀƳįĨ	-8418
ĨDƦĨƯ	-8419
ƳȲȲȀu	-8420
ĨųȀŦÌÑuĨ	-8421
ȶįĨİĨ	-8422
īĨÑÌȶu	-8423
ÁİÑȀƳįĨƳįĨÑÌȶĨ	-8424
İƦǐȎ	-8425
ĨÁİįįȶ	-8426
īĨNį	-8427
ȶįİDȲȶuĨ	-8428
İįĨÑİĥȶĨ	-8429
İŦȀ	-8430
ÌȶuÑ	-8431
ǐĨȸįĨ	-8432
ȀįŦuĨƳƋĨÑÌȶĨ	-8433
ȭÌȶ	-8434
ơȀƋ	-8435
uȎȎ	-8436
DƳÑÑ	-8437
ĥİŦȶĨ	-8438
tÔ	-8439
ĨÁǟȲÑȀȍ	-8440
▁ǟÁÁİ	-8441
▁ȀĀ	-8442
ÑƳĨÑ	-8443
ƯN	-8444
ƳǟuĨİ	-8445
ǟuȀƳįĨ	-8446
İȲȀľ	-8447
ƳįȲƦ	-8448
ȶǐĨÔ	-8449
ÁȶÑİȲĨ	-8450
ȀįŦĨÑƳĨu	-8451
İȲȶuĨ	-8452
ƳÁȍȲİ	-8453
ÑĨȸ	-8454
İįÑuĨİį	-8455
Ĩƅȶİ	-8456
ƦĨƳǟÑĨ	-8457
ƳÁȀuȶ	-8458
ȲƳƳÁ	-8459
įuĨİį	-8460
ƋȲƦ	-8461
ǐĨýÌȶƦĨơȶ	-8462
ƦİĨ	-8463
ǨȎȸ	-8464
ƳȍȍƳuȶ	-8465
ǐĨȭȶĨÌİ	-8466
uȶȶĨÑÌȶĨ	-8467
ȀȲȲįȶuu	-8468
ĨżÀ	-8469
ȀİȲuĨİ	-8470
ĥȲİ	-8471
ȶuuȀƳįĨİį	-8472
İȲĨuǟ	-8473
uīĨİuĨ	-8474
ƳÁȍƳįȶįÑĨ	-8475
RćƯ	-8476
İÑȀįŦĨuƦuÑȶÁ	-8477
ơÌȶįĨȀÑĨ	-8478
ƦĨİDƳǟÑĨ	-8479
ĨƿĨ	-8480
ȶÌƦ	-8481
Ƴȍȶİį	-8482
ȶǐȎýÌȀuĨ	-8483
ÏƤ	-8484
ȶȲƳȍÁȶįÑĨƳƋĨÑÌȶĨ	-8485
uīĨÑ	-8486
ȀİÑȀƳįuĨ	-8487
ĨİDǟį	-8488
żǐĨ	-8489
ȀįĨƋ	-8490
ĨȶęİÁ	-8491
İŦƳĨ	-8492
ȲȀŦÌÑĨİį	-8493
ĨŻÛ	-8494
ĨƳƋĨÑ	-8495
uǐĨưƳǟ	-8496
ĨơȀȲȲĨȍ	-8497
ÑÌơȶuÑĨ	-8498
ĨƳǟÑĨÁƳ	-8499
ǐǐǐǐ	-8500
ȀįĨȀÑuĨ	-8501
İƦĨÑÌİÑĨ	-8502
DƳƳĥĨȀuĨ	-8503
Ĩȱȸ	-8504
ȶįĨƦȶİ	-8505
ƳĨİ	-8506
ƳƳÑuĨ	-8507
ȶÑÑȶĨ	-8508
İȲȲȶƦĨ	-8509
ĨƳƋĨÑÌȶĨȍ	-8510
ĨuȀÑȶĨ	-8511
ȶĨȀįÑƳĨÑÌȶĨ	-8512
ĨȀįĨȶ	-8513
ȶǐŦǐīĨ	-8514
ȶĨĥįƳơį	-8515
ȶȲȲƳơĨ	-8516
ǐĨƤÌȀȲ	-8517
ÑuĨİDƳǟÑĨ	-8518
ǟİÑȶĨ	-8519
ȶįÑȀÑƦ	-8520
ĨÑÌȶĨƋƳȲȲƳơȀįŦĨ	-8521
ĨuÁİȲȲȶ	-8522
ÁȀęÑǟ	-8523
ƳÁȍǟÑİÑȀƳį	-8524
IĨN	-8525
ƦƳǟĨÁİƦĨ	-8526
İDǟį	-8527
uÑƦȲȶĨ	-8528
Áİuu	-8529
Dǟu	-8530
ĨÁȶİȲ	-8531
ȶĨƤȶįÑȶ	-8532
ȶęȍȲİȀįuĨ	-8533
ĨƋİu	-8534
ȶĨįȶơ	-8535
ýȶį	-8536
ƳÁȶĨÑÌȶĨ	-8537
ƳŦȀ	-8538
ĨȀįĨÑȶ	-8539
ĨơÌȶįĨÑÌȶƦĨ	-8540
ĨƋȀDȶ	-8541
ǟDȲȀuÌ	-8542
ĨDİȲȲ	-8543
ƳÁȍİÑȀ	-8544
ȲȶÁȶįÑuĨ	-8545
ȭȶuÑ	-8546
ĨơÌƳĨİ	-8547
ĨȀįĨÔ	-8548
ŦȲƳDİȲĨơİ	-8549
ÌȀDȀÑ	-8550
ĨŦƳȲ	-8551
ȀÑƦǐ	-8552
ÌȶĨÌİ	-8553
DƳįȶĨ	-8554
ĨƳƋĨȍȶƳȍȲȶĨ	-8555
ưƳ	-8556
İįĨȱ	-8557
ƳÁĨÔ	-8558
ȶĨDȶÑÑȶ	-8559
ƳÁȍƳįȶįÑ	-8560
ėF	-8561
ǐĨȭƳ	-8562
İuĨÁǟ	-8563
DȶȀįŦĨİ	-8564
ĨuİÁȍ	-8565
ĨÁƳȲ	-8566
uƳįŦ	-8567
ȶuÑİǟ	-8568
ĨȲİįŦǟİŦȶ	-8569
ȶįÑuĨȲȶİ	-8570
uǟŦŦȶuÑȶ	-8571
ȶİuƳįĨƋƳ	-8572
uǐĨýÌȶƦĨİ	-8573
ȀƋĨÑÌȶƦĨ	-8574
ÁȶȶÑĨÑÌȶĨ	-8575
ÑĨȶ	-8576
ȶĨȀįĨÑÌȶȀ	-8577
įĨćǟ	-8578
īĨİƋÑȶ	-8579
ȲȀŦÌÑīĨ	-8580
ĨÁȀȲȲ	-8581
ƳDȶ	-8582
ƅýǗR	-8583
ÑȶuÑuĨ	-8584
ȶuİ	-8585
İÑȀƳ	-8586
ƦDȶĨ	-8587
ȶĨȍȲİƦȶ	-8588
uĨȲȀ	-8589
▁ÑİÑȶuĨİį	-8590
uȶĨƳƋĨÑÌȶĨ	-8591
İÑȀƳįuĨÑƳĨ	-8592
ƅƳÁȶĨ	-8593
ȀİÁƳį	-8594
ƳÁÁȀuuȀƳįȶ	-8595
İÑȀįŦĨİį	-8596
▁5	-8597
ȶÁİȀįȀįŦĨ	-8598
ȀuĨİįĨ	-8599
ȶĨȍǟDȲȀuÌȶ	-8600
ǗȀįȀuÑȶ	-8601
ƳȍȍƳuȀÑȶĨ	-8602
Ïȭ	-8603
ȀįĨÑÌȶĨİ	-8604
ŦƳÑȀ	-8605
ĨÑÌȶÁĨ	-8606
ǐȎNįĨ	-8607
ƋƳȲȀ	-8608
ȶęİÁȍȲȶǐƳ	-8609
ȍȶİ	-8610
ȶĨȀįƋȶ	-8611
ǟDD	-8612
Ĩöǟ	-8613
ųİį	-8614
ÐȎȐĨ	-8615
ƳįƋǟuȶ	-8616
ƦīĨİ	-8617
ƳÁĨƖ	-8618
ȲİuÑįİÁȶ	-8619
ÁİȀįÑİȀįȶ	-8620
řȶƦơƳ	-8621
ƋȀįȀuÌȶ	-8622
ȶȲİÑȀƳįuĨ	-8623
ÁİÑĨ	-8624
ĨǶƳƳ	-8625
İÑȀƳĨ	-8626
ȲȀƋȶȐ	-8627
ǨĨȎ	-8628
Ćǟİ	-8629
İƦuĨİį	-8630
uÑįİÁȶǐ	-8631
ƦÑȶ	-8632
ȶİuĨƳƋĨÑÌȶĨ	-8633
ÌȀľ	-8634
ÌȶĨȀuĨ	-8635
ĨÑƳĨİį	-8636
İDȲȶĨİį	-8637
uÑįİÁȶǐȲİuÑįİÁȶ	-8638
DȀƳŦ	-8639
ȶĨȀÁȍİ	-8640
ȶĨįİÑǟ	-8641
ÁƳǟį	-8642
ĨƋİȀ	-8643
İȲĨuÑƳ	-8644
ȹż	-8645
Rİĥ	-8646
ŻȤõƥ	-8647
İÑĨİį	-8648
ƳÁÁȶįÑĨ	-8649
ĥǟ	-8650
ȶĨNį	-8651
ŦȀįȀİ	-8652
ǐȎǗİ	-8653
ĨƤȀ	-8654
ƳÁĨÌȀuĨ	-8655
ȀƋĨ	-8656
ĨİȍȍȲȀȶ	-8657
īĨÑÌǟuĨ	-8658
īĨơȶĨÌİ	-8659
ȀŦŦ	-8660
▁ÑǐĨ	-8661
ǟÁĨİį	-8662
ȶįĨƳƋĨ	-8663
ȶȲȀįȶuĨ	-8664
ÌĨuȶ	-8665
ǟįȀÑuĨ	-8666
ȀŦȀįİȲ	-8667
Ȏu	-8668
ƋȀę	-8669
öƳȀįÑ	-8670
ĨDƦĨu	-8671
İuuǟÁ	-8672
ÔƳȀįÑĨ	-8673
ÌƦÁ	-8674
ǰǟİ	-8675
ÁƦÑÌ	-8676
ĨơȀuÌ	-8677
İÑÌ	-8678
ƳǟȍȲȶĨƳƋĨ	-8679
▁İįĨǶ	-8680
İÁīĨ	-8681
ƳȲȀįİ	-8682
İÑȶuĨƳƋĨ	-8683
ćǡǟ	-8684
ĨǶȀį	-8685
ÁȶįÑȶ	-8686
ȀDǟÑƳ	-8687
ÑİĥȶįĨƋ	-8688
ȶĨȍƳuȀÑȀ	-8689
ÑȀƳįĨơȀÑÌ	-8690
ƖĨ	-8691
ÁİƦĨȀį	-8692
Ȁȍȶ	-8693
ÑuĨİĨ	-8694
ȶȲĨƋƳ	-8695
ȶĨDƳÑÌ	-8696
ƦĨuǟ	-8697
ƳÁȶĨǟȍ	-8698
ȀÑȀƳįĨÑƳĨÑÌȶĨ	-8699
ĨĥŦ	-8700
ȲƦĨƋƳ	-8701
ÑƳĨÑÌ	-8702
ĨȸȲȲ	-8703
ȀƳǟuĨȍ	-8704
ǡǟȀľ	-8705
ȶuȶÁD	-8706
DȀȲȀÑƦĨƳƋĨ	-8707
ĨÑƳĨÁİĥ	-8708
ĨuÁİ	-8709
ĨuÌȶȲȲ	-8710
ÌĨÁȶİįuĨ	-8711
ĨǟuȶĨƳƋĨ	-8712
ÑİŦȶĨ	-8713
ĨĆȶƳ	-8714
ĨŦƳİȲ	-8715
ÑİȲĥȀįŦ	-8716
ÁƳuÑĨȍ	-8717
ŻȤȤĭ	-8718
ǐȎýÌȶuȶĨ	-8719
DİŦ	-8720
īĨżƥŻű	-8721
RȶuuƳįĨ	-8722
▁Ȳİ	-8723
ǗƳǟįÑİȀį	-8724
ƳįŦǟ	-8725
ȎĨÑÌȶĨ	-8726
ÁĨİĨ	-8727
ĨİĨơȀ	-8728
ȀDȲƦĨ	-8729
ȶĨİįȀÁİȲ	-8730
ĨȍİÑȀȶįÑĨ	-8731
İįŦȶĨƋ	-8732
ȀįŦĨİȀ	-8733
ĥįƳơĨÑÌȶĨ	-8734
ƥű	-8735
ÑÌȶȐ	-8736
ĨÁƳÁ	-8737
İÁƳǟįÑuĨƳƋĨ	-8738
ǟuĨƳį	-8739
ȶįŦİŦ	-8740
ĨÑÌȀįĥĨİDƳǟÑĨ	-8741
ƋİȲ	-8742
ƯȀȶ	-8743
ĨDƳƳĥĨ	-8744
ȶȶuĨİį	-8745
İȲȲīĨ	-8746
ǟuĨƳƋĨ	-8747
İȲĨȍƳơȶ	-8748
ÑÌȶơ	-8749
ơȶDuȀÑ	-8750
ĨȍȲİįȶÑ	-8751
uĨȀįĨÑÌȀuĨ	-8752
ǐȎtį	-8753
İįľ	-8754
ȶĨƦƳǟĨÌİ	-8755
Ĩȸuu	-8756
ƦƳǟįŦȶ	-8757
uĨuÑİ	-8758
ĨƳǟÑĨÑÌȶĨ	-8759
ÑĨÁƳ	-8760
ƋȲǟƳ	-8761
ȀȍȲ	-8762
İȲȶÁ	-8763
İȲĨÁȶ	-8764
ƦĨȲȶİ	-8765
ĨƯȀuȶİuȶĨƤƳįÑ	-8766
ÑÌȀuĨȍ	-8767
ǐȎųȶuȶİ	-8768
DȶȲȲ	-8769
ĨȱŻȤ	-8770
ƅȀuĨ	-8771
ĨȍǐÁ	-8772
ƳįŦƳ	-8773
ĨÑƳĨuÑǟ	-8774
īĨơÌȀȲȶĨÑÌȶĨ	-8775
ƤÌȶÁ	-8776
ȶĨÑÌȶį	-8777
ÁİȀįÑȶįİį	-8778
ÔR	-8779
ȀuĨÑÌȶĨȍ	-8780
ĥuǐȎ	-8781
ȶĨƳƋĨÑÌȶĨȍ	-8782
▁İȀįÑĨ	-8783
ÑİÑȶ	-8784
ȀįĨƤ	-8785
ȶuȍȀÑ	-8786
įȶơĨÑȶ	-8787
ǨĨR	-8788
ǐĨýÌȶįĨ	-8789
ĨÔǟDȲȀ	-8790
Ȏųȶ	-8791
ǟįȀuÌ	-8792
ȀuȀuĨ	-8793
ȶĨuǟŦŦ	-8794
ĨȶįÑȀ	-8795
ĨNįƋƳ	-8796
ĨȱŻȹ	-8797
\5	-8798
ĨǟuȶĨÑÌȶĨ	-8799
ĨȍƳuÑĨ	-8800
ȲƦĨÑƳĨ	-8801
ȲƦȐ	-8802
uĨȀįĨƦƳǟ	-8803
ÑƳÁİ	-8804
ǗƳƳį	-8805
ƳįȶĨȀį	-8806
ȀįŦĨDƦĨ	-8807
ȶĨȀįÑȶį	-8808
uĨơÌƳĨİ	-8809
ĨýȀÁ	-8810
įȶuÑĨ	-8811
ȀȶuǐĨ	-8812
uÑĨuÑȶȍ	-8813
ƦĨƯ	-8814
ȶįİȀuuİį	-8815
▁ǐĨƯ	-8816
uĥȀįĨ	-8817
ǟÁǟȲİ	-8818
ơȀȲȲĨįƳÑĨ	-8819
ÑuĨƳį	-8820
İȲĨȍǟDȲȀ	-8821
ƋȶơĨ	-8822
ĨÁȀȲȲȀƳįĨȍȶƳȍȲȶĨ	-8823
ȸȲDȶ	-8824
Ȑý	-8825
ÁƳįȶƦ	-8826
ȶęİÁȍȲȶĨƳƋĨ	-8827
ȀįŦĨȸ	-8828
ǗĨ	-8829
İȲǟİÑȀƳį	-8830
uÑĨÑƳĨ	-8831
ơȶDuȀÑȶĨ	-8832
ȀįŦĨÑƳĨİ	-8833
Żżƥ	-8834
ÌİȀįĨ	-8835
▁ȀưƳǟ	-8836
İįȐȸÁȶ	-8837
ǐȶ	-8838
ÌĨȶ	-8839
ǐȎųȶİ	-8840
ĨÌƳǟuȶÌƳȲ	-8841
ĨƯĀȸ	-8842
İÑÑȀÑǟ	-8843
ĨĀİÑǟ	-8844
ǟuÌȀįŦĨ	-8845
ȶİuȶuĨÑÌȶĨ	-8846
ÏȍȶįĨ	-8847
ƨĨƅƳơĨ	-8848
«5	-8849
īĨİÑĨ	-8850
ȀȶÑƦīĨ	-8851
ÌİDȀÑİÑ	-8852
ĨȍȲİÑȶ	-8853
uƳȲǟ	-8854
DİȲ	-8855
uīĨȶÑ	-8856
ȀįĨÌȀuĨ	-8857
ÑǟDȶĨ	-8858
ƳİuÑİȲĨ	-8859
ǗȀįįȶuƳÑİ	-8860
įİȀ	-8861
ƋȀęȶ	-8862
İÑƳÁ	-8863
ĨơȀÑÌȀį	-8864
ǗƦ	-8865
ǨĨĆ	-8866
ƳƋĨȍȲİį	-8867
NĨİÁ	-8868
ÑȶȲȶu	-8869
ĀǟÑ	-8870
ȶȶuīĨ	-8871
ȐDƦȐ	-8872
ÌȶuĨİ	-8873
ȶįuǟuĨ	-8874
ȸȲľÌȶȀÁȶ	-8875
ǗȶÑ	-8876
ÁȶÁD	-8877
İįuĨİ	-8878
Ïȍȶ	-8879
ȶĨİįÑȀ	-8880
ÑƳDİ	-8881
İÑȶuĨÑÌİÑĨ	-8882
ÑƳu	-8883
ƦĨÑÌȀuĨ	-8884
īȎĨuİƦuĨ	-8885
ǐȎƖȶ	-8886
ȀÑįȶuuĨ	-8887
ųý	-8888
ÑİȲȀÑƦĨ	-8889
ĨÑÌȶĨơİ	-8890
öǟu	-8891
īĨơȶĨİ	-8892
İuÑȀįŦĨ	-8893
ǐõ	-8894
ÌĨİuĨİĨ	-8895
ȶĨuÑİÑȶ	-8896
ȶĨÑƳĨuȶ	-8897
ÌÁȶįÑĨ	-8898
Åȸ	-8899
▁ǐĨƤ	-8900
uĨuÌƳơ	-8901
İȲȀİį	-8902
ĨuǟÁÁİ	-8903
ȀŦȀ	-8904
īĨżƥŻĭ	-8905
ƳƋĨȍƳ	-8906
ĨÌȀŦÌȐ	-8907
ȀįÑƳĨİ	-8908
tuǟ	-8909
ơÌȶȶȲ	-8910
ȶĨÁȀȲ	-8911
İǟÁİÑȀ	-8912
ƳÁȍȲȶÑ	-8913
ȶuĨȀįÑƳĨ	-8914
ƳÌȀD	-8915
ǟįȀƋƳ	-8916
ĨDǟuȀį	-8917
ĨơȶDuȀÑȶĨ	-8918
Ôć	-8919
ƦÅ	-8920
ĨuÑƦ	-8921
ÁȀįȶĨ	-8922
ĨuȶįuȀÑȀ	-8923
īĨÌȶ	-8924
ȶĨÑƦȍȀ	-8925
ȶįŦȀįȶĨ	-8926
ȀÑȀƳįuīĨ	-8927
NȲȲȀįƳ	-8928
ĨȀįĨÁƳ	-8929
ȸN	-8930
İįĨƋ	-8931
ĨuǟŦŦȶu	-8932
ǨĨýÌȀuĨ	-8933
İƦuĨƳƋĨ	-8934
ĨÑÌȶĨÌȶİ	-8935
ĨơÌȶįĨȀÑĨ	-8936
ĨȲȶƋ	-8937
ƤƳÁÁȀÑÑȶ	-8938
ǟuĨƳįĨÑÌȶĨ	-8939
ȶuĥ	-8940
İȍȀÑ	-8941
ĨȀuĨÁƳ	-8942
ÑƦĨİ	-8943
ǐĨÏįȶĨ	-8944
İŦİȀįuÑĨÑÌȶĨ	-8945
▁ǟȍȍ	-8946
ĨƳƋĨŦ	-8947
ȍƳȍǟȲİÑȀƳįĨ	-8948
RƯ	-8949
ƥė	-8950
ȐDƳ	-8951
Ȁįĥȶ	-8952
ĨÌȀÁuȶȲƋ	-8953
ĨȀįĨuƳÁȶĨ	-8954
İȲĨȍǟ	-8955
ÑİįÑĨȍİ	-8956
ȶȶįÌƳǟuȶĨŦİuĨ	-8957
ĀȶÑÌȶ	-8958
ÌĨȀÑĨ	-8959
ŦȶÑĨÑƳĨ	-8960
İÑȶĨÑÌȶȀ	-8961
ȤÀ	-8962
uĨơȶĨ	-8963
ȲİÁȍ	-8964
uīĨŦ	-8965
ƳȲƳįȀİȲĨ	-8966
▁Ȁę	-8967
İĨuȶ	-8968
İÑȀƳįuĨƳƋĨÑÌȶĨ	-8969
ĨÑÌȶĨįȶơ	-8970
ǨĨÌÑÑȍǨÛÛơơơǐ	-8971
ƦƳǟĨÁȀŦÌÑĨ	-8972
ÑȀƳįuĨȱ	-8973
İȲŦİ	-8974
ÌƳơĨÁİįƦĨ	-8975
▁Ć	-8976
ȲȀÁȀÑĨ	-8977
ĨÌƳơĨÑÌȶƦĨ	-8978
Ȑȸ	-8979
ȶİÁĨ	-8980
ƳįȶǐȎ	-8981
ĨơİƦuĨ	-8982
ȶİÑȶĨÑÌȶĨ	-8983
uĨDȶÑơȶȶįĨ	-8984
ȎǗİ	-8985
ǟȍÑȶ	-8986
ȶuÑȀÁİÑȶĨ	-8987
Ȳȶuuȶ	-8988
ȶįÑuĨƋ	-8989
ÁİŦȀ	-8990
ĨȀįĨǶ	-8991
NįĨÑÌȀuĨ	-8992
ĨÑÌȶĨơİÑȶ	-8993
ƥõ	-8994
ȎƋ	-8995
ȶƋȀįȀÑȶȲƦĨ	-8996
ƦƨȎ	-8997
īĨƳƋĨ	-8998
ǐĨƖƳÑÌ	-8999
ȶuĨÑÌİÑĨÑÌȶĨ	-9000
ǐĨNƋĨƦƳǟĨİ	-9001
ƖİuȀ	-9002
ƳƋƳǟį	-9003
ǗƳįÑÌ	-9004
ƳįÑȀįȶįÑ	-9005
ĨǗǟuȶǟÁ	-9006
ȶįŦÑÌĨƳƋĨÑÌȶĨ	-9007
ĨƳƋĨȶİ	-9008
ĨȸuuƳ	-9009
ƅƳȲƳ	-9010
ƤƳÁÁȀuuȀƳį	-9011
İĨÁƳ	-9012
ÑĨÌİuĨ	-9013
ƳįȶĨȀįĨ	-9014
ÑuĨÑÌİÑĨİ	-9015
ǟuİȲȶÁ	-9016
ƦĨć	-9017
ȐĨÑÌȶĨ	-9018
ĨİDuÑ	-9019
ƳįȶĨȍ	-9020
ȀuuȀuuȀȍȍȀ	-9021
įƳÑĨÑƳĨ	-9022
ȶuÑuĨİį	-9023
ƳȍÌƳ	-9024
ȀȍȲȶuĨƳƋĨ	-9025
ÑƳĨuÑ	-9026
īĨuƳÁȶ	-9027
ƳDȶȲ	-9028
ÑƳÁĨ	-9029
ĨÔǗ	-9030
İįƳĨ	-9031
ƳÁȍǟÑȀįŦĨ	-9032
ȲƳįŦĨİuĨ	-9033
İǟuȶĨȀÑĨȀuĨ	-9034
ǨĨȱ	-9035
Ȁİu	-9036
ȶuǟȲÑīĨ	-9037
ǐĨýÌȶĨuÑǟ	-9038
įİĥ	-9039
uĨƦƳǟĨ	-9040
ȀįŦĨơÌİÑĨ	-9041
ÁƳǟuĨ	-9042
ĨÔÌƦuȀ	-9043
ơÌȶįĨÑÌȶƦĨ	-9044
ĥǐĨ	-9045
ÑĨD	-9046
uÑĨƳƋĨ	-9047
ĨȶęÑȶįuȀ	-9048
uǐĨȱ	-9049
▁Ȳȶȶȍ	-9050
ȶuuĨÑƳĨÑÌȶĨ	-9051
ÑĨƖ	-9052
İÑƳÁȀ	-9053
ƳơįĨÑƳĨ	-9054
ƳįÑĨƳƋĨÑÌȶĨ	-9055
ĥȶȶȍĨƦƳǟ	-9056
Āý	-9057
ƦuÑİȲ	-9058
ȀuĨİĨŦ	-9059
İįȀÁİȲĨ	-9060
ȀuÑȀįŦǟȀuÌȶ	-9061
żÛ	-9062
ĨȸŦ	-9063
▁ÑȀȲȲ	-9064
ĨơȶuÑȶ	-9065
įȶuuĨƳƋĨ	-9066
ĨDȶįȶƋȀÑuĨ	-9067
ȶȲƦĨİį	-9068
ǐĨNÑĨȀuĨÑÌȶĨ	-9069
ȀȶįÑȲƦĨ	-9070
ȀİįuīĨ	-9071
uĨȸįŦȶȲ	-9072
įƳȀu	-9073
NÁİŦ	-9074
ơȀÑÌȀįĨ	-9075
ȀÑĨȀuĨȀÁȍƳ	-9076
ƦǐȎȸ	-9077
ǟuȀįŦĨİ	-9078
ÑĨuȶ	-9079
ĨȲȀĥȶȲƦĨ	-9080
ÑİįȀ	-9081
ȶÌȶįuȀƳį	-9082
ȶŦƳ	-9083
uǐĨR	-9084
ȶİÑÌȀįŦĨ	-9085
ĨƯȀuÑ	-9086
ĨȶįÑ	-9087
ȀįŦĨƋİ	-9088
ȀİDȲȶuĨ	-9089
ƳÁȍȶÑȶį	-9090
ơÌȶȲ	-9091
ƳȲȲȀį	-9092
ȲȲƳơĨ	-9093
ȶįÑuĨơȀȲȲĨ	-9094
ĆǟȲƋ	-9095
ȀįĨÑÌȶĨƋƳ	-9096
ȎȐĨý	-9097
ȀįŦǐȎȐĨ	-9098
▁ǟuÑİȀįİDȲȶĨ	-9099
uǐĨýÌȶĨȍ	-9100
Ïř	-9101
Ôİĥ	-9102
ĨƦƳǟĨįȶȶ	-9103
ȀİįİĨ	-9104
İįĨİƋƋȶ	-9105
ĨȀįĨÑÌȶĨƋƳ	-9106
ĨơȶȎ	-9107
ȶįľƦÁ	-9108
ÁƳuÑĨƳƋĨ	-9109
ƳÁİȀįĨ	-9110
ȀİȲĨƳ	-9111
ǟÑÑȀįŦ	-9112
uĨÑÌȶĨȍ	-9113
ĨuÑȀÁ	-9114
ĨÑƳÑİȲĨ	-9115
ȀȶơuĨ	-9116
ȶuuĨÑÌİÑĨ	-9117
İȲĨć	-9118
ȲǟuȀƳįĨ	-9119
ǐÅȎýÌȶĨ	-9120
İơĨ	-9121
ƳơȶȲ	-9122
ųǟuuȀİįĨ	-9123
DƳÑÑƳÁĨƳƋĨÑÌȶĨ	-9124
ĨDȀȲȲ	-9125
ȀÑȀȶuīĨİį	-9126
ƳȀįÑĨ	-9127
īĨżƥŻė	-9128
ÑƳĨİĨu	-9129
ĨȀuĨİȲuƳĨ	-9130
ȲȶĨƳ	-9131
uĨÑƳĨD	-9132
ĨİĨƦȶİ	-9133
ƦĨÑƳĨÑÌȶĨ	-9134
ȶuuǐ	-9135
ȶĨp	-9136
ȀÑƦĨİ	-9137
ȶĨǟuĨ	-9138
ȀįŦĨÁȶ	-9139
ȎưƳǟ	-9140
ƨȎȎ	-9141
İįȀİ	-9142
ƦĨƳƋĨu	-9143
ȶuǐĨǶƳ	-9144
īĨuÑ	-9145
ƋǟįŦ	-9146
ÌƳƳȲuĨİį	-9147
NÁİ	-9148
İįȀȶȲ	-9149
ȀįŦȀįŦĨ	-9150
uÑĨŦ	-9151
ȶĨįȶİ	-9152
İÁuĨİį	-9153
ȶİȲȀľȶ	-9154
ƳįȶĨDƦĨ	-9155
ÑİȲĥĨİDƳǟÑĨ	-9156
ȭƅÏ	-9157
ĨuȀŦįİȲ	-9158
ȶĨƋȶİÑǟ	-9159
ĨÑÌİÑĨÌİuĨ	-9160
uĨİȲuƳĨ	-9161
ĨƳƋĨȶ	-9162
Ȁľǟ	-9163
Ƴuuȶ	-9164
ǗǟuȲȀÁ	-9165
ÌȶȲȲ	-9166
İįĨȶİuȀȲƦĨ	-9167
ÌİDȀȲ	-9168
ĨȍȶƳȍȲȶĨÑƳĨ	-9169
Ưȶȍ	-9170
ƳǟįÑĨƋƳ	-9171
FǐȎȐĨ	-9172
ȍİuuȶ	-9173
ÌİįŦȶuĨȀįĨÑÌȶĨ	-9174
uǟȲ	-9175
ȶƳǟuĨ	-9176
ǨĨĀ	-9177
ǐȎRȶİ	-9178
ȍİȀįÑȶ	-9179
ȲȀĥȶĨİ	-9180
ȶīĨƋƳ	-9181
ƳįȶĨơÌƳĨ	-9182
ĨİÑĨÑÌȶĨtįȀ	-9183
įĨƋƳ	-9184
uīĨuƳ	-9185
ơȀȲȲĨD	-9186
İuİ	-9187
ƋǟȲĨİį	-9188
ÁİĥȶuĨÑÌȶĨ	-9189
ĀİÑȀƳįİȲĨȸ	-9190
ÑȶęÑǟ	-9191
ȶİuĨƋƳ	-9192
uƳįĨİį	-9193
Ĩȱȍ	-9194
İǡ	-9195
uĨƳƋĨÑÌȶȀ	-9196
ƯȶÁƳ	-9197
ȍȲİįįȶ	-9198
ǟįȲȶuuĨ	-9199
ŻĨÑƳĨ	-9200
ȶuƳį	-9201
ĨƤƳȲȲȶ	-9202
ľƳįȶĨ	-9203
ƤǟȲÑǟ	-9204
ĨƤƳįÑ	-9205
uĨȀįĨƳ	-9206
ǟDDȲȶĨ	-9207
ƳÁȶĨƳƋĨÑÌȶĨ	-9208
ƥĭ	-9209
ĨƅƳ	-9210
ƤƳÁÁƳį	-9211
ƳÁİŦįȶÑȀ	-9212
ƳįȶŎuĨ	-9213
ĨƋİȀÑÌ	-9214
ŦȶįǟuĨ	-9215
ĨuÑİÑȶuĨ	-9216
ÌǟÁİįĨDƳ	-9217
ĨơİuĨįƳÑĨ	-9218
ǐÀ	-9219
İDȀÑ	-9220
ÑƳĨuİ	-9221
ȲƳƳĥuĨ	-9222
ƳȲǟįÑİ	-9223
ȍİƦ	-9224
Ɩȸ	-9225
Ȳǟę	-9226
ȶĨƳǟÑ	-9227
ȶǐÅ	-9228
ÌȶİÑȶ	-9229
ÁȶİįuĨƳƋĨ	-9230
ȶįÑȀİȲ	-9231
ĨDǟÑÑƳį	-9232
ƳuȀÑȀƳį	-9233
ȶĨuÑȀȲȲĨ	-9234
ĨȀįĨuȶ	-9235
ÑĨƳƋĨƳǟ	-9236
uīĨD	-9237
ĨįȶȀŦÌDƳ	-9238
ĨĀȶ	-9239
ÑİĥȶĨȍȲİ	-9240
uȶuuȀƳį	-9241
ȀįuÑİį	-9242
ȶĨĀ	-9243
ȀuÑÁİuĨ	-9244
ÑƳĨÌȶȲȍ	-9245
uÑȶÁ	-9246
ȍÌİį	-9247
ƤƳȲǟÁDȀİĨ	-9248
ĨÑÌİÑĨƦƳǟĨ	-9249
Ôý	-9250
ýÌȶȀ	-9251
ȶÁȀuȍÌȶ	-9252
ȶĨÑÌȶĨÑ	-9253
ȶuĨȲȀĥȶĨ	-9254
ÑĨÑƳĨDȶĨ	-9255
ȀįŦĨÁİÑȶ	-9256
ĨÑÌȶĨȎ	-9257
DȀİ	-9258
ǐĨƯȶ	-9259
ĨÑÌȶĨȶįÑȀ	-9260
īĨȀÑȎuĨ	-9261
ȍİÑ	-9262
uȀÁȍȲȶ	-9263
ĨÁƳǟįÑİȀį	-9264
uŎĨ	-9265
ǗȶȲ	-9266
ȀuĨȱ	-9267
▁ȀýƳ	-9268
ƦÁÁȶÑ	-9269
ĨÁƳuÑĨƳƋĨÑÌȶĨ	-9270
ȭȶȶĥ	-9271
ÑĨȍȶ	-9272
ȶuȀu	-9273
ȶuÑȀŦİÑȀƳį	-9274
ÑuĨİuĨ	-9275
ÁȶÑȶƳ	-9276
ƳįȶĨİ	-9277
īĨÑÌƳǟŦÌĨ	-9278
ȲƦĨȀįĨ	-9279
ĨȍȀŦ	-9280
ǰǟȶȶįĨ	-9281
DƳȲȀ	-9282
ĨƳDȶu	-9283
ƦĨƳįĨÑÌȶĨ	-9284
ȲİįŦǟİŦȶuĨ	-9285
ƦDƳ	-9286
ÑȶȲȲĨ	-9287
ÑȶęÑDƳƳĥ	-9288
ȶȶĨu	-9289
ÁİȲİ	-9290
ƳȍÌȀuÑȀ	-9291
uǐĨćİ	-9292
ĨÑȶȶį	-9293
ȶȲȶu	-9294
ĨDȲƳŦ	-9295
ǗǗ	-9296
ȶuuĨƋƳ	-9297
ĨÑÌȶĨȍǟDȲȀ	-9298
ĨȲȀu	-9299
ĨȀÁİŦȶuĨ	-9300
ǟÛ	-9301
ȶĨÁİį	-9302
ĨİįİȲƦľ	-9303
īĨİįĨ	-9304
ȀuĨȀuĨ	-9305
ÌȶuÑȶ	-9306
ȲƳÑuĨƳƋĨ	-9307
Nuuǟ	-9308
ĨÑƳȲ	-9309
ȶİĨȀuĨ	-9310
uĨÑÌİÑĨȍ	-9311
ȶuuȀįŦĨÑÌȶĨ	-9312
ƨĨƯ	-9313
ȶŦȀÁ	-9314
ƅȶȲ	-9315
ĨȀu	-9316
ǐĨƤƳ	-9317
uĨÌȶ	-9318
ųȶƋǐĨ	-9319
ĀƳÑȶĨ	-9320
İŦŦȶ	-9321
ĥȶÌƳȲ	-9322
ȶĨƳƋƋ	-9323
ÑİDƳȲȀ	-9324
ȀDǟÑȀƳįĨƳƋĨ	-9325
ĨDƦĨÑÌȶȀ	-9326
ȶuƳȲǟÑȀƳįĨ	-9327
ȶĨİuuƳ	-9328
ȶuĨȶ	-9329
ĨDƦĨȸ	-9330
ȶĨȀÁȍ	-9331
żƥĨƦȶİ	-9332
▁ȀǗİ	-9333
įƳÑĨöǟuÑĨ	-9334
īĨÑÌȶĨu	-9335
Ñǟȍ	-9336
ȶĨȀįĨƦƳǟ	-9337
ǐȎƤȲȀ	-9338
ĨÑİȲĥ	-9339
İÑĨÑÌȶĨȶį	-9340
ȶȲȀįŦĨ	-9341
İȲuƳĨÑÌȶĨ	-9342
ȶĨż	-9343
ȀÑĨƋ	-9344
ƅƳÁȶ	-9345
ȀÑȀȶuĨƋƳ	-9346
ÑƳĨİuu	-9347
ĨİDƳǟÑ	-9348
ȶuĨÑƳĨȍ	-9349
tuȶĨÑÌȶĨ	-9350
ÑİĥȶuĨȍȲİ	-9351
ƦÛ	-9352
ǗȀįȀuÑ	-9353
ľİĨ	-9354
ȶȍȲƳ	-9355
ĨİĨŦƳƳ	-9356
ȶĨuȶȲȶ	-9357
ĨÑÌİÑĨơȶĨ	-9358
ĨuƳƳį	-9359
ȶuÅ	-9360
ȶįȎ	-9361
ƦĨǟį	-9362
ÁİÑȀƳįĨȀuĨ	-9363
İȀÑuĨ	-9364
ƳÁȍȲȶÑȶĨÑÌȶĨ	-9365
ǟuĨÑÌİÑĨ	-9366
żŻuÑĨ	-9367
ǐȎŻ	-9368
ƳǟȍuĨƳƋĨ	-9369
Ƴǐ	-9370
ĨÑơ	-9371
ơơǐ	-9372
ƦƳǟÑÌ	-9373
ƦīĨİĨ	-9374
ȶÑİȀį	-9375
RȀÑÑȲȶĨ	-9376
ȀįŦĨÑÌİÑĨÑÌȶĨ	-9377
uǐȎǶ	-9378
ƳĨơȶĨ	-9379
ȲȶuĨÑÌİÑĨ	-9380
ĨƳƋĨȍİ	-9381
ȲƳuȶĨÑƳĨÑÌȶĨ	-9382
ÁȶÑİ	-9383
ŻȤżƥ	-9384
ȍİÑȀȶįÑ	-9385
ȀȲȲİį	-9386
ȀƳǟuĨİ	-9387
ƦĨÑƳĨȍ	-9388
ȶĨİuĨÑÌȶĨ	-9389
▁ȀÏį	-9390
ȶęÌȀDȀÑȀƳį	-9391
İȀȲȶ	-9392
uĨuÑǟ	-9393
ÁĨƳ	-9394
ŦȲȀ	-9395
uĨÑƳĨȀį	-9396
ÑȀƳįuȎ	-9397
ƳįŦƳȀįŦĨ	-9398
ȶȲƳȍÁȶįÑuĨ	-9399
ÁİÑȀƳįĨƋƳ	-9400
ĨÑÌȶĨDȶuÑĨ	-9401
ȸųý	-9402
uĨÑÌİÑĨơȶ	-9403
ȶŦȀ	-9404
ȶDİÑȶ	-9405
ÑuĨİÑĨ	-9406
ȶȲȶįŦÑÌ	-9407
ȃF	-9408
ĨuÑȶÁ	-9409
ȀİȲĨȶ	-9410
ĨÑÌȶĨȶƋƋȶ	-9411
ĨƖȲİ	-9412
ćųć	-9413
ĨȶęÑȶ	-9414
ȶuuȶįÑȀİȲȲƦĨ	-9415
ƦȶÑ	-9416
ÔƦÑÌ	-9417
ÑȀƳįĨȸ	-9418
ǨĨų	-9419
uİƋȶÑƦĨ	-9420
Āư	-9421
ȀƳÑȀ	-9422
ȸÁİľ	-9423
ǐĨNįÑȶ	-9424
ȀÁȍȲȶÁȶįÑĨ	-9425
ƳƋȎ	-9426
ĥįƳ	-9427
įȶuȀ	-9428
īĨÁİįƦĨ	-9429
ƳȲƳŦƦĨƳƋĨ	-9430
ȲƦĨȀįĨÑÌȶĨ	-9431
ȶĨÑÌƳu	-9432
ĨƳǟÑĨƳƋĨÑÌȶĨ	-9433
ǟŦĨ	-9434
ȀįŦĨȍƳơȶ	-9435
ƳȲȀį	-9436
ȀİȲȀľ	-9437
ÌȶuĨÑÌȶĨ	-9438
▁ȀȸȲ	-9439
uȀľȶĨƳƋĨÑÌȶĨ	-9440
ȎĨȀuĨ	-9441
ȶĨȀuĨİĨu	-9442
ĨuİÁȍȲȶuĨ	-9443
▁Ưȸ	-9444
ĨƤÌǟ	-9445
ĨȀįĨÑÌȶĨȶİ	-9446
ĨȀįĨÑÌȶĨöƳǟ	-9447
ÑǟuĨ	-9448
ÑİuĥuĨ	-9449
ǐȎȐ	-9450
ȶĨƳƋĨÌȀuĨ	-9451
ĨÔƳơȶ	-9452
ǶİȀ	-9453
uÑƳÁİ	-9454
ĨȀįĨŦ	-9455
ĨDƳįȶĨ	-9456
ÌĨÁİƦĨ	-9457
ÌǐĨ	-9458
ǐȎćİ	-9459
İÑİĨİ	-9460
DƳÑÌĨÑÌȶĨ	-9461
ƳÑİȲĨ	-9462
ȶÑÑȀįŦĨ	-9463
İȲȀľİÑȀƳį	-9464
ýć	-9465
ȶįÑȀuÑĨ	-9466
ĨÑÌȶĨuǟį	-9467
FȎȸ	-9468
ĨȸȀ	-9469
ĨįƳÑĨÌİ	-9470
ĨİįŦ	-9471
ȶǡǟİÑȀƳį	-9472
ȱİį	-9473
İƦȲƳ	-9474
ĨȲİǟį	-9475
▁ƳīĨ	-9476
İįįƳǟį	-9477
ÌȀįŦīĨ	-9478
Ƴįuȶǡǟ	-9479
ǟȍĨƋƳ	-9480
ÁȶİįÑĨ	-9481
ƳİuÑĨƳƋĨ	-9482
ȀuȍİįȀ	-9483
ųćć	-9484
ȀŦĨ	-9485
ƳĨÑÌȀuĨ	-9486
ȍƳƳȲ	-9487
ÁİÑȀƳįĨƳƋĨÑÌȶĨ	-9488
ÑĨơƳ	-9489
ȀDǟÑȀįŦĨ	-9490
ȶÁȍÑƦĨ	-9491
ĨýȶuÑİ	-9492
ȶĨȍİÑÑȶ	-9493
ÑĨuƦuÑȶÁ	-9494
ĨȸǗ	-9495
ĨÌÑÑȍǨÛÛ	-9496
ÑƳĨuƳȲ	-9497
ȶĨȀuĨÑƳĨ	-9498
ȀįŦĨȭƳ	-9499
ĨDǟuȀįȶuu	-9500
ĥȎuĨ	-9501
Ɩİį	-9502
ȲȶĨİ	-9503
uĨİuĨİĨ	-9504
ȀuȲİÑȀƳį	-9505
Ït	-9506
İįįǟİȲĨ	-9507
ȀįuÑİȲȲȶ	-9508
ƤȶȲ	-9509
uĨuȀį	-9510
ȶȍÌİȲ	-9511
İįuȀÑȀƳį	-9512
Ĩȶęİ	-9513
ȶĨŻȤ	-9514
İȲĨȀįĨ	-9515
ȶįÑuĨƋƳ	-9516
ȶȲİÑ	-9517
ȶĨuǟu	-9518
ȀįȍǟÑĨ	-9519
ÌȀƋ	-9520
ćęÑ	-9521
FǐĨȸ	-9522
ĨȍȲİįȶÑĨ	-9523
ĨȍƳuuȀDȲƦĨ	-9524
ȶĨȲƳįŦ	-9525
ȎÅ	-9526
įȀį	-9527
ȶİuĨİ	-9528
ÌȀŦÌĨȲȶ	-9529
ƳÁĨƳƋĨ	-9530
İįĨȀuĨ	-9531
İDȲȶĨÑƳĨȍ	-9532
ȲǟÁȍ	-9533
ȀįŦĨȶİ	-9534
ȲİįŦǟİŦȶĨİį	-9535
ǐȹ	-9536
ƳƋĨİȍȍ	-9537
ĨÑÌİÑĨȶ	-9538
ÑÌȶÁĨÑƳĨ	-9539
DȲȀį	-9540
ŦȶĨȀuĨ	-9541
ȀÑƦĨȀį	-9542
Ĩȸįuơȶ	-9543
ĨİÁȍ	-9544
Ɩȶį	-9545
ęȀÁǟÁ	-9546
ȤȐ	-9547
ĨĀȀ	-9548
ĨuǟuÑİȀįİDȲȶĨ	-9549
İįĨÔ	-9550
ȍƳuÑĨ	-9551
ȀŦÌDƳǟ	-9552
ǶİÁȀȲƦĨ	-9553
ƥÀ	-9554
ǐĭ	-9555
ǐĨNƋĨƦƳǟĨÌİ	-9556
ȶǐĨƅ	-9557
ȍȀȲȲİ	-9558
ƦĨų	-9559
ĨơÌİÑĨÑÌȶĨ	-9560
ȶĨŻ	-9561
ÑÌįȀ	-9562
ĨįȀÑ	-9563
İÁȶȲ	-9564
İȲÑȀÑǟ	-9565
ȶīĨİuĨ	-9566
uĨơÌƳĨÌİ	-9567
ýÌȶƦĨİ	-9568
ǨĨǗ	-9569
▁ȀŻ	-9570
İȲȲĨƋƳ	-9571
tǗ	-9572
ǨĨNį	-9573
ƳįĨÑƳĨ	-9574
ĨȍƳȀįÑuĨ	-9575
ȶǡǟȀȍÁȶįÑ	-9576
ÑÌǡǟİĥȶĨ	-9577
ȶęÌȀDȀÑĨ	-9578
ĨŦƳȶuĨ	-9579
İŦǟ	-9580
ȶĨİįuơȶ	-9581
FĨƿ	-9582
Ȁǟu	-9583
įİÑȶĨ	-9584
ȶȲƳįŦ	-9585
īĨżƥƥȤ	-9586
ĨơÌƳuȶĨ	-9587
ĨįİÑȀƳįİȲĨ	-9588
īĨuȍ	-9589
ćÔȸ	-9590
ȶÑŎuĨ	-9591
ĨƦƳǟĨÑƳĨ	-9592
ƦĨơ	-9593
ȀÑȶĨİ	-9594
ƯȀŦȀÑİȲĨ	-9595
ĥÁ	-9596
ȍȍǐĨ	-9597
ȀįŦĨÑÌȶĨơƳ	-9598
įȐ	-9599
ȶIȎ	-9600
ĨȲİįŦǟİŦ	-9601
ÌƳuȍÌƳ	-9602
uȶÑĨƳƋĨ	-9603
ÑȀƳįĨơİuĨ	-9604
ȶįĨÑÌƳǟŦÌ	-9605
ĨȶÁ	-9606
İįĨDȶĨİĨ	-9607
ƅȸ	-9608
İƦĨİ	-9609
ȶĨƋȀȲ	-9610
ȶuĨDȶ	-9611
ƳÁȍƳuÑĨ	-9612
ȀuĨÑÌȶĨÁƳuÑĨ	-9613
ĨİĨȲƳ	-9614
ȶįĨǟį	-9615
uÌȀȍĨİį	-9616
ȀÑȀȶuȎ	-9617
ȶĨÑÌȶu	-9618
uĨÁİƦĨDȶĨ	-9619
ÑơƳĨƳ	-9620
ƋƦĨ	-9621
İįȶȲ	-9622
ȶįÑuĨȀį	-9623
ƳǟįÑƦĨ	-9624
ĨÁİįƦĨƦȶİ	-9625
ȀuÁĨ	-9626
ƯȶuȀŦį	-9627
ȶÁȶĨƤƳǟ	-9628
ÑȀÁȶu	-9629
ȶįÑĨȶ	-9630
ƦīĨȍ	-9631
ȀȍİÑȀįŦĨ	-9632
İįŦȶuĨ	-9633
ȶŦǟȲİÑȶ	-9634
ŦȶĨİ	-9635
İÁuīĨ	-9636
İȲȲƦȐ	-9637
ȶĨȍǟÑĨ	-9638
ÑÌȶįÑȀ	-9639
ȶįĨÑƳĨÑÌȶĨ	-9640
ÑĨƳƋĨƦƳǟ	-9641
ĨÌȶİȲÑÌƦĨ	-9642
ćƋƋȶ	-9643
Ȏõ	-9644
ĨuįƳơ	-9645
ȶĨȀuĨİįĨ	-9646
ǐĨĀƳĨ	-9647
ƳǟȍȲȶĨ	-9648
ȶǐĨý	-9649
ȶįÑĨȍİ	-9650
Ñǟįȶ	-9651
İȲȲƦĨƋ	-9652
ȶuuÁȶįÑuĨ	-9653
ƳÁÁȀÑÁȶįÑĨ	-9654
ȶİÑĨƋƳ	-9655
ĨÑƳĨƳǟ	-9656
ƳǟŦÌĨİ	-9657
ÌƦD	-9658
ĨÑÌİÑĨÌİ	-9659
ĆÏ	-9660
īĨt	-9661
ĨÑÌȶĨÅ	-9662
uÑȶȀį	-9663
ǐĨýÌȶƦ	-9664
ĨİÑÑȀÑǟ	-9665
įȶǟÁ	-9666
ȶuǟȲÑĨȀįĨ	-9667
ƦÑÌȀįŦ	-9668
uȀÑƦĨȀįĨ	-9669
ȶįÑuīĨİį	-9670
ĨơȀȲȲĨÌȶȲȍ	-9671
ĨÑȀȍ	-9672
ȀÑƦĨȍ	-9673
İÑȶĨȀuĨ	-9674
ȀƋĨȀÑĨ	-9675
ȀuÌȀįŦĨ	-9676
ĨȍİƦ	-9677
İÑȀƳįĨuƦuÑȶÁ	-9678
ǐĨÏįȶĨƳƋĨÑÌȶĨ	-9679
ȶİÑīĨ	-9680
İȀuȶĨ	-9681
İÑȶĨȀį	-9682
ȶÑȶĨ	-9683
ȀŦȀÑİȲ	-9684
ȎĨýÌȶĨ	-9685
ĨȀįĨİĨȍ	-9686
ǗƳǟįÑĨ	-9687
ȶİȲĨơȀÑÌ	-9688
İĨuȀįŦȲȶĨ	-9689
İDȀȲȀÑƦĨİį	-9690
ĨȸĨ	-9691
▁ȸȎuĨ	-9692
İÑȀƳįĨƯ	-9693
įǐĨ	-9694
Ȳȶǐ	-9695
DȶuÑƳ	-9696
ÌȶȶÑĨ	-9697
ǐȎȭÌȀȲȶĨ	-9698
ĨȍİįȶȲ	-9699
ĨȀįĨÑÌȶĨÁȀ	-9700
ƤÌȶÁȀ	-9701
ÁĨƳƋĨÑÌȶĨ	-9702
ȀįİÑ	-9703
Ȁįȶu	-9704
Ñİįĥ	-9705
ǐĨÏįĨ	-9706
ƦĨuĥȀȲȲ	-9707
uīĨơȀÑÌ	-9708
ȐƋƳ	-9709
ĨǶƳǟį	-9710
ÌȶuĨƳƋĨ	-9711
ÅĨƳ	-9712
ÌĨȍȶ	-9713
ȶȶȍĨ	-9714
ǗİuÑȶ	-9715
ƤÌȀįȶu	-9716
ȀuȀƳįȐ	-9717
ýȶęİu	-9718
ĨİuÑÌÁİ	-9719
ÌƦŦȀȶį	-9720
ÑĨƳƋĨÑÌȀuĨ	-9721
ĨȭȀį	-9722
ȀÑuĨÑÌȶĨ	-9723
ƳįÑȀ	-9724
uǐĨýƳ	-9725
ŦȶƳȲƳŦȀ	-9726
ǐȎÔȲȶİuȶĨ	-9727
ȀȶįÑİÑȀƳį	-9728
ÑȀȲȀľ	-9729
ǟuȀįŦĨu	-9730
ÑȀÁȶuĨÑÌȶĨ	-9731
ƖȶÌİ	-9732
ĨȲƳįŦȶ	-9733
uÑİDȲȶĨ	-9734
ƋȀįİȲȲƦĨ	-9735
İÑȀƳįīĨÑÌȶĨ	-9736
uÌȀȍĨ	-9737
ĨİĨơƳ	-9738
ÌȶİȲÑÌȀȶ	-9739
ÑuǨĨ	-9740
Ƴơu	-9741
ĨÑƳĨDȶĨÑÌȶĨ	-9742
ÔȲȶİuȶĨ	-9743
ȲƳuȶuÑĨ	-9744
ȀÁȍȲȶÁȶįÑİÑȀƳį	-9745
ǗƤ	-9746
ĨżƥŻĭ	-9747
NÑĨơİuĨ	-9748
ǟÑȀȲȀľȶ	-9749
İȲĨƦȶİ	-9750
ǗȀuuƳǟ	-9751
ĀİÁ	-9752
İȲĨuȀŦį	-9753
ȶİuȀįŦĨÑÌȶĨ	-9754
Ȏż	-9755
ȸĀƯ	-9756
ĨƅƳơ	-9757
ýİĥȶĨ	-9758
ǐȎƅƳơĨ	-9759
Ĩtį	-9760
ȲȶįŦÑÌĨ	-9761
ȐÔ	-9762
ÑȀƳįuīĨİį	-9763
ǐĨĀƳÑĨ	-9764
ǐć	-9765
ȶȲǟ	-9766
ĨuơȀÑ	-9767
ĨȀįĨÑ	-9768
ÑƳŦ	-9769
ÑÑƳÁ	-9770
ÑƳĨÑÌȶÁ	-9771
ȶĨơƳÁȶį	-9772
ÑÌȀuĨȀuĨ	-9773
ýơȀÑÑȶ	-9774
ƦĨȍǟDȲȀuÌȶ	-9775
ǨĨİĨ	-9776
uīĨȶuȍȶ	-9777
ȶįŦÑÌȶį	-9778
ȲƳuuİ	-9779
ȶĨuƳÁȶÑÌȀįŦĨ	-9780
ĨȲƳİ	-9781
ȲȀĥȶĨu	-9782
ȍƳȀįÑĨƳƋĨ	-9783
ȶǐĨNÑĨȀuĨ	-9784
Àī	-9785
ĨȲǟįŦ	-9786
Ĩtǐ	-9787
Ƴȍu	-9788
ȶĨÑÌİįĨƳįȶĨ	-9789
ĥuÌȶȶ	-9790
FĨƋ	-9791
Ĩơȶİĥ	-9792
ĥȶƦDƳİ	-9793
İĨȲİ	-9794
▁ǡǟİ	-9795
īĨÌȶİ	-9796
ĨƳƋĨȀį	-9797
ƳÁDǟu	-9798
ÑuĨDƦĨ	-9799
uƳȲǟÑȶĨ	-9800
īĨöǟuÑĨ	-9801
ȶįĨÑÌƳǟŦÌĨ	-9802
ĥuȎ	-9803
ĨƦƳǟȎ	-9804
RƳǟȀu	-9805
İįĥĨƦƳǟ	-9806
ȶĨȲƳƳĥȀįŦĨƋƳ	-9807
įİÁȶĨƳƋĨÑÌȶĨ	-9808
ĀN	-9809
ȲƦĨİuĨ	-9810
İĨÌİuĨ	-9811
Ĩĥȶ	-9812
ĆƤ	-9813
ȀÁȍȲİį	-9814
ĨÑÌİįĨİ	-9815
İDȀį	-9816
ĨǟįȀÑ	-9817
ÌȀȲƳuƳȍÌ	-9818
ȶÁȶįÑuĨİį	-9819
ĨŦİÑÌȶ	-9820
ǟȍƳįĨ	-9821
▁ÁƳ	-9822
İÑȀƳįuȎ	-9823
İÁİľ	-9824
įȶơĨȍ	-9825
ȲİuuīĨ	-9826
ȶuĨƳƋĨİ	-9827
ȀǟÁĨİį	-9828
ĨÑÌȶĨDİ	-9829
Ŧǐ	-9830
RƳơ	-9831
ÌĨÔ	-9832
ȎĨİ	-9833
īĨĀƳ	-9834
ƤƳÁȍǟÑȶ	-9835
ȶuuȶįÑȀİȲĨƋƳ	-9836
ȶęȍƳ	-9837
ǐĨNÑĨİȲuƳĨ	-9838
ÁİĥȀįŦĨÑÌȶĨ	-9839
ĨÑƳĨDȶĨİ	-9840
ơƳǟį	-9841
uĨÑƳĨİĨ	-9842
ƳÁÁǟįȀÑȀȶu	-9843
ƦǐĨNį	-9844
ȀȲȲȶŦ	-9845
Ĩİuuȶ	-9846
ƳȍǟȲİÑȀƳįĨ	-9847
ȀȶuīĨÑÌȶĨ	-9848
ưȶȲȲƳơ	-9849
ÔÌȀȲȀȍȍ	-9850
ȀįŦĨơÌȀ	-9851
ĨȲȀįĥ	-9852
ȶÑĨÑÌȶĨ	-9853
ȶǡǟȀȍȍȶ	-9854
ÌƳơĨÑÌȶƦĨ	-9855
ÌȶuĨÑƳĨ	-9856
ǟuȶƋǟȲĨƋƳ	-9857
ȶȍÑÌĨ	-9858
Ȳȶİuȶ	-9859
RǟÑÌȶ	-9860
ÌƦȍƳÑÌȶu	-9861
ȸƤý	-9862
ƅƳȲƦĨ	-9863
ȀįŦĨȲƳu	-9864
ĨÑÌİÑĨƳƋĨ	-9865
ȀƋƦĨÑÌȶĨ	-9866
Ĩųć	-9867
ÑȀƳįĨDƦĨ	-9868
ȍƳuȶĨƳƋĨ	-9869
ÑİȀįĨÑÌȶĨ	-9870
▁ȶÁ	-9871
ÌƳƳȲīĨ	-9872
żƥƥż	-9873
İȲȶīĨ	-9874
ȀÑİŦȶ	-9875
ĨuȍȶȲȲ	-9876
ćÁȶ	-9877
ȀĨİį	-9878
ĨuȶÑÑȀįŦ	-9879
ĨƦƳǟĨĥįƳơ	-9880
İȲĨÑÌȶ	-9881
ÑƳĨȲȶİ	-9882
ȲȶÑuĨ	-9883
İǟuȶĨÑÌȶ	-9884
Ĩuȶįu	-9885
ǐȎǗİįƦĨ	-9886
ȶįƳǟŦÌĨÑƳĨ	-9887
ĥĨD	-9888
ĨÑÌȶĨÑÌ	-9889
Ìİįį	-9890
ÑȀƳįuĨƋ	-9891
ĨÁȶįĨİį	-9892
ǶİÁȀȲ	-9893
uÑȀÑǟÑȶ	-9894
ƦuÑȀ	-9895
ĨȍƳuÑ	-9896
NĨơƳǟȲ	-9897
ĨȍƳuÑȐ	-9898
ǟȲİÑȀƳįĨ	-9899
Ȥż	-9900
ȎýÌ	-9901
ȲȀƋƋ	-9902
İįĨDȶĨuȶȶį	-9903
İįĨNį	-9904
uƳȲǟÑȶ	-9905
ǐȎNįĨÑÌȀuĨ	-9906
ĨȍǟÁȍ	-9907
ǐĨƤƳį	-9908
uǐĨưƳǟĨ	-9909
ƳDȲȶÁuĨİį	-9910
ĨȍƳȍǟȲİÑȀƳįĨ	-9911
įİĥȶ	-9912
İȲĨuƳǟ	-9913
ǨĨİ	-9914
▁ȀŦįĨ	-9915
ÔȶįįuƦȲ	-9916
ȀDǟÑȶuĨ	-9917
ǐȎÏǟ	-9918
ȶÑơȶȶįĨ	-9919
ĨįƳÑĨƳįȲƦĨ	-9920
ȎİĨ	-9921
ȀįŦīĨȍ	-9922
ĨİǟÑƳÁİÑȀ	-9923
ƤƖ	-9924
ĨȀįȀÑȀİÑȀ	-9925
uǟDu	-9926
DȶȲƳơĨ	-9927
ǟȲȲĨ	-9928
ȶuĨơÌȶ	-9929
ƨĨNƋ	-9930
ƯƳơįȲƳİ	-9931
Ĩĭƥ	-9932
ȀÑĨİ	-9933
ÑơȶįÑȀ	-9934
ȶĨİŦİȀį	-9935
ÏƯ	-9936
▁ÑȀ	-9937
ȀįŦuǐȎ	-9938
ȭȶȲ	-9939
įȶơȲƦĨ	-9940
ÑİuuȀ	-9941
ĨƅȶİȲÑÌĨÏ	-9942
DȀÑȶ	-9943
İȲĨŦİuĨ	-9944
ƳÁİĨ	-9945
ȀįĨȶ	-9946
ȶİÑȀįŦĨÑÌȶĨ	-9947
ǐű	-9948
ĨÑƳĨÑȶİ	-9949
uƳƳįĨİuĨ	-9950
İȲĨÌȶİȲÑÌ	-9951
ȱİ	-9952
ĥǟȍ	-9953
İȀįƋƳ	-9954
īĨȀ	-9955
ȶuǐĨȭ	-9956
ÑȀuÑuĨ	-9957
İȀįuĨ	-9958
ȀÑǨĨ	-9959
İÑȀƳįĨơȀÑÌ	-9960
ƳÁĨİĨu	-9961
ȶĨơÌȀȲȶĨ	-9962
ėƥĨ	-9963
įuīĨ	-9964
uǐĨȸƋÑȶ	-9965
ȶįÑȀƋƦȀįŦĨ	-9966
ÁǟȲÑȀȐ	-9967
ȶȶĨƳ	-9968
ÌǟįÑȶ	-9969
ơÌƳĨơȶ	-9970
ĨćįŦȀįȶȶ	-9971
ĨƳƋĨȀÑuĨ	-9972
ƳǟÑĨİį	-9973
ȶİÑȀįŦĨİ	-9974
ȶĨõ	-9975
ĨÁİįİŦȶÁȶįÑ	-9976
İÑȶĨuÑǟ	-9977
ȱF	-9978
ƳÁĨŦ	-9979
ȀįŦÐ	-9980
uǐĨȭÌȶį	-9981
ȶįÑİŦȶĨ	-9982
uĨȀuĨİĨ	-9983
ǟÑƳÁİÑȀ	-9984
ŻżĨ	-9985
ǐȎǶȀį	-9986
ĨuǟƋƋȀ	-9987
ȎÁ	-9988
ǗN	-9989
İƦuĨİ	-9990
ȭÌİÑĨȀuĨÑÌȶĨ	-9991
ȶĨuǟȍȍ	-9992
uȶȶĥ	-9993
ĨƳƋĨƖ	-9994
ȀÁȀįİÑȀƳį	-9995
ƦīĨȀį	-9996
ƤƳȍƦ	-9997
ĨƋİȀȲǟ	-9998
īĨżƥŻȹ	-9999
ĨuȶȶĨÑÌȶĨ	-10000
ĨDȀÑĨ	-10001
ÌĨuÌƳơ	-10002
ȍǐĨ	-10003
ȶuÑȀŦİÑƳ	-10004
İȲǟÁȀį	-10005
ŻȤȤė	-10006
ƦĨȀįÑȶ	-10007
NÑİȲȀİįĨ	-10008
Ûȍ	-10009
ĨćȲȶ	-10010
İÁȶĨİ	-10011
ÁİįĨİį	-10012
ȍȶƳȍȲȶĨÌİ	-10013
ÑȀƳįuĨƳ	-10014
İƦĨȱ	-10015
ƳįĨƋƳ	-10016
Ȳǟįİ	-10017
ƳǟįÑƦ	-10018
Ĩuơȶ	-10019
ȶȲȲuĨİį	-10020
ƤÌİȲȲ	-10021
İĥȶ	-10022
ĨįİÁȶĨ	-10023
ÑȀįŦĨơȀÑÌ	-10024
ǐȎǗƳuÑĨ	-10025
ȀįĨȸ	-10026
ĨİĨȲƳÑĨƳƋĨ	-10027
RȀÁ	-10028
īĨÑÌȶĨÁƳ	-10029
ĨơÌȶįĨƦƳǟ	-10030
Ĩćįȶ	-10031
ƦĨƋƳǟį	-10032
ȍƳÑȶįÑȀİȲȲƦĨ	-10033
ƤÏż	-10034
įƳÑȶuĨ	-10035
IĨȭ	-10036
İĨĆ	-10037
ǟÁȶįÑİÑȀƳį	-10038
İƋƋƳ	-10039
İȍuǟ	-10040
FǐĨýÌȀuĨ	-10041
ȶįÑȀƳįĨİį	-10042
ȀİȲƳŦǟ	-10043
Żȹƥƥ	-10044
ǐȎÏÑÌȶ	-10045
uĨÁǟuÑĨ	-10046
ǟuÑīĨ	-10047
ǐĨNÑĨÌİuĨ	-10048
ƳįĨƤ	-10049
uȍȶİĥȶ	-10050
ǐĨýÌİÑȎuĨ	-10051
İȲȶįÑ	-10052
ǐȎýÌȶĨƋȀ	-10053
ȭȸ	-10054
ȶơĨ	-10055
ƯȀİŦ	-10056
ȶįȶǟ	-10057
ȀįŦĨȀįÑƳĨ	-10058
ĨİuĨÁǟ	-10059
ƳƋĨuȍȶ	-10060
ĥĨŦ	-10061
ÌƳÁȶơƳ	-10062
ÔƳȲȀ	-10063
ȶĨÑƳƳ	-10064
ĨÑƳĨDȶĨİĨ	-10065
ơȶİĥ	-10066
ȶįĨȀuĨ	-10067
ĨÑÌİÑŎuĨ	-10068
ǟȲu	-10069
ĨÁȀŦÌÑĨDȶĨ	-10070
uÁİ	-10071
ÑĨý	-10072
uǐĨýÌȀuĨȀuĨ	-10073
ǐȎĀƳơ	-10074
ȎuĨƋȀ	-10075
ȀŦȀįĨƳƋĨ	-10076
ćęİÁȍ	-10077
uĨƳƋĨȍȶƳȍȲȶĨ	-10078
ȀÑĨȍ	-10079
ȶǐĨƖ	-10080
ĨuȀįŦ	-10081
ǐȎNįĨİ	-10082
ǐȎė	-10083
ƳȲȲȶİŦǟȶuĨ	-10084
DȶuÑ	-10085
İȲǟİÑȶĨ	-10086
ȐƯ	-10087
ÁȶįĨİį	-10088
ȶįĨȲȶİ	-10089
ĨȶÁȍȲƳƦȶ	-10090
NįÑȶŦ	-10091
ĨÁİįİŦȶĨ	-10092
ƳȲȍÌȀį	-10093
ȀįŦuĨơȶ	-10094
İÑȀuƋİ	-10095
uī	-10096
ĨÁƦÑÌ	-10097
ƳÁȍİįȀƳį	-10098
ÌİįŦȶuĨȀį	-10099
▁Ȏ	-10100
ĨȍƳȶÑ	-10101
īĨżƥŻŻ	-10102
ĨRİÑ	-10103
ȎȐĨƖ	-10104
ǰǟİȲ	-10105
İȲĨȍȲİ	-10106
ĨơȀÑÌĨŦ	-10107
ȶİuƳįuĨ	-10108
ÁİįƦĨƳƋĨÑÌȶĨ	-10109
ĨȀįĨÁȀį	-10110
ȶơƳ	-10111
ÌƳȲƳŦƦĨ	-10112
İȲĨý	-10113
Ǘİu	-10114
ƦĨƋȀ	-10115
ǐĨȸȲuƳĨ	-10116
RƳuĨȸįŦȶȲ	-10117
ÏįȲȀį	-10118
ÑȶÁȍȲȶĨ	-10119
ȀƳȲȶįÑĨ	-10120
ƳÁƳÑȀįŦĨ	-10121
NįuÑȀÑǟÑȶĨƋƳ	-10122
uǟŦŦȶuÑuĨÑÌİÑĨ	-10123
ȶĨuȶȶ	-10124
ĨDƦĨȀį	-10125
ĨRİįŦǟ	-10126
ȶƋȶįuȶĨ	-10127
ƥǐė	-10128
uƳȐ	-10129
ơİƦĨƋƳ	-10130
ǟDȲȀuÌȀįŦĨ	-10131
ȸýć	-10132
uȶŦ	-10133
ǐĨRƳ	-10134
ĨƳƋĨƋ	-10135
ȲİįĨƋƳ	-10136
ȀįȀÑȀİÑȀ	-10137
uǐĨȸĨ	-10138
uÌƳơuĨ	-10139
ȎƳ	-10140
ȀÑȀȶuǐĨ	-10141
ȶĨȶęȍ	-10142
ŦȶĨƳ	-10143
Ƴĥȶį	-10144
ƤƳįįȶ	-10145
ƳǟȲÑ	-10146
ȭȀȲȲ	-10147
ȶįŦǟ	-10148
ȶĨƋƳǟ	-10149
ĨÑÌȶĨt	-10150
ȲİDİÁİ	-10151
ĨÁȀęȶ	-10152
İįĨƳƋĨ	-10153
İÁDƳ	-10154
ȶİuȶĨȀįĨÑÌȶĨ	-10155
ĨȶęİÁȍȲȶīĨÑÌȶĨ	-10156
ȀȲİį	-10157
ȀuȶĨÑÌȶĨ	-10158
ȶįȶuuĨİį	-10159
ȍȶƳȍȲȶĨơÌƳĨ	-10160
ĨȀuĨƋƳ	-10161
ĨȲȀǡǟȀ	-10162
ƳÁĨýÌȶĨ	-10163
ĨÑƳƳÑÌ	-10164
ȶǟu	-10165
İȲȲƦǐȎ	-10166
Āȶȶ	-10167
İǟuȶĨÑÌȶƦĨİ	-10168
ĨƋİuÑȶ	-10169
tR	-10170
ȶīĨơȶĨ	-10171
ÑĨÑÌȶĨȍ	-10172
DǟÑĨÑÌȶĨ	-10173
įǐ	-10174
ȶįȶÁ	-10175
ŦİȲȲ	-10176
ƳÑƳÑƦȍ	-10177
īĨȶİ	-10178
ÁİÑȀƳįĨƳį	-10179
ǟȲǟuĨ	-10180
ÁȀįǟÑȶĨ	-10181
ȀȲȲİŦȶ	-10182
ĨDȶȲƳįŦ	-10183
ĨİĨįȶơĨ	-10184
ȶuÑȀÁİÑ	-10185
ȶİȲȀÑƦĨ	-10186
uȶįÑĨ	-10187
uƳįįȶȲ	-10188
ƦƳǟĨơƳǟȲ	-10189
Ƴuİ	-10190
ǟuȶĨÑÌȀuĨ	-10191
ȹŻ	-10192
żƥƥŻ	-10193
ĨƳƋĨć	-10194
Żƥīƥƥƥ	-10195
ĨÑÌȶĨįƳ	-10196
ÑȶįÑĨ	-10197
ȲȀƋȀȶ	-10198
ȶuuȶuĨİį	-10199
İȲĨÌȶ	-10200
İƦĨƳ	-10201
ƳįƦĨ	-10202
ȶİȲȀÑƦ	-10203
ĨuǟŦŦȶuÑuĨÑÌİÑĨ	-10204
uİƦuĨ	-10205
ȀÑȀƳǟuĨ	-10206
ȶĨDȶŦȀį	-10207
ȍƳuu	-10208
įȀįŦĨİDƳǟÑĨ	-10209
DuĨ	-10210
ĨżƥƥȤ	-10211
ȀuĨǟuȶ	-10212
ȶİÑȶuĨ	-10213
ŻȤÀƥ	-10214
DƦĨȍ	-10215
ȲȀįȶĨƳƋĨ	-10216
īȎĨ	-10217
ǗȶÑİ	-10218
ĥȶȍ	-10219
ȀÑuĨƳ	-10220
ÑȀƳįĨƳįĨ	-10221
ĨÑƦȍȶĨƳƋĨ	-10222
İÑȀƳįuĨÑÌİÑĨ	-10223
ĨȍİuuơƳ	-10224
ÁİȀįÑİȀįĨ	-10225
İĥƳÑİ	-10226
ȀƳǟuȲƦ	-10227
ÑİDȲȶuĨ	-10228
ȶĨįƳơĨ	-10229
Ĩƅİį	-10230
ƳȲȲȀįŦĨ	-10231
İȲĨȀįuÑ	-10232
ȎǗƳ	-10233
ĨȀuĨƋ	-10234
ĨƳơįȶ	-10235
ȀȍȀÑİÑȀƳį	-10236
ĨÑÌȶƦŎ	-10237
İƦīĨİį	-10238
uȶÑÑȀįŦĨ	-10239
ĨơÌİÑĨÑÌȶƦĨ	-10240
ǰǟȀ	-10241
İįĨƤ	-10242
ÌįƳȲƳŦƦĨȀuĨ	-10243
ýÏ	-10244
İÁƳįŦĨÑÌȶĨ	-10245
ȀȲŦ	-10246
ĨÑÌȀuĨơȶȶĥ	-10247
ĨơȀȲȲĨƋȀį	-10248
ƅȶİȲÑÌĨİį	-10249
Ĩİȶ	-10250
ȶuuĨȀįĨ	-10251
ȲȀŦÌÑȶ	-10252
ĨÑȶȲȶ	-10253
İȍȍƳȀįÑȶ	-10254
ĥȶȲ	-10255
▁Ĩȸ	-10256
ȶȀŦÌ	-10257
ȎȎȎȎȎĨ	-10258
ȶƋƋ	-10259
ĥĨDƦĨ	-10260
ĨÌƳơĨȀÑĨ	-10261
ĨÑÌİÑĨơƳǟȲ	-10262
ĨȐȐĨ	-10263
ȶuƨȎ	-10264
ÅÑÌȶĨ	-10265
ȀȶuÑĨ	-10266
ȀȲȲįȶu	-10267
ȀįŦĨÑƳĨȍ	-10268
ȀȶįÑȀuÑuĨİ	-10269
ƨÅ	-10270
ÑīĨİ	-10271
ȲȀƋȶīĨ	-10272
ȍİu	-10273
ȶĨÁİƦĨDȶĨ	-10274
ȶuǟȲÑĨƳƋĨÑÌȶĨ	-10275
ĨÁȶİįȀįŦ	-10276
ȀİȲȶ	-10277
ȎuĨİį	-10278
ĨÁȀuu	-10279
ȶǼ	-10280
ÔİÑ	-10281
ƳƋȀ	-10282
ƦĨÁȶ	-10283
ȶĨȲȀĥȶĨ	-10284
ĨDǟu	-10285
ƖȀȲȲ	-10286
ȲȀȍȍȶ	-10287
ȶįÑĨơİƦ	-10288
ǐĨƤÌȶ	-10289
ơÌİÑĨÑÌȶƦĨ	-10290
NuȲİÁȀ	-10291
ŻƥĨƦȶİ	-10292
▁Ĩȱ	-10293
ȶǐĨýÌȶ	-10294
ÌƳȲƳŦ	-10295
ƳįĨÑÌȶĨƳÑÌȶ	-10296
İö	-10297
ƳǟȍȲȶ	-10298
ĨȍİuÑĨ	-10299
İľľ	-10300
ÑȀȶuĨİį	-10301
▁ȀƅƳơ	-10302
uȀŦÌÑĨ	-10303
ĨİįÑȀȐ	-10304
ȀįŦĨǟį	-10305
ƤİÁD	-10306
ĨȲȀuÑȶį	-10307
ȀȍÑȀ	-10308
ýÌȀuĨİ	-10309
ȀŦÌÑĨįƳơ	-10310
ĨuİÁȍȲȶĨ	-10311
ȀuuǟȶĨƳƋĨ	-10312
ȶǐĨƯ	-10313
ƳÁĨŻȹ	-10314
ĨDİįĥ	-10315
ĨÑƳĨƋ	-10316
ÑȶİÁĨ	-10317
İĨȀįĨ	-10318
ĥƦ	-10319
ȶĨÑİĥȶį	-10320
uÐĨİį	-10321
ĨȍİŦ	-10322
ÏȲƦÁȍȀ	-10323
ƳǟÑĨƋƳ	-10324
RȶÑÑȶ	-10325
İȲĨDİ	-10326
ĨȍƳuuȀDȲȶ	-10327
İÁƳįŦĨƳÑÌȶ	-10328
ÑĨǟuĨ	-10329
ÑĨÌİ	-10330
ÑÌƳǟuİį	-10331
ĨȀįĨİįƦĨ	-10332
ȶīĨƋ	-10333
ƦĨƳƋĨİ	-10334
ȀįŦF	-10335
ȱȍ	-10336
ǐĨćį	-10337
ýȶÁȍ	-10338
ȲȶuuĨÑÌİį	-10339
Ĩİȍİ	-10340
İÑȀƳįĨÔ	-10341
ȶĨơȶİÑÌȶ	-10342
ȶįÑuĨȀįĨÑÌȶĨ	-10343
RȀDȶ	-10344
ÁĨȎ	-10345
ƤÌİįŦȶĨ	-10346
ĨÌƳơĨÑÌȶĨ	-10347
ĨİĨƋƳ	-10348
ȶĨÁȶÑÌƳ	-10349
ȶuǐĨýÌȶƦĨ	-10350
ƳǟuÑȀ	-10351
ǟuDİį	-10352
ÌİuĨįƳÑĨ	-10353
ĨDİDƦĨ	-10354
ęȀȶÑƦĨ	-10355
ȀƳȲȶÑĨ	-10356
ȶİȲĨƋƳ	-10357
ȶÁȶįÑīĨ	-10358
ĨơȀÑÌĨÌȀuĨ	-10359
ĨƋȲİŦ	-10360
ŦȶĨÑƳĨ	-10361
ȶĨÌȀÁ	-10362
İǐȎ	-10363
ÑÌĨÑƳĨ	-10364
Ȑė	-10365
ȶīĨȶ	-10366
ȶÁİÑǟ	-10367
ȶĨǟȍĨƳƋĨ	-10368
ǐÐ	-10369
ĨƯǟ	-10370
ĨƋȶơȶ	-10371
ÑƳƳĥĨȍȲİ	-10372
żƥżż	-10373
İįuİuĨ	-10374
ÑÌĨƤȶįÑǟ	-10375
ǗİÑÌĨ	-10376
ȀįȀÑȀİȲĨ	-10377
uĨƳƋĨȸÁȶ	-10378
ȶuĨÑÌȶĨȍ	-10379
ơİƦĨƳƋĨ	-10380
ÑǐȎȐĨ	-10381
ƳƋĨÑÌȶĨİ	-10382
ƦĨÁİ	-10383
ÑĨȀÑĨ	-10384
İDDȲȶĨ	-10385
ȶȲƳȍÁȶįÑİȲĨ	-10386
ȲȶuuĨƳƋĨ	-10387
İĨơİuĨ	-10388
İÑȀįŦĨu	-10389
ȶİĨÑÌİÑĨ	-10390
ƦĨȲȀÑÑȲȶĨ	-10391
ȎȎȎȎȎȎ	-10392
ĨÁƳȀuÑǟ	-10393
ĨÑƳĨİuu	-10394
ƳƋĨÑÌȶĨơƳ	-10395
İȲȲƳơuĨÑÌȶĨ	-10396
įĨƳƋĨ	-10397
ÁİįƦĨƳƋĨ	-10398
ĨƳȍȀįȀƳį	-10399
ÌƦÑÌÁ	-10400
ƳįuĨƳƋĨ	-10401
İÑİĨƋƳ	-10402
ȀÑĨȀuĨÑÌȶĨ	-10403
İDuÑ	-10404
uǐĨƅȶ	-10405
Ȳȶİuǟ	-10406
İuuȲİį	-10407
ȶȲȲuĨİ	-10408
ĨÌȶİȲÑÌĨİį	-10409
ǐȎȭƳ	-10410
ȍȍƳȀįÑ	-10411
ȀİDȶÑȀ	-10412
▁ÌȶĨơİuĨ	-10413
uDǟ	-10414
ƅƳǟuȶ	-10415
ǐĨĆȀ	-10416
ĨĀǟÁDȶ	-10417
ȶuĨİįĨ	-10418
ƳÁȶĨȍ	-10419
ÑuĨƳƋĨȍ	-10420
İįÑȀDȀƳÑȀ	-10421
İįĥȶ	-10422
uȶǟ	-10423
İįÑİŦȶ	-10424
ĨİĨȲƳÑĨ	-10425
ƳȲĨƳ	-10426
řȶįÑǟ	-10427
ȀÑĨȀuĨİĨ	-10428
FīĨƳ	-10429
uÌİȲȲ	-10430
ÌĨơȶĨ	-10431
ĨȶęÌȀD	-10432
tįƋƳ	-10433
ĨȍİȀįÑȶ	-10434
ĨŦǟİ	-10435
Ȑuȍȶ	-10436
uǟȍȍƳuȶ	-10437
ȀįŦĨÑÌȶĨu	-10438
ȶĨÌİuĨDȶȶįĨ	-10439
uīĨơȶĨ	-10440
uȀÑƦĨƳƋĨƤİȲȀƋƳ	-10441
ǶǟÑǟ	-10442
ƳįĨơÌȀ	-10443
ƳȲȀįİĨ	-10444
ȀÑƦĨơİuĨ	-10445
ÑȀȶuīĨ	-10446
ȱÑÌȶĨ	-10447
ĨǶǟį	-10448
ƳȲȲȀuȀƳį	-10449
İįȶİįĨ	-10450
ȶįöƳƦĨ	-10451
ĨÑÌȶĨǟį	-10452
ƳįŎÑĨÌİ	-10453
Ôų	-10454
uǐȎýÌȶ	-10455
ȀįŦĨȶį	-10456
ƳįȶĨơ	-10457
ȶȲȀÁȀįİ	-10458
uĨuƳ	-10459
ÔȶÑȶ	-10460
ǟuÌȀ	-10461
ȶįÑȀÑȲȶ	-10462
ȶȀȲȲİį	-10463
ĨÑƳĨÌȀuĨ	-10464
ĨÑÌȶĨƯ	-10465
ŦȶȐu	-10466
ȶuĨÑÌİÑĨÌİ	-10467
uǐĨǗİįƦĨ	-10468
ƋȶȶÑĨ	-10469
ĨÑÌȶĨtǐ	-10470
ƦĨȀuĨİĨ	-10471
ÁİĨ	-10472
ćȲȀľİDȶ	-10473
ĨİįİȲƦu	-10474
ýƳȍȀ	-10475
ÑƳÁD	-10476
İÑȶŦȀȶuĨƋƳ	-10477
ĨȶǡǟȀȍÁȶįÑĨ	-10478
ĨȍȶƳȍȲȶĨơȀÑÌ	-10479
ÑİDƳȲȀuÁ	-10480
ÑİįȶƳǟuĨ	-10481
řį	-10482
ƳDu	-10483
uĨƋİ	-10484
DİuȀuĨ	-10485
ƳȶuĨÑÌȀuĨ	-10486
ĨįƳį	-10487
ȶįöƳƦ	-10488
İȲĨƅȀuÑƳ	-10489
ƦƳǟĨĥįƳơ	-10490
İȀȲơİƦĨ	-10491
İįÑİŦȶuĨ	-10492
ĨÌƳį	-10493
İȲƳįȶĨ	-10494
İįÑİuÑȀ	-10495
ȀįĨÑȶ	-10496
uīĨÑƳĨ	-10497
ųȀŦÌÑuĨ	-10498
ĨżƥŻė	-10499
ƳÁÁȶįÑİ	-10500
İȀįȀįŦ	-10501
ƤƳǟįÑƦ	-10502
ÑȀÁȀ	-10503
ǐĨǗȀ	-10504
ȀȍÑǟ	-10505
ĨuǟDu	-10506
ýȸ	-10507
ǐŦƳ	-10508
DǟuȀį	-10509
ÑȶÁȶįÑ	-10510
ȶįīĨİį	-10511
uǟŦŦȶuÑĨÑÌİÑĨ	-10512
ȀÑǟİÑȀƳįuĨ	-10513
ĨȍȀį	-10514
ȶȶȍȲƦĨ	-10515
İƋÑ	-10516
İơİƦĨƋ	-10517
ȀuİDȀȲȀÑȀȶuĨ	-10518
ǐÅĨ	-10519
▁ƳȀȲ	-10520
ȀȶįÑĨİį	-10521
ÐĨȀÑĨ	-10522
ȀįŦĨơȀÑÌĨÑÌȶĨ	-10523
īÅĨ	-10524
uĨÑƳĨÑ	-10525
▁ǐĨƯȶȍİ	-10526
▁ȀÁȍȲȶĨ	-10527
uɁȎɁ	-10528
ȶĨİuĥȶ	-10529
ȶįÑuĨƳ	-10530
▁įƳơ	-10531
ƳǟÑÌȶ	-10532
ȶuȀuĨ	-10533
ƳįȲƦĨƳįȶĨ	-10534
ÌȀŦİįĨ	-10535
ȀįĨİĨu	-10536
ÅīĨ	-10537
ƖİD	-10538
ȶĨÑÌİÑ	-10539
öǟuÑĨİĨ	-10540
ƳȍÌȀȲ	-10541
ȶǐĨȸį	-10542
ĨżƥŻõ	-10543
ȶÑÑȲȶ	-10544
ÑÌĨȀuĨ	-10545
NƖ	-10546
ÏDİÁİ	-10547
ȶįÑȀuÑ	-10548
ÌȀįŦĨƋƳ	-10549
ĨÑÌȶĨƋǟÑǟ	-10550
įĨȍİ	-10551
ȀįĨƋƳ	-10552
ȶuÑĨƋƳ	-10553
ȶĨȶęȍȲƳ	-10554
ÑȀȐ	-10555
ȶİƋ	-10556
ĨơȶDuȀÑ	-10557
ȶuǟȲÑuĨƋ	-10558
ÑȀȶu	-10559
ǗƳįÑ	-10560
İȲƳįŦĨơȀÑÌĨ	-10561
ÑƳįīĨ	-10562
ȸơİ	-10563
ȀİȲĨÑƳĨ	-10564
ƳơÑÌĨƳƋĨ	-10565
ÁĨȍ	-10566
ȀİÑȶȲƦ	-10567
ƳƋĨÑÌƳu	-10568
ȶDİȲȲ	-10569
ǐȤ	-10570
ƳƋȀÑ	-10571
ÌĨȍİȍȶ	-10572
ÁȀŦÌÑĨÌİ	-10573
ÑƳÑİȲĨƳƋĨ	-10574
ȀįĨȍİ	-10575
ĨÑÌȶĨȀÁȍƳ	-10576
ĨİŦȶį	-10577
Ĩżȹ	-10578
įĨȸ	-10579
DǟȲȲƦ	-10580
İȲȀuÁ	-10581
ƆƆƆƆƆƆƆƆƆƆƆƆƆƆƆƆ	-10582
ơȶŎ	-10583
Ĩįİį	-10584
uǟŦŦȶu	-10585
ȶuÑuīĨ	-10586
ĨÁǟuȶǟÁ	-10587
ȶĨÑƳĨȲȶİ	-10588
ÑȀÁȶĨƳƋĨÑÌȶĨ	-10589
ÁƳƳ	-10590
Ȁȍİ	-10591
FĨÌİuĨ	-10592
uĨƳǟÑĨ	-10593
ĨƳƋĨuȶ	-10594
uĨİuĨơȶȲȲĨİuĨ	-10595
Ĩżĭ	-10596
ƳDȲȶÁĨ	-10597
ĨuÑƦȲȶĨ	-10598
ĨÁȀįȀÁǟÁ	-10599
ȲȶuuƳįĨȍȲİį	-10600
ǟȀu	-10601
ȀƋƦȀįŦĨ	-10602
İuȀƳįİȲȲƦĨ	-10603
tĀć	-10604
ĥİŦȶ	-10605
ćÑÌȀ	-10606
ǟƋƋ	-10607
ȐuƳȲ	-10608
ȀuĨİĨu	-10609
ĨuǟDÑ	-10610
ȱę	-10611
ÌȶȲȀ	-10612
ÁİęȀÁ	-10613
ȶĨȀįĨÑÌȀuĨ	-10614
ȶĨuǟD	-10615
ĨuÑȀȲȲĨ	-10616
ȀuȀƳįĨİį	-10617
ȶęÌİ	-10618
ȀįŦuĨƋ	-10619
ÑƳơįĨ	-10620
▁6	-10621
İuĥĨ	-10622
ƳÁĨȀį	-10623
İȲȲƳơȀįŦĨ	-10624
ȲİĥȶĨ	-10625
ÁȀȲĥ	-10626
ȀÑĨƳ	-10627
ǟuīĨÑÌȶĨ	-10628
ƋƳƳÑȍ	-10629
uǨĨȸ	-10630
ȲȶŦİ	-10631
ȶuuƋǟȲĨ	-10632
ȀƋƦ	-10633
ƳǟÑȀįȶĨ	-10634
ȀÁȀįİȲĨ	-10635
ȀȶÑȀȶuĨ	-10636
ȶįÑȀƳįĨƳƋĨ	-10637
ÔÔ	-10638
ŻFĨ	-10639
ȶĨȍƳȲȀ	-10640
ĨuÌƳơuĨÑÌȶĨ	-10641
uȍÌȶ	-10642
▁ȀýÌ	-10643
ȶįÑĨÑ	-10644
ƳİȲĨ	-10645
ȍƳuuȀDȲƦĨ	-10646
ȶįÑĨȀįĨÑÌȶĨ	-10647
ǐĨƤǟ	-10648
İÑȀƳįĨơİuĨ	-10649
ȍȶÑ	-10650
ȲȶȎ	-10651
ȎȸȲȲ	-10652
ƳơįīĨ	-10653
ȀȶuĨơȀÑÌ	-10654
ƋȶȲ	-10655
ĨuǟŦŦȶuÑȶ	-10656
Ȑȍİ	-10657
▁Ȁųȶ	-10658
ƳęȀÁİ	-10659
ȶuuĨƳƋĨÑÌȶĨ	-10660
NÁİŦȶĨ	-10661
ĨȀįĨȍȲİ	-10662
ÑĨuǟ	-10663
ƖİƦĨ	-10664
uÁİȲȲĨ	-10665
ȶįįȶ	-10666
ÑĨƯ	-10667
ȀuȶİuȶĨȀuĨ	-10668
ĨÑÌȶĨuÑİ	-10669
ǗǟuȶǟÁĨƳƋĨ	-10670
ĨİĨuǟ	-10671
ƅľ	-10672
İȲĨȀ	-10673
ȲƦĨȶ	-10674
ȶȶĨİ	-10675
ƳȍİÑÌ	-10676
ȀȶuĨƳįĨ	-10677
ÌƳƳȲȶ	-10678
ƳįuǟȲÑĨ	-10679
ÑȶįuȀƳįĨ	-10680
İÑÑȶįÑȀƳį	-10681
İÑȀƳįuīĨİį	-10682
Āƅ	-10683
ƳįĨÑÌȶĨȍ	-10684
Ĩȸǟ	-10685
ȶįÑuĨƳƋĨÑÌȶĨ	-10686
ƳŦuĨ	-10687
İDȀȲȀÑƦīĨ	-10688
ȀŦȶu	-10689
ȲƦĨƳ	-10690
ÑȶȲȲuĨ	-10691
ȶȍÑİDȲȶĨ	-10692
İĨȎ	-10693
ĨİuĨȍ	-10694
ĨżƥŻÀ	-10695
ȶĨÑƳơİ	-10696
ĨİĨƋȶơĨ	-10697
ȲȶuĨÑƳĨ	-10698
ĨDƳƦ	-10699
ÑȀuÌĨ	-10700
ŎuĨİį	-10701
ƦĨuÌƳơ	-10702
DȶİǟÑ	-10703
ÑİȍÌƳ	-10704
ǟuȶuĨƳįĨ	-10705
ĨżƥŻű	-10706
ȀÑȶĨƳƋĨ	-10707
ȀÑȀƳįİȲĨu	-10708
▁İƋ	-10709
uĨơȀÑÌȀįĨÑÌȶĨ	-10710
ýİȲ	-10711
uȲİį	-10712
IȎýÌȶĨ	-10713
ÑȀįŦĨƋ	-10714
ÌİȲƋĨƳƋĨ	-10715
ÌȶįƳÁȶįƳį	-10716
İuƳǟį	-10717
ȶİuÑĨƳƋĨ	-10718
ĨȍƳȀuƳį	-10719
ȶĨįǟÁDȶ	-10720
ĨÁȶȶ	-10721
ȲƳƳu	-10722
ȀȶuĨȍ	-10723
ĨȀįĨNį	-10724
ƳơuĨİį	-10725
ȀȶuĨƳƋĨu	-10726
ÌȶĨơ	-10727
ȀuĨƋ	-10728
ȶĨuȀ	-10729
ȶįÑĨÁƳ	-10730
İįĨƯ	-10731
ĥĨİÑĨ	-10732
ǟuȶĨİ	-10733
ȶīĨÑÌȶ	-10734
İƦǐĨýÌȶĨ	-10735
İįĨÌȶȲȍĨƦƳǟ	-10736
tÑİ	-10737
ÌǐȎ	-10738
İDuȶį	-10739
İȲȲĨȍ	-10740
īĨȶį	-10741
ĨÔȀ	-10742
ȶÌȀuÑƳ	-10743
▁ȸĨ	-10744
ȀįŦĨuȶİuƳį	-10745
ƳÁĨÑ	-10746
Ĩȍǟľľ	-10747
ŻȹÑÌĨ	-10748
ĨÁİȀįÑȶį	-10749
ȀįĨȶİ	-10750
İDİį	-10751
ȶǐȎȭ	-10752
ĨDǟÑÑȶ	-10753
ȲȀįŦīĨ	-10754
ȶuĨȀįĨİĨ	-10755
ǟįįȀįŦ	-10756
ƤÌȶÁȀuÑ	-10757
ĨRǟ	-10758
ȎuĨơƳ	-10759
ĨȶįƳǟŦÌĨ	-10760
ĨÁİȀįÑȶįİį	-10761
ĥŎuĨ	-10762
ȎȐĨǶ	-10763
ǟuÑĨİį	-10764
ĨƳƋĨuÑǟ	-10765
ǨĨÏ	-10766
ȍÌȀ	-10767
ȍȲİÑƋƳ	-10768
ơÌȶįĨƦƳǟ	-10769
ĥȀįŦĨu	-10770
ƳȲȀÑÌ	-10771
ȶĨÌİuĨDȶȶį	-10772
ȶīĨuǟ	-10773
ÑİįȶƳǟuȲƦĨ	-10774
Ĩżƥƥȹ	-10775
ĨİȲƳįŦĨÑÌȶĨ	-10776
ÑȀƳįuĨȀįĨÑÌȶĨ	-10777
ǐȎƖƦĨ	-10778
ȶuǐȎNį	-10779
ȶǐĨýÌȶƦĨ	-10780
ŻėĨ	-10781
ȶÁȶįÑuĨƳƋĨ	-10782
ĨȀuĨƳįȶĨƳƋĨÑÌȶĨ	-10783
İuuơƳ	-10784
ÁȀuu	-10785
ȶįǐ	-10786
ƳƋȶuuȀƳįİȲuĨ	-10787
ƳÁĨĆ	-10788
ĨÌİuĨÑÌȶĨ	-10789
ǐǗ	-10790
ȐǶ	-10791
įȶȲȲ	-10792
ơȀuȶīĨ	-10793
ƳƋĨuÑİ	-10794
įĨu	-10795
ȀȶÑƦĨİį	-10796
ȶuȶįÑİÑȀƳįĨ	-10797
ĨÑİę	-10798
uĨuİƦ	-10799
ơȲ	-10800
▁ǰR	-10801
ĨȍȲǟ	-10802
ȶİuƳįuĨƋƳ	-10803
ȀİȎuĨ	-10804
ĨÏD	-10805
ŦīĨ	-10806
ǐĨż	-10807
ĥȶȲȶÑ	-10808
ȀuÑuīĨ	-10809
ƳÑÑĨ	-10810
ÌǐĨýÌȶĨ	-10811
ǐȎȸįƳÑÌȶ	-10812
ĨuǟȍȍȲȀ	-10813
ƳǟŦÌĨİį	-10814
ǐĨǶƳȲȲƳơ	-10815
Áȍȶ	-10816
ƳDȲȶÁuīĨ	-10817
ĨÑƳĨȲȀ	-10818
İȲĨȲİį	-10819
ÌƳÁȶĨÑƳĨ	-10820
FīĨİĨ	-10821
İįĥuĨÑƳĨ	-10822
ȀuȀu	-10823
▁ȀÑȶ	-10824
ƳDƳÑĨ	-10825
ĨȶǡǟİȲ	-10826
ȶuuȶįÑȀİȲ	-10827
ȶĨİÑĨȲȶİuÑĨ	-10828
ȶŦȀƳįĨƳƋĨ	-10829
īƥƥƥĨȍȶƳȍȲȶĨ	-10830
ŦȶĨȍ	-10831
ȀįŦĨDȶ	-10832
ĥȀįŦĨƋƳ	-10833
ĨȀįÑȶȲȲȶ	-10834
İȲȀį	-10835
ÌĨÁȶİį	-10836
ȀȲȲȶīĨ	-10837
ĨÑƳĨuƳȲ	-10838
ƳȲīĨ	-10839
ÌƳƳȲuīĨ	-10840
īĨÑÌȶƦĨÌİ	-10841
ĨƤȲİ	-10842
ȀįÌȶ	-10843
ȲƦīĨİį	-10844
ǐȎÔİ	-10845
ĨƳęƦŦȶį	-10846
ȲƳŦŦȶ	-10847
ĨȀuĨÁİ	-10848
ƳƋĨİĨȍ	-10849
ÑǐĨýÌȀuĨ	-10850
ĨÁƦ	-10851
ÑȀįŦĨƳ	-10852
ĀÏý	-10853
ųƳD	-10854
ŦƦĨȶƋƋȀ	-10855
İȲĨƯ	-10856
ȀȶuȶȲ	-10857
ÁİįīĨ	-10858
ľƦÁ	-10859
ĨơƳǟį	-10860
ƳÁȍȀȲ	-10861
ĨƤǟȲÑǟ	-10862
ĨǡǟİįÑȀ	-10863
ȶuǐĨÔ	-10864
ĨǟįȀǡǟ	-10865
įÁȶįÑĨİį	-10866
ĨȶÑĨ	-10867
įȶuÑ	-10868
uǟȀÑİDȲȶĨƋƳ	-10869
Ʀįİu	-10870
ȶǐĨN	-10871
ĆȶįȶÑȀ	-10872
ĨȀÁİŦȀį	-10873
ȲƳȀ	-10874
ƋȶÁİȲȶĨ	-10875
ȀľİÑȀƳįĨ	-10876
įȶŦƳÑȀ	-10877
ĨÑƳĨÑÌȶÁ	-10878
ƳįȶǐĨ	-10879
ȶİÑĨȍ	-10880
ȶĨİĨįǟÁDȶ	-10881
ÁȶįÑİÑȀƳį	-10882
ƅİơİȀȀ	-10883
ȶĨƳƋĨŦ	-10884
ȶĨơİįÑĨÑƳĨ	-10885
İįĨȶƋƋȶ	-10886
ÌĨȀįĨÑÌȶĨ	-10887
ÐĨİ	-10888
ȶȍÑİį	-10889
ÌƳƳȲĨƦȶİ	-10890
ǐýÌȶĨ	-10891
ÌīĨÑÌȶĨ	-10892
īėƥƥ	-10893
ǐĨƯȀ	-10894
İuuȀŦįȶ	-10895
ȶuuĨƳ	-10896
İȲȲƦĨƋƳ	-10897
ĀİÁȶ	-10898
ĨƤƳÁÁǟįȀÑƦĨ	-10899
ĥĨýȀÁ	-10900
ȀÑİÑȀƳįĨ	-10901
İŦİ	-10902
ŦȶĨƋ	-10903
ǐĨNįĨƳ	-10904
uǐĨýÌȶu	-10905
řįƳơȲȶ	-10906
ǐĨǗİĥȶĨ	-10907
ȲƳơį	-10908
ȶİĥÑÌ	-10909
ÑĨƳƋĨÑÌȶȀ	-10910
DȀÑuĨ	-10911
ȶDİÑȶĨ	-10912
İĨý	-10913
Ȁľİ	-10914
ĨÑƳĨuÌİ	-10915
ƳÁȎ	-10916
ÌȀŦİį	-10917
uǐĨNįĨİ	-10918
ĨÌǟuDİį	-10919
İÑȀƳįĨDƦĨ	-10920
»3⁄4	-10921
ÑuȎȐĨ	-10922
ȀİįÑĨ	-10923
ÁİƦĨįƳÑĨDȶĨ	-10924
▁Ȁȶ	-10925
ǐĨýÌȶĨÑ	-10926
ÑİuÑȶ	-10927
ƳÁȍȶÑȀÑȀƳį	-10928
ƳŦįȀÑȀƳį	-10929
ȶįÑȀƋƦĨİį	-10930
ȲȀįŦǟȀuÑȀ	-10931
ȎȎȎȎȎȎȎȎȎȎȎȎȎȎȎȎ	-10932
ǗİĥȶĨuǟ	-10933
ǶƤ	-10934
RȀƋȶ	-10935
ĨŦİȲȲ	-10936
ÑȀÁȶĨÑÌȶĨ	-10937
īĨÑÌȀuĨȀuĨ	-10938
ŦȶƳ	-10939
ĨƤÌȶ	-10940
ĨİįƦƳįȶĨ	-10941
uȶu	-10942
ȀÑǐȎ	-10943
ȀuȀ	-10944
ǟƳǟuĨ	-10945
DİÑÑȲȶĨ	-10946
ÏįȲƦĨ	-10947
ơƳÁİį	-10948
ǟȀÑĨİį	-10949
įİÁȶĨƳƋĨ	-10950
Ĩȱİį	-10951
İįĨơƳ	-10952
ȶĨȀįĨơÌȀ	-10953
ćȸ	-10954
Āȶȍ	-10955
ÑĨÑÌ	-10956
uĨȀuĨÑÌȶĨ	-10957
ȶuĨİDƳǟÑĨ	-10958
ŎŎ	-10959
ƳÁƦ	-10960
ÑǐĨȸ	-10961
ȸȲİu	-10962
ȶȍÑĨƋƳ	-10963
ȶĨǟįÑȀȲ	-10964
DİȲĨ	-10965
ơȶȶĥĨ	-10966
ȶĨİĨȍȶ	-10967
ǐų	-10968
İÑİuÑ	-10969
ýȀÑ	-10970
ýȀȍ	-10971
ƤȲİ	-10972
uīĨơ	-10973
Ĩuȶȶį	-10974
İuĨȍİ	-10975
ƦǐĨNÑĨ	-10976
ǐĨƖȶƋƳ	-10977
ȶŦǟȲİÑȀƳį	-10978
Ćȸ	-10979
ȎÑƳĨ	-10980
ȶuĨuÑǟ	-10981
ȲȶĨƋƳ	-10982
öƳȀįĨ	-10983
DƳǟÑĨÑÌȶĨ	-10984
ĨÑÌȶĨƋǟȲȲ	-10985
Ĩuȍȶİĥȶ	-10986
ÁİƦĨD	-10987
▁İę	-10988
ÁȀįȀįŦĨ	-10989
ơȶĨĥįƳơ	-10990
ǗȀuuȀuuȀȍȍȀ	-10991
ȍȲİÑȶ	-10992
ǐȎýÌȶĨİ	-10993
İĨǶ	-10994
ȶĨuÑİį	-10995
İįĨƳDöȶ	-10996
ĨơȀȲȲĨȲȶİ	-10997
ŦȶĨu	-10998
ȶǟÑȀ	-10999
ȲȀĥȶȲ	-11000
ȀĥȀįŦĨ	-11001
ȲȀįŦĨİį	-11002
ƦĨǶ	-11003
ȀİŦįƳuȀuĨ	-11004
ȶuÑȀįİÑȀƳį	-11005
ȶuĨu	-11006
İuȀÑȶ	-11007
İÑȀįŦĨİ	-11008
ƳÁÁǟįȀÑƦīĨ	-11009
ȶİȲȀįŦĨơȀÑÌ	-11010
ǐȎȐĨNį	-11011
İÁȶį	-11012
õȎ	-11013
ȀÑȀƳįīĨÑÌȶĨ	-11014
uĨƳƋĨÑÌƳǟuİį	-11015
ƨĨý	-11016
uĨǟuȶĨ	-11017
ŦƳĨÑƳĨ	-11018
ƳįÑȀįȶįÑİȲĨ	-11019
Ȑuȶ	-11020
įuĨƳƋĨ	-11021
ÑȀįŦĨƋƳ	-11022
ȎÑ	-11023
ĨƖƳƳĥ	-11024
ƦĨĆ	-11025
İįĨƦƳǟĨ	-11026
ĥȶīĨ	-11027
ÑȀįŦĨƦƳǟ	-11028
įƳÑĨDȶĨ	-11029
İįĨN	-11030
ĨÑÌȶĨŦƳ	-11031
Żĭƥ	-11032
ȱȀį	-11033
Ĩƅȶį	-11034
İȲĨÁİ	-11035
ƳȲĨƳƋĨ	-11036
İĨȸ	-11037
ȀİȲĨȀį	-11038
ĨÑÌȶĨȲȶİ	-11039
ÁuĨƳƋĨÑÌȶĨ	-11040
tȍȍȶ	-11041
ǐĨRİ	-11042
Ĩȍİuuȶ	-11043
ȶȲƳȍĨİĨ	-11044
ĥuĨƳ	-11045
ǟįÑ	-11046
ĨĥȶƦĨ	-11047
ȐuȀľȶ	-11048
ĨİÑĨÑÌȀuĨ	-11049
ǐĨĀȶ	-11050
ĨųȶȍƳ	-11051
ĨÌȶȲȍuĨ	-11052
ȎD	-11053
▁ȀȭÌȶįĨ	-11054
ȎĨȎ	-11055
Ȑȶį	-11056
ǟuİŦȶĨ	-11057
ȶȲȲuīĨ	-11058
İǟȲȀ	-11059
uĨİƋƋȶ	-11060
ȶuÑȶȶÁ	-11061
ǐĨNįĨŻȹ	-11062
ÌĨİu	-11063
ųȶȲİÑȶ	-11064
uĨƳƋÑȶįĨ	-11065
ÑĨDȶ	-11066
ȲȀŦÌÑuĨ	-11067
ĨŦȲƳDİȲĨ	-11068
ÔÌȀȲİ	-11069
ǟuuȶuĨ	-11070
ƳȶuĨįƳÑĨÌİ	-11071
uĨɁ	-11072
ÑÌĨİįįȀ	-11073
ȍĨ	-11074
ȶİÑĨƖ	-11075
uĨİDƳǟÑĨÑÌȶĨ	-11076
ƳuuȀ	-11077
õƯĨȍ	-11078
ÑuǐȎýÌȶĨ	-11079
ȀÑƦĨÑÌİÑĨ	-11080
ǟįĨ	-11081
ȎĨƋƳ	-11082
ȶįÑİȲ	-11083
ȀįȶĨȀuĨ	-11084
ĥuǐĨ	-11085
ĥȲİÌƳÁ	-11086
ȶĨÑƳƳȲ	-11087
İÑİĨȀuĨ	-11088
ÑĨǗ	-11089
▁ƳįŦ	-11090
ÑÌȶƦȎ	-11091
ŦȶĨÑÌȶĨ	-11092
ơȀÑÌĨÑÌȶȀ	-11093
ȀįŦǐĨýÌȀuĨ	-11094
Ĩżű	-11095
ĨȸǟŦ	-11096
ȶĨÑǟ	-11097
ĨİÑƳÁ	-11098
ȀįŦĨȀįƋƳ	-11099
ÑƳĨuÑƳȍ	-11100
İȲȲĨİį	-11101
ƯİĥƳÑİ	-11102
ȀDǟÑȶĨÑƳĨÑÌȶĨ	-11103
ƳƦĨ	-11104
ȲǟįŦĨ	-11105
ĨÑÌȶĨįȶȶ	-11106
ÑÌĨƳ	-11107
ȶȶįĨİį	-11108
ÌĨơ	-11109
įĨƳ	-11110
ĨƯȶȍİ	-11111
ĥĨơȀÑÌĨ	-11112
ȶǡǟİȲȲƦĨ	-11113
ǐȎĨ	-11114
uĨȎĨ	-11115
ÌĨÌȶĨ	-11116
ǟȲȶuĨİį	-11117
Ưý	-11118
ĨŦİu	-11119
İįĨơ	-11120
ȶȍȍȶ	-11121
ÌİDȀÑĨ	-11122
ȶÌİDȀȲ	-11123
ȶĨÑÌİįĨİĨ	-11124
ĥuĨȀįĨ	-11125
ȶuĨȍȶ	-11126
ȶįÑuŎ	-11127
ÁȶuuİŦ	-11128
ÑÌȲȶÑȶ	-11129
İįįȀ	-11130
ȎȭȶĨ	-11131
ƳÑÑƳį	-11132
ƳȲİÑȶĨ	-11133
ȀȶuĨuǟ	-11134
ĨİǐÁ	-11135
İĨįȶơ	-11136
ȶīĨu	-11137
īĨÌİuĨ	-11138
ȀİÑȀƳįĨƋƳ	-11139
İȲĨİȍȍ	-11140
ÌƳuȶį	-11141
ĥȶƦĨÑƳĨ	-11142
ȍƳȶÑ	-11143
»»5	-11144
▁Ȁȱ	-11145
ȶǐȎƤ	-11146
ÑÌİ	-11147
Ïȍȶį	-11148
īĨơÌȶÑÌȶ	-11149
ƦĨÑȶ	-11150
ƤƳǟįÑƦīĨ	-11151
Ƌȶơȶ	-11152
ĨȀįĨý	-11153
ĨÁƳDȀȲ	-11154
ȎȭÌȶįĨ	-11155
ĨÑƳĨuÌƳơ	-11156
ȲȶÁȶįÑİÑȀƳį	-11157
ȶöǟ	-11158
ĨȀįĨD	-11159
ĨȀįĨĆ	-11160
DȀŦŦȶ	-11161
Ĩżƥƥƥ	-11162
▁ȶȲƋȐ	-11163
ȀįŦĨÑÌȶĨÑ	-11164
ȶÑÑ	-11165
Ĩǡǟİ	-11166
ȶȶįȶ	-11167
ÑİDȀȲȀÑƦĨ	-11168
Rİǟ	-11169
ȶĨuȶȶį	-11170
Ŧȶİ	-11171
ƤİÑÌȶ	-11172
ƳįÑȀȶ	-11173
ĨÑÌȀuīĨ	-11174
ĨÑÌȶĨȍƳơȶ	-11175
īĨÔÌ	-11176
ȶȲȲȶį	-11177
ŦȶīĨİį	-11178
ƳįĨƳǟ	-11179
ȀuİÑȀƳį	-11180
DƳƦ	-11181
ĨǗǟ	-11182
ĨÌƳơĨÁǟ	-11183
ĨuƦuÑȶÁĨ	-11184
Ĩżż	-11185
ÁƳįȶĨ	-11186
ȶuĨDȶÑơȶȶįĨ	-11187
ȶįÑuǐ	-11188
uīĨơÌȶ	-11189
ƳįÁȶįÑİȲĨȍ	-11190
ȀÑȀľȶįuÌȀȍ	-11191
ȲuĨ	-11192
ÑȀuȶ	-11193
ƳįĨƖ	-11194
ŦȲİuuĨ	-11195
ĨơİuĨǟuȶ	-11196
ÌƦȲƳ	-11197
ĥĨÌƳȲ	-11198
ȀuȀįŦ	-11199
ȍÑȀ	-11200
ÑƳĨƋȀį	-11201
uȎÔ	-11202
ÑÅ	-11203
įȶȀÑÌȶ	-11204
ĥĨÑ	-11205
Ĩİįį	-11206
ȀÑƦǐĨ	-11207
ĨDƦĨÌȀuĨ	-11208
ĨųǟuuȀ	-11209
ĨDƦĨÑÌȶĨȍ	-11210
ĨÌƦȍȶ	-11211
ȶĨuİƋȶ	-11212
ÁİÑȀƳįĨȍ	-11213
ĨİDȀȲ	-11214
▁ÑİŦȶĨ	-11215
uĨȀįĨƳǟ	-11216
ÌȶȲȍȀįŦĨ	-11217
ȶĨř	-11218
FĨÌİ	-11219
ǐȎÅýÌȶĨ	-11220
ȶĨÌȀuÑƳ	-11221
ŻȤȤÀ	-11222
Ȁuȍİ	-11223
İįȀİĨ	-11224
ȎȐĨNį	-11225
ĨÁİuÑȶ	-11226
İƋȶÑƦĨ	-11227
ȍİŦȶuĨ	-11228
ÑÐ	-11229
ȶĨǡǟȀ	-11230
ĨİĨuÑƳ	-11231
ȀįŦīĨİ	-11232
İȲƳįŦuȀ	-11233
ƳÁǐ	-11234
īĨŻű	-11235
ƦĨŦƳƳ	-11236
ƳįŎuĨ	-11237
ȲȀįȶīĨ	-11238
uȀįŦȲȶĨ	-11239
ƋİÁȀȲȀȶuĨ	-11240
ĨİĨuȀŦįȀƋȀ	-11241
İȀŦÌÑ	-11242
ȶuĨuȶ	-11243
ÔİĥȀuÑİį	-11244
ĨųƳDȶ	-11245
Dǟį	-11246
ǟÁÁ	-11247
ĨƋİD	-11248
ƦƳǟĨÑƳĨ	-11249
ĥuīĨİį	-11250
ƳĨƳ	-11251
ƳuÁȀ	-11252
ǟuĨƋ	-11253
ȶuuǐĨȸ	-11254
ĨÁƳuÑȲƦĨ	-11255
ǐĨŻ	-11256
ÁİįƦīĨ	-11257
İÑȀƳįĨȸ	-11258
ȶįÑīĨİį	-11259
öİơ	-11260
ȀuÑİ	-11261
ĨDƦĨƖ	-11262
ĨÑÌİÑĨƳ	-11263
ĨİuĨÑƳĨ	-11264
ĨȀÑĨÑƳĨ	-11265
ƨĨÔ	-11266
ƳÁȍİuu	-11267
ȶuǟȲÑuĨİ	-11268
ȶȲĨƳƋĨÑÌȶĨ	-11269
ÁİÑÌĨ	-11270
ƅƤ	-11271
ýǟD	-11272
ÁİŦįȶ	-11273
DǟÑĨįƳÑĨ	-11274
ĥĨu	-11275
ĥİį	-11276
ÑƋǟȲ	-11277
ȀįÑȶȲȲȶ	-11278
FĨȀuĨÑÌȶĨ	-11279
ĨȀÁ	-11280
ÑȀuȶĨ	-11281
DİÑÌ	-11282
ĥȶȲȶ	-11283
ĨǶÏų	-11284
ǐĨýÌȶĨuȶ	-11285
ÑÛ	-11286
ȍȲƳ	-11287
ćÁȍȶ	-11288
ǟȲȀį	-11289
ȀuīĨİį	-11290
ȶĨİȍȍȲȀ	-11291
ȀįŦīĨơ	-11292
İÑȀįŦĨƋ	-11293
ÌȀÁĨ	-11294
ƳÁȶĨu	-11295
ĨơÌƳĨȀuĨ	-11296
ȶĨƳƋĨÑÌȶuȶĨ	-11297
DǟuĨ	-11298
ĨŦȶƳŦ	-11299
ȶĨÑƳȲ	-11300
ĥȀįŦĨİ	-11301
ÑĨć	-11302
ÌĨƳį	-11303
ŦÌİį	-11304
ƳÁȀįŦĨƋ	-11305
ǗNý	-11306
ƳįȎuĨ	-11307
ÌȀŦÌĨȍ	-11308
ÑuĨȀuĨ	-11309
ĨÑİuĥ	-11310
ƳįÑİȀįuĨÑÌȶĨ	-11311
ƦĨȲİ	-11312
▁ơȀÑľȶ	-11313
ȶİuƳįİDȲȶĨ	-11314
ƋȀȲȶĨ	-11315
ǐĨƅȶį	-11316
ȀÑƦȎuĨ	-11317
ÌȀuÑĨ	-11318
ƳÁĨÌȶ	-11319
ĨơȶȲȲȐDȶ	-11320
ǡǟȶuÑȀƳįuĨİį	-11321
ĨNƋ	-11322
ǐȎƅİ	-11323
ĨuƳĨƳį	-11324
ÑuĨƳƋĨİ	-11325
FĨȸ	-11326
ȀįŦĨİįĨİ	-11327
Ĩżõ	-11328
ÁĨȀįĨ	-11329
ƤȀÑƦĨ	-11330
İÁȍǟuĨ	-11331
ĨDǟÑĨÑÌȶĨ	-11332
ȀįŦĨȀįÑƳĨÑÌȶĨ	-11333
uĨƅ	-11334
ƳįuĨİ	-11335
ȀįŦĨƖ	-11336
ĨƋƳuuȀȲ	-11337
ĨÌƳįƳ	-11338
ƋȶuÑȀ	-11339
ĨȲȀƋȶu	-11340
ýćų	-11341
ĨÑÌȶĨÁȶ	-11342
ýƤ	-11343
ȶǐȎÔ	-11344
öǟuÑĨİuĨ	-11345
ÌĨÑȶİÁ	-11346
İÑȶĨƦƳǟ	-11347
ƳįŦĨİį	-11348
ĨƦƳǟįŦĨ	-11349
ĨȍƳȲȲǟÑȀƳį	-11350
ŦȀİĨ	-11351
ƳDİD	-11352
İDƳǟÑ	-11353
ÌİįŦȶĨȀįĨ	-11354
ȀȍÑĨ	-11355
ȀİįīĨ	-11356
İƦĨƳƋĨÑÌȶĨ	-11357
İȲǟİÑȶĨÑÌȶĨ	-11358
İįĨȶęÑ	-11359
ȲȀİį	-11360
ȶĨuİƋ	-11361
ĥīĨÑÌȶĨ	-11362
żFĨ	-11363
ÑÌƳǟŦÌÑĨ	-11364
ƋƳȲȲƳơȀįŦĨİ	-11365
ȶuǨȎȐĨ	-11366
ȶĨȀuĨÑÌİÑĨ	-11367
ÑÑƳ	-11368
ǐĨȭÌȶ	-11369
ƳĨƋƳ	-11370
ĨƋİuÑĨ	-11371
ȶĨÌȶİȲÑÌ	-11372
ƤƳȲȲȶŦȶĨƳƋĨ	-11373
RƤ	-11374
ȶuuȎ	-11375
ȸŦȶį	-11376
▁ǟDu	-11377
ȍȶƳȍȲȶĨƳƋĨ	-11378
Ǘȶį	-11379
ȀįŦĨuƳÁȶ	-11380
ƦĨơȶ	-11381
İÁĨƋƳ	-11382
ȶȲƳȍĨİį	-11383
Āȶİ	-11384
ȲȶuȎ	-11385
ȲǟȀ	-11386
ȶDǟȀȲ	-11387
ĨÌȶİȲÑÌĨȍ	-11388
ȲƳƳĥuĨȲȀĥȶĨ	-11389
DȶįȶƋȀÑuĨƳƋĨ	-11390
ȶǐĨć	-11391
ƤȲİuu	-11392
ȶįöƳƦȶ	-11393
ȲİuÌĨ	-11394
īĨƳįȶĨ	-11395
ȀuȀÑuĨ	-11396
ȶĨuȍȶȶ	-11397
ÑÌƳƳ	-11398
īĨƳǟ	-11399
ȀįŦĨİįƦĨ	-11400
įƳÑĨİĨ	-11401
ƤƳįuÑȀÑǟ	-11402
İȲĨİȍȍȲȀ	-11403
ƳƋĨİDƳǟÑĨ	-11404
ĨÌȶį	-11405
Ĩuȶȶĥ	-11406
ÌİDȲȶĨ	-11407
İįÑuǐĨ	-11408
ȀįŦuīĨİį	-11409
ÑǟįȀÑƦĨƋƳ	-11410
ȶįÑĨÑƳĨÑÌȶĨ	-11411
ƳȲƳįŦȶ	-11412
ĨDȀį	-11413
ƳįȀİ	-11414
ĨuÑİÑǟu	-11415
ǐȎýÌȀuĨȀuĨ	-11416
ƥŻ	-11417
uÑȀÁ	-11418
İȲÑĨ	-11419
ƳįĨȶİ	-11420
õÛ	-11421
uƳĨÁǟ	-11422
ŦǟÁȶįÑ	-11423
ĨİÑÑȶįÑȀƳį	-11424
Ưų	-11425
ƦĨȲȶ	-11426
İÑȀƳįĨÌİuĨ	-11427
ÑƨȎ	-11428
ĨÌƦȍƳ	-11429
ȶĨơİuĨÑÌȶĨ	-11430
Ȑȹ	-11431
ǐĨNĨÌİ	-11432
İȲƦuȀuĨƳƋĨ	-11433
ƳƳÁĨİį	-11434
ÑİDȲȶīĨ	-11435
ÑuīĨÑÌȶĨ	-11436
ȶęȍȲİȀįĨ	-11437
ǐȎȎȭ	-11438
ƳįİÑȶ	-11439
ȍȲİuÑȀ	-11440
įĨȍ	-11441
ĨÑÌȶĨÁİ	-11442
ȶȲȲƳ	-11443
ȀįȶĨȱ	-11444
ȀȶįÑĨĆ	-11445
NÁȍƳ	-11446
ÌƳįȶĨ	-11447
ĨİȍȍȲƦ	-11448
ƳÁȶĨƳƋĨ	-11449
tć	-11450
ÁĨƳƋ	-11451
Ĩȶu	-11452
FĨÑÌİÑĨ	-11453
ƳÁȍȲȀuÌȶ	-11454
ÑƳƳȲĨƋƳ	-11455
ĨȶȀŦÌÑĨ	-11456
Ĩřİ	-11457
FĨȀį	-11458
ÑǟÁĨ	-11459
ÑȲİį	-11460
ŻȤƥƥ	-11461
ĨÑƳĨuÑ	-11462
▁ÑİįƋƳ	-11463
ȶÁƳÑȀƳįİȲ	-11464
ȶİÑȀƳįĨƳƋĨ	-11465
ÁȶÑÌİį	-11466
ĨƦȶȲȲƳơ	-11467
ÑǟŦǟ	-11468
ƖİÑÑȲȶĨƳƋĨ	-11469
ƋƳȲȲƳơȀįŦĨu	-11470
ȶĨȀįöǟ	-11471
ƳȎ	-11472
ƦuȶȲƋ	-11473
ǟuĨÑÌȶĨ	-11474
ȶĨuȲȶȶȍ	-11475
ƨĨÏ	-11476
ĨȶįƋƳ	-11477
İȲƳįŦĨơȀÑÌĨÑÌȶĨ	-11478
ȀȍȲȶ	-11479
ĨÑƳĨȀÑuĨ	-11480
Ȳȶįu	-11481
ȎȀį	-11482
ƦĨƳƋĨȍ	-11483
İȀȲİDȲȶĨȀįĨ	-11484
ÑÑȶÁȍ	-11485
ǐĨƯȀu	-11486
ƨĨƅƳơ	-11487
ÌƦĨȀuĨ	-11488
ÁȀįİÑȶ	-11489
ǐĨȸÁƳįŦ	-11490
ȀÑİÁȀįĨƤ	-11491
ȶĨơȀÑÌĨƦƳǟ	-11492
ȀƳŦ	-11493
ȍÌƳÑƳ	-11494
ȶȍȶİÑĨ	-11495
ȶĨȲİį	-11496
ȶįÑĨŦ	-11497
ƳÑÑȀuÌĨ	-11498
İǟuȶuĨÑÌȶĨ	-11499
ȶuuȶuĨÑÌȶĨ	-11500
ĨįƳÑȀ	-11501
uĨȐ	-11502
uƳȲȀ	-11503
uĨÑÌİį	-11504
ĨİįÑȀDȀƳÑȀ	-11505
ƳįīĨİį	-11506
ÏįĨÑÌȶĨ	-11507
ƦĨÁǟ	-11508
ƳįƋƳ	-11509
ȶƦĨİį	-11510
ƳuȀƳįĨ	-11511
īÅĨuİƦuĨ	-11512
ȶǐĨǶ	-11513
ǗƳįÑȶ	-11514
uƳįĨȀuĨ	-11515
ĨİĨȎ	-11516
İȲĨÑÌȀįĥ	-11517
ȶÁȶįÑuĨƋƳ	-11518
ÁǟįȀ	-11519
ĥȶȶȍȶ	-11520
DƦĨİ	-11521
ȀįŦĨý	-11522
uĨƳƋĨÑ	-11523
ȶĨȶȀÑÌȶ	-11524
īĨȀįĨơÌȀ	-11525
ȀįŦuĨÑƳĨ	-11526
ȶuÌƳȲ	-11527
ÑƳĨȍǟÑĨ	-11528
ĨÑÌȶĨǟuȶĨƳƋĨ	-11529
Ȥƥƥ	-11530
ȀÑȀȶuĨÑƳĨ	-11531
ƳįĨÌȀuĨ	-11532
ĨƦİ	-11533
ÑȀȲİ	-11534
ƦĨȐĨ	-11535
ǟľ	-11536
ȶĨÑÌİÑĨİ	-11537
uȍȀį	-11538
ĨÌȀŦÌȲƦĨ	-11539
ƦǨ	-11540
ƅƳį	-11541
ȍȶƳȍȲȶīĨ	-11542
ƳȍuĨ	-11543
DİįĨİ	-11544
İȲĨȶęȍȶ	-11545
ȀȶįÑȀuÑuĨİį	-11546
ƦĨǗ	-11547
ĨȲİD	-11548
ųƳÁȶ	-11549
ƳŦȶįȶ	-11550
İįĨÌȀuÑƳ	-11551
ÑȀŦǟ	-11552
ȐÀ	-11553
ÔİŦȶ	-11554
ĨÁȶÁD	-11555
ǐȎȐĨý	-11556
ȶȲȲīĨ	-11557
ÑÁȶįÑuĨ	-11558
ĆȶƳȲƳŦȀ	-11559
Ĩuǡ	-11560
ĨȀįĨÑÌȶĨƋȀ	-11561
ƦȐÑƳȐ	-11562
ÌȀŦÌȲȀŦÌÑȶ	-11563
ǟÑƳįƳÁƳǟuĨ	-11564
ȀÑȀįŦĨƋƳ	-11565
ȶįÑȀƳįuĨ	-11566
ÑĨȎ	-11567
ÑīĨİĨ	-11568
uǐĨǗƳuÑĨ	-11569
ƦÑÌȀįŦĨƋ	-11570
ǐĨƅȶĨȀuĨ	-11571
ȀÑİÑȶ	-11572
įİÁȶĨȀuĨ	-11573
ǟǟÁ	-11574
ĨȀįöȶ	-11575
ȶuĨǟį	-11576
İȲȲȀįŦĨ	-11577
ȶĨÑÌȶĨƳ	-11578
uơȀÑ	-11579
Ĩȭȶ	-11580
īĨơƳ	-11581
ȶuĨÑ	-11582
Ĩơơơǐ	-11583
İįİȲƦľ	-11584
įȀįŦĨƋƳ	-11585
İȀįİŦȶĨ	-11586
ÁĨÑƳĨ	-11587
ȶĨÌȀŦÌȲƦĨ	-11588
ÔĨ	-11589
ǨĨN	-11590
ÁİįȀƋ	-11591
ƳÁȍİįƦ	-11592
ĨżƥŻȹ	-11593
ĨȲİDȶȲ	-11594
ĨÌƳuȍȀÑİȲ	-11595
ȎýƳ	-11596
ÌƳǟȲ	-11597
ĨNĨÌİ	-11598
ƯȀƋƋȶ	-11599
ĨRİD	-11600
ƦĨuÁİȲȲ	-11601
ǨĨȸį	-11602
ȶĨDȲİ	-11603
ĨǟuȶƋǟȲ	-11604
ĨơȀÑÌĨu	-11605
ĨÑÌȶĨNįÑȶ	-11606
īĨŦȀ	-11607
ĨȲȀĥȶ	-11608
İįĨŦƳ	-11609
ĨÑÌȶĨȲƳ	-11610
FĨȐĨ	-11611
ȶuǟȲÑuĨȀį	-11612
ÑȲȶuĨ	-11613
ĨȀįĨƋİ	-11614
ƳįĨÑ	-11615
İįİȲ	-11616
ȍÌƳÑƳŦ	-11617
ȶuÑĨȀį	-11618
ȶĨȀįĨȍ	-11619
uȶǡǟȶįÑȲƦĨ	-11620
uǟŦŦȶuÑ	-11621
İDȲȶĨÑƳ	-11622
ÑơȶȲ	-11623
ȲȶĨȱ	-11624
ȀuĨÁƳ	-11625
RȀįĥ	-11626
İÁİŦ	-11627
ȶuĨÑƳĨDȶĨ	-11628
ĨȶęİÁȍȲȶuĨ	-11629
ƳÁÁǟįȀÑƦĨİį	-11630
ȶįÑuĨuÌƳǟȲ	-11631
ǗƳįȀÑƳ	-11632
ĨÑÌȀį	-11633
ǨĨȸĨ	-11634
ÁƳȀuÑǟ	-11635
ƦĨȀuĨÑÌȶĨ	-11636
İȲȲȶƦ	-11637
ĨÔǟ	-11638
ȶİÑĨÑƳĨ	-11639
ȶȲİƦĨ	-11640
ÌǟÁİįĨDȶ	-11641
ĨƳƋĨý	-11642
ȶȲȶuu	-11643
ĨİĨƤ	-11644
ƳÁĨD	-11645
ĨƯİƦĨ	-11646
ĨDȶŦİįĨ	-11647
İįĨÌȶȲȍĨ	-11648
ĨǟuĨÑƳĨ	-11649
ȲȶuȀƳį	-11650
İƋƋ	-11651
İȲĨÑƳĨÑÌȶĨ	-11652
ĨƦȶÑĨ	-11653
ĥȀįŦĨȍ	-11654
ÑȎȐĨ	-11655
ÑĨÑÌȶĨȶį	-11656
ĨÑÌȶÁĨİį	-11657
▁ÑȶȍÌȶįĨ	-11658
ƳįȶĨİįƳÑÌȶ	-11659
ŦİÑȶ	-11660
ƳĨƦƳǟĨÑÌȀįĥ	-11661
ưİ	-11662
ĨÁƳƳ	-11663
ȎƋƳ	-11664
ȶȲu	-11665
İȲȲuĨ	-11666
ȶİĨƋƳ	-11667
ĨƳƋĨơİÑȶ	-11668
İÑȀƳįİȲĨȍ	-11669
ĨơȶİȍƳį	-11670
ĨȀƋĨÑÌȶĨ	-11671
ȶĨDȶȶįĨȍ	-11672
ƳįÑȀįǟƳǟuȲƦĨ	-11673
ĨƋȀƋ	-11674
İĨȲȀÑÑȲȶĨ	-11675
īĨÌȀuĨ	-11676
▁ÁȀÑÌuƳį	-11677
īĨÑÌȶĨuÑǟ	-11678
ĨÁȶÑİ	-11679
ĨÁȀęÑǟ	-11680
ȶĨƋȲƳơȶ	-11681
ÁƳuǡǟȀÑƳ	-11682
Ȁĥȶ	-11683
ĨÁȀįȀÁ	-11684
ȶįĨơȀÑÌĨ	-11685
ųȶįİȀuuİį	-11686
ĆİÁ	-11687
ǐĨȸȍȍ	-11688
İȲĨÁȶÑÌƳ	-11689
ǟÁİį	-11690
ȀuİDȲȶ	-11691
ĀȶơĨǗȶęȀ	-11692
ĨÑÌȶĨć	-11693
ǐĨƖƦĨÑÌȶĨ	-11694
ȍİÑȀÑȀ	-11695
ǟuīĨİį	-11696
ĨȍƳȀįÑȶ	-11697
ȶįȀƳ	-11698
ÑȀįŦĨƳƋĨ	-11699
ŦȶĨƋƳ	-11700
uĨDİuȶ	-11701
ǐȎĀƳ	-11702
ȀįÑȶįuȀ	-11703
ȀȲȀD	-11704
ȶĨĥȀȲȲȶ	-11705
ȲİuuĨƳƋĨ	-11706
ƳơīĨ	-11707
ȶÁDİ	-11708
ǟuȶuĨÑÌȶĨ	-11709
İȲĨȶįŦȀįȶȶ	-11710
ȭȀĥ	-11711
ȲȀįŦuĨ	-11712
ÌȀȲƳuƳȍÌȀ	-11713
ÁİįƦ	-11714
ĨÑƳĨȍȲİ	-11715
ÁƳǟįÑİȀįĨ	-11716
ƦĨuİȀ	-11717
ȶİȲĨơƳ	-11718
Ĩİę	-11719
ĥĨƳƋĨİ	-11720
ĨƋȀįİȲȲƦĨ	-11721
ÌƳơĨơȶĨ	-11722
ȶęȀuÑuĨ	-11723
ĨÑÌȶĨȸÁȶ	-11724
İDİ	-11725
IĨýÌȶĨ	-11726
ÑÌȶȎ	-11727
İÁȶįÑİȲ	-11728
ǐĨýÌȶĨŦ	-11729
uǐĨȭÌȶįĨ	-11730
ÌȶȲȍuĨÑƳĨ	-11731
ǡǟƳ	-11732
ưĨ	-11733
ĨuȍȀį	-11734
ĨȀįĨŻĭ	-11735
ȀÑuĨİį	-11736
ȀŦÌÑuĨƳƋĨ	-11737
İŦȶĨƳƋĨÑÌȶĨ	-11738
ƳȶƋƋȀ	-11739
ȶǐĨƖǟÑĨ	-11740
ǨȎŻ	-11741
ơİuĨİ	-11742
ȶĨDȶÌȀį	-11743
ÌȀŦÌĨDȲƳƳ	-11744
ȶĨÌȶȲ	-11745
ĨİÑĨİȲȲ	-11746
İÑȶĨȀįĨ	-11747
ȀįŦĨƋƳƳ	-11748
ŦȶȐ	-11749
ĥĨÌİ	-11750
İÑİīĨ	-11751
ȶĨİȲÁƳuÑĨ	-11752
ƦÑƳ	-11753
Dİįĥ	-11754
õĨİį	-11755
uĨƳƋƋȶ	-11756
ơȶĨįȶȶ	-11757
ƳįÑȀįǟȶĨųȶİ	-11758
ƦƳǟįŦĨȍȶƳȍȲȶĨ	-11759
ĥȶu	-11760
ȶęĨ	-11761
ƳȍȲȶuĨ	-11762
İȀįȀįŦĨİį	-11763
ƥż	-11764
ȀÑīĨİį	-11765
ÑĨȀįÑƳĨ	-11766
ĨȶİÑȀįŦĨ	-11767
ȀuİDȀȲȀÑƦĨ	-11768
ȀȶơĨİį	-11769
ȶįÑĨơƳ	-11770
ĆİȲȲȶ	-11771
ȶĨÑƳĨƋȀį	-11772
ƋİuÑ	-11773
İįŦȲȶĨ	-11774
ȀÑȀȶuĨȀįĨ	-11775
ĨįƳÑ	-11776
ĨÑƦȍȶ	-11777
įƳÑĨİ	-11778
ÁƳÁȶįÑĨ	-11779
ÑīĨȍ	-11780
Ĩįȶơu	-11781
ĨuȶuuȀƳį	-11782
ȐȀįȐ	-11783
ĨƳįĨİį	-11784
ÑȶuÑȀįŦĨ	-11785
Ìȶȶu	-11786
İuÌȶ	-11787
ƦĨuÑİ	-11788
Ƴįǡǟȶ	-11789
ȶĨƳƋƋȀ	-11790
ĨơȀȲȲĨD	-11791
ƳįȶĨơȀÑÌ	-11792
ĨÑÌİįĨƳÑÌȶ	-11793
ĨćȲ	-11794
įǟÑĨ	-11795
ǗȀȲȲ	-11796
ÔÌƳÑƳ	-11797
ȀȶuǐȎýÌȶĨ	-11798
uĨDİ	-11799
ÁȀÑȀŦ	-11800
īĨNĨ	-11801
Ƥİu	-11802
ȶÁȀÑÑȶ	-11803
ĨơİuĨƋƳǟį	-11804
ȶȲƦĨȍ	-11805
ȎȎýÌȶĨ	-11806
İȲĨȀįƋȶ	-11807
ȀÁuĨÑƳĨ	-11808
ĨƦƳǟÑÌ	-11809
ȀÑĨơȀȲȲ	-11810
ĨȀįĨÏ	-11811
İƦȎ	-11812
ȱŻF	-11813
ÌǟįŦ	-11814
ĨƤƳȍƦ	-11815
ÁǟuÑĨÌİ	-11816
ƤƳÁÁȀuuȀƳįĨ	-11817
īĨȲȀĥȶĨ	-11818
ƳƳÑȶ	-11819
ƳľȶįĨ	-11820
İȲĨųȶuƳǟ	-11821
ȭİuÌȀįŦÑƳįīĨƯ	-11822
İįĨơȶĨ	-11823
ǟuȶĨƋƳ	-11824
ĨȲȶįŦÑÌ	-11825
NÁȍİ	-11826
▁ƳƋÑơİ	-11827
NÑİȲȀİį	-11828
ȶĨÑÌİįĨİ	-11829
żƥȐ	-11830
Ûİ	-11831
ȀuİŦ	-11832
ǶȀŦǟ	-11833
ƳįĨȀÑuĨ	-11834
uįƳơ	-11835
ȲƳDȶ	-11836
ȲƳįŦīĨ	-11837
İǟuȶĨƳƋĨȀÑuĨ	-11838
ćÏ	-11839
Ĩȶuȍȶ	-11840
ĨÑƳĨÁȶİuǟ	-11841
ĨȀįĨÑÌȶĨD	-11842
ȶĨơİƦĨÑƳĨ	-11843
ƦĨơÌȀ	-11844
ĨơȶÑȲİį	-11845
ȎȐĨų	-11846
ĨǗİÑÌ	-11847
İįĨDȶĨÁİ	-11848
ȲȲȀŦȶįÑĨ	-11849
ȶįÑuĨơÌƳĨ	-11850
ȶĨȍƳuuȀ	-11851
FɁȎɁ	-11852
uFĨİ	-11853
ÁİȲĨu	-11854
ȶuīȎ	-11855
uīĨÌİ	-11856
ƦĨuȍȶ	-11857
ĨżƥŻŻ	-11858
ĨƋȀuÌĨ	-11859
ĨİÑÑȶÁȍÑĨÑƳĨ	-11860
ÑȶȶįĨ	-11861
ǡǟİȲȀƋȀȶ	-11862
uȀİ	-11863
ƳĨȀÑĨ	-11864
ÌĨÑÌȀuĨ	-11865
ƖN	-11866
ȶİÑĨİ	-11867
ȀįŦuǐĨ	-11868
ĨÑƳĨİĨu	-11869
ĨơȀȲȲĨįƳÑĨ	-11870
İÁuĨİ	-11871
ȶĨƳDuȶ	-11872
DȶĨuǟ	-11873
ȲȶƦīĨ	-11874
ȀDǟÑȀƳįuĨ	-11875
ȍƳÑȶįÑȀİȲĨƋƳ	-11876
ÔǗ	-11877
Ȁİǐ	-11878
ĨÁȶÑȶƳ	-11879
ĨÑƳĨȶęȍȲƳ	-11880
ĨơȀÑÌĨİĨȍ	-11881
ÌȀuÁ	-11882
īĨȀÑuĨ	-11883
ǐĨýÌƳu	-11884
ȀįÑȶuÑȀį	-11885
tųR	-11886
▁ȀÅ	-11887
ƳuuȀDȲȶĨ	-11888
tĥ	-11889
ǟDȶ	-11890
ȶĨƋȶȶ	-11891
ĨȶÑÌįȀ	-11892
ǟİȲĨİį	-11893
ȶǐĨưƳǟ	-11894
DƳƳuÑĨ	-11895
ĨżȤ	-11896
ǟįȶ	-11897
ȶȎȸ	-11898
īĨÑÌȶĨŦ	-11899
ǐĨýÌȀuĨİ	-11900
Ćų	-11901
DȲȶȶ	-11902
uƦįÑÌȶu	-11903
ȶĨƳȀȲ	-11904
ƳȍƳȲȀÑ	-11905
ȶĨÌİȍȍ	-11906
ĨuÌȶȲÑȶ	-11907
ƳÁĨÑÌİÑĨ	-11908
ȀİDȶÑȶuīĨ	-11909
įƳÑȶĨÑÌİÑĨ	-11910
ÅĨȀuĨ	-11911
ƋȀuÌȶ	-11912
ĨȀÁÁǟį	-11913
ȲȀÑÌ	-11914
İȲĨİuȍȶ	-11915
ȶįÑȀÁȶÑȶ	-11916
ĨơİuÑ	-11917
ĨƅǟÁİįĨ	-11918
ĨƳƋĨƳ	-11919
ȶęȍȲȀ	-11920
ȶuĨÁİƦĨ	-11921
ȲȀƋȶĨƳƋĨ	-11922
ȶȲİÑȀįŦĨ	-11923
ÌİȍuĨÑÌȶĨ	-11924
DȶŦȀįįȀįŦĨƳƋĨ	-11925
ĨÔƳȲȀ	-11926
ĨȎĨİį	-11927
ƋİuÌȀ	-11928
ȀÁȀÑȀ	-11929
uǐĨȸȲȲ	-11930
ĨȀuȲİį	-11931
ȀįŦǐĨȸ	-11932
ŦƳİȲĨƳƋĨ	-11933
ĨuȲȀŦÌÑȲƦĨ	-11934
uǐȎć	-11935
uÑĨÑÌȶĨ	-11936
ĨȀįȍǟÑĨ	-11937
uĨİuĨÑÌȶĨ	-11938
uǟȍȍȲȀȶ	-11939
ǐĨÏįȲƦĨ	-11940
uƳȲǟÑȶȲƦĨ	-11941
ȶuȶįÑuĨİĨ	-11942
ƨĨȱ	-11943
ÑȶįuȀ	-11944
ĨÑİȀȲ	-11945
ƦÑÌȀįŦĨÑÌİÑĨ	-11946
ȶÁȶįÑĨƋƳ	-11947
ƦȲȀ	-11948
ĨƋȀD	-11949
ƳDȲȀŦ	-11950
ǐƥƥ	-11951
ȶİÑȶĨİį	-11952
Ȑĭ	-11953
ÌǟuȶÑÑuĨ	-11954
ȀįİÑƳ	-11955
ėƥĨƦȶİ	-11956
ĨƤƳįuȶ	-11957
ǐɁȎɁ	-11958
ȶȲĨȱ	-11959
ȶĨuİơ	-11960
İĨR	-11961
İơĨÁİÑȶ	-11962
ÌȀÑĨ	-11963
ĨuȀľȶ	-11964
ÁȎ	-11965
ĨżŻ	-11966
īĨuÑİ	-11967
ǐĨȭİÑȶ	-11968
ǐĨýÌȶĨơƳ	-11969
ÑơȶįÑȀȶÑÌĨ	-11970
ȲƳƳĥĨȲȀĥȶĨ	-11971
ȀȲİÑȶ	-11972
uǨĨýÌȶĨ	-11973
ÐĨÅ	-11974
ǐȍ	-11975
ĨĥȀȲȲ	-11976
ĨơÌİȲ	-11977
įİĥȶĨ	-11978
ȍƳuÑȐ	-11979
İįĨƖ	-11980
ĨȀuĨȍİ	-11981
ȶįƳÁȀį	-11982
ÑÌȶÁĨ	-11983
DǟÑÑƳį	-11984
İȲĨuÑİį	-11985
ƳơįĨƋ	-11986
ȀȶÑƦĨƳƋĨu	-11987
ĨơÌȀȲȶĨÑÌȶĨ	-11988
ĨDȶİÁ	-11989
ȶĨơȶİ	-11990
ȶǡǟİȲĨÑƳĨ	-11991
Āȶơu	-11992
İįÑĨȍ	-11993
İȲĨų	-11994
īĨÑÌȶƦĨơȶ	-11995
ǐȎćę	-11996
ÑȀÁDȶ	-11997
uĨİŦƳĨ	-11998
ĨÑÌȶĨĀ	-11999
ȀȶÑĨİį	-12000
ȶįĨİƋÑȶ	-12001
İȲȀD	-12002
ƳÁĨǶ	-12003
ƳįÁȶįÑİȲĨÔ	-12004
ǐȎȐĨƖ	-12005
ǐȎNįĨŻȤ	-12006
ĨÑƳĨÌȶȲȍĨ	-12007
ýƳȍ	-12008
ĥĨÑÌ	-12009
ÑİDȲȶĨİį	-12010
ƖÏ	-12011
ƳȲȲȀ	-12012
ȶįƳơįȶ	-12013
ƦĨƳƋĨİĨ	-12014
ȶuǐȎýÌȀuĨ	-12015
ǐĨýÌȶĨÁƳuÑĨ	-12016
ƋİȀȲȶ	-12017
ȶĨÑÌȶĨD	-12018
ȶĨơȀȲ	-12019
ÑȀƳįīĨÑÌȶĨ	-12020
ÁİĥȶĨƦƳǟ	-12021
▁ÌȶȲ	-12022
ȶĨȶęȍƳuȶ	-12023
ĨÑÌƳuȶĨƳƋĨ	-12024
ƨȎȭ	-12025
ǐĨȭÌȀ	-12026
ȶĨuƳÁȶÑȀÁȶuĨ	-12027
ÑĨN	-12028
ÛÌȶ	-12029
ȸuÑ	-12030
ȶĨÑİĥ	-12031
uÑĨÑȀÁȶ	-12032
ýȀ	-12033
ȎȎȎȎĨ	-12034
ÌĨuÑ	-12035
ȶĨDƳÑÌĨ	-12036
uĨȶį	-12037
ƳĨÑƳĨ	-12038
ȶįÑĨȱ	-12039
ǐĨýơƳĨ	-12040
ȀİÑȶĨȍ	-12041
ȶįÑĨȍȶ	-12042
ǟįƳƋƋ	-12043
ƳÁȶuĨȀį	-12044
ȶİuĨơÌȶ	-12045
ƳȍÑȀƳįuĨ	-12046
ƳįÑȶęÑĨƳƋĨ	-12047
&»	-12048
ǐĨõ	-12049
ĨĆƳƳŦ	-12050
ȶȲȀDȶ	-12051
uȀȶ	-12052
ƳÁĨȶ	-12053
ĨDƳÑÌĨÑÌȶĨ	-12054
ǟuȶuĨƳįĨÑÌȶĨ	-12055
ȲȀĥȶĨȍ	-12056
ƳÁīĨ	-12057
ȀİDȲȶ	-12058
İȲĨųȶuȶİ	-12059
ǶȀįİį	-12060
ÑĨuÑƳ	-12061
Ǘų	-12062
ȶįÑȎ	-12063
İȲȀÑƦĨ	-12064
ȀuÑuĨİ	-12065
ǐĨýÌȶĨÁƳ	-12066
ĀȶơuĨ	-12067
ĨĀȶơĨ	-12068
ƳĨÌİ	-12069
İȍÌƦĨİį	-12070
ƳįƋǟuȀƳį	-12071
uĨuÑ	-12072
ÌĨȲȶİ	-12073
ƳǟÑĨÑƳĨ	-12074
ȶĨÑÌȶĨDȶuÑĨ	-12075
ÑƳȀȲ	-12076
ŦƦĨuƳǟ	-12077
ĨİĨuȀÁȍȲȶĨ	-12078
ǟįĥ	-12079
ȲİǟŦÌ	-12080
ȎǗƳuÑĨ	-12081
ȶĨİÑÑİ	-12082
İįuÁȀÑĨ	-12083
ȶuĨơȀȲȲ	-12084
īĨÑÌȶįĨÑÌȶĨ	-12085
ȲƦȎ	-12086
▁ǟÁ	-12087
ǟuĨȍ	-12088
ĥȀįŦĨƳƋĨ	-12089
uÌƳơĨÑÌİÑĨ	-12090
ĆƯÔ	-12091
ȍȍİ	-12092
▁ȲƳ	-12093
Ĩćęȍȶ	-12094
ĨuƳÁȶÑÌȀįŦ	-12095
ĨȀįĨÑÌȶĨtǐ	-12096
ȶÁȀȐ	-12097
ĨơÌȶȶȲ	-12098
ĨȀįĨÑÌȶĨt	-12099
ƳǟŦÌĨÑÌȶȀ	-12100
ǐĨųȶÑ	-12101
İuĨİĨu	-12102
ÁȀįȶĨơÌȶÑÌȶ	-12103
ŻÀƥ	-12104
İÁȍȶ	-12105
ȀİȲȲƦ	-12106
ȶuĨİÑĨÑÌȶĨ	-12107
īĨuÌƳơ	-12108
İDȲ	-12109
ǗİöƳ	-12110
ȶuĨŦ	-12111
ĨƯİÑİ	-12112
ƳǟȍuĨİį	-12113
ȶuŎ	-12114
ĨİDİį	-12115
ĨƳƋĨD	-12116
Ǘİę	-12117
ƨĨNį	-12118
ƳǟįÑuĨ	-12119
ȶuuĨȀį	-12120
ȶuÑĨÑƳĨ	-12121
ǐĨýÌȀuĨȀuĨÑÌȶĨ	-12122
ĨŻī	-12123
▁ȸý	-12124
ȀȲƳÑĨ	-12125
ĨȀįĨćǟ	-12126
ĨƋǟȲȲƦĨ	-12127
ȶuuȶuīĨ	-12128
İȲuƳĨǟuȶ	-12129
uÑȶȶȲ	-12130
ÁİŦįȀƋȀ	-12131
ƦĨƳį	-12132
ĨơȀÑÌĨÑÌȶĨȍ	-12133
ĨuȶȲƋ	-12134
ĥȶȶȍĨÑÌȶĨ	-12135
ǐĨȭȀÑÌĨÑÌȶĨ	-12136
ųƳDƳ	-12137
ȀİȲĨȀuĨ	-12138
Ǘý	-12139
ƳįĨÔ	-12140
ĨơȶȲȲĨ	-12141
ǐȎȎȸ	-12142
ȶuuǐĨýÌȶĨ	-12143
ǶƯȸ	-12144
RƳơȶ	-12145
▁ƳǟÑÌĨƤİ	-12146
ȶĨİu	-12147
ȶuǐĨƯ	-12148
ĨǗȀȲ	-12149
ƅƳuȍ	-12150
ĨİĨÁİöƳ	-12151
ĨÑÌȶuȶĨu	-12152
ȶĨÑÌİÑĨƦƳǟ	-12153
ȎŦ	-12154
Ĩuǟuȍȶ	-12155
ȶȎuĨİĨ	-12156
ƳįĨÑÌȶĨŦ	-12157
ȶuuȶįÑȀİȲĨÑƳĨ	-12158
ÔƯ	-12159
ƳƳÑ	-12160
ȀįĨÑ	-12161
ȶįÑİŦȶĨƳƋĨ	-12162
ƦȀįŦ	-12163
ƋǟȶȲĨ	-12164
ơİƦīĨ	-12165
ĨÌȶȲȍȶ	-12166
ĨȶįİDȲȶĨ	-12167
ȲȀƋȶuÑƦȲȶĨ	-12168
tƯ	-12169
ĨİŦŦ	-12170
ȀȶuǨĨ	-12171
ȀİȲĨuȶ	-12172
▁İÁǟȶȲ	-12173
ȶĨÔİ	-12174
ȶīĨuƳ	-12175
ȶȲİDƳ	-12176
İÁƳǟįÑĨ	-12177
İDįƳ	-12178
ȀįŦĨDȲƳ	-12179
ȀȍİÑȀƳį	-12180
uȀľȶĨƳƋĨ	-12181
ŦȶƳį	-12182
įİÁȶuĨ	-12183
ȶįÑĨȲȶİ	-12184
įİÑȀƳįİȲĨİ	-12185
İįÑȀȐ	-12186
ĨİįįǟİȲĨ	-12187
ȐơȀ	-12188
ơȶĨơȀȲȲ	-12189
İÑȶuĨƋƳ	-12190
ĨİįĨȀÁȍƳ	-12191
ǐȎȸÑĨ	-12192
▁Ȁƅȶ	-12193
ÑƳęȀį	-12194
ȶįÑĨƳįĨ	-12195
uƳÁȶÑÌȀįŦĨÑÌİÑĨ	-12196
ÑĨİįuơȶ	-12197
İȲuƳĨƋƳǟį	-12198
ĨƳƋƋĨÑÌȶĨ	-12199
ȶĨÁȀ	-12200
ÌƳƳuȶĨÑƳĨ	-12201
ƳÁĨÑÌȶĨŦ	-12202
ȶęȍȲİȀįĨÑÌȶĨ	-12203
Ĩȹƥ	-12204
Áİuĥ	-12205
uīĨDȶ	-12206
ÑİįÑĨÑÌİÑĨ	-12207
ȎȭȀÑÌ	-12208
ĨƤƳǟ	-12209
ĨǟȍƳį	-12210
ȶīĨȀÑĨȀuĨ	-12211
ȀȍÑȀƳįĨƳƋĨ	-12212
ǗƳÑÌȶ	-12213
ǐĨȭÌƦĨ	-12214
▁Ȁųȶuȶİ	-12215
İȲȲƳơuĨƦƳǟ	-12216
Áǐ	-12217
ƳÁĨuȶ	-12218
ȶȲȀįȶuĨƋƳ	-12219
ĨİuuȶuuÁȶįÑ	-12220
ȶuĨơȀÑÌĨÑÌȶĨ	-12221
uǐĨĆ	-12222
İÑȀƳįuǐ	-12223
ȀİįŦȲȶĨ	-12224
ƋƳȲȲƳơȀįŦĨÑÌȶĨ	-12225
uȶĨƋƳ	-12226
ĨÑÌȶĨÁȀ	-12227
ĨuƳĨÁǟ	-12228
ƳįuȀuÑȶįÑȲƦĨ	-12229
ƳįuǟÁȍÑȀƳįĨƳƋĨ	-12230
ÌƳÁȶĨİį	-12231
İȲȲİÑȀƳį	-12232
uǟuĨ	-12233
ȶƋİǟȲÑĨ	-12234
ȐDƦȐuÑȶȍ	-12235
ȀįŦĨȍİÑÑȶ	-12236
ŦÁİ	-12237
▁ǟȲ	-12238
▁ÑǐĨR	-12239
İȲĨƋǟį	-12240
ĨÁȶįÑȀƳį	-12241
İǟuȶĨƳƋĨÑÌȶȀ	-12242
Ìȶǟ	-12243
ƳuȀ	-12244
ȸȲȶęİį	-12245
İǟuȶĨİĨ	-12246
ÁȶįÑĨƳƋĨÑÌȶĨ	-12247
ĨƳęȀ	-12248
İįȶ	-12249
ȶȲİÑȶĨ	-12250
ÁİĥȶĨǟȍ	-12251
ȲȶįŦÑÌĨƳƋĨÑÌȶĨ	-12252
ĥȶƦơƳ	-12253
ȀįȶĨƳ	-12254
ĨÑÌȶĨİŦȶĨƳƋĨ	-12255
ĨȍȶƳȍȲȶĨơÌƳĨ	-12256
ľǟ	-12257
ĥƦİ	-12258
ȶĨȶįƳǟŦÌ	-12259
IȎȸ	-12260
İįŦȲİ	-12261
ĨȀįĨǗİ	-12262
ÑİȲĥȀįŦĨİDƳǟÑĨ	-12263
uȶįu	-12264
ǟȲÑĨƋƳ	-12265
uȲȀŦÌÑȲƦĨ	-12266
uȍȶİĥȀįŦĨ	-12267
ÌĨÑƳĨÑÌȶĨ	-12268
ĨuƦuÑȶÁuĨ	-12269
ÌįƳȲƳŦƦĨÑƳĨ	-12270
uǐȎȐĨýÌȶĨ	-12271
ƳȍȲİį	-12272
ȀȶuĨÑÌȶĨ	-12273
ĨÁȶȲ	-12274
ȶįÑȐ	-12275
ĥȀįŦĨȀįĨ	-12276
ȀįŦĨȀįuÑ	-12277
ÌƳŦ	-12278
ȶīĨơÌȶ	-12279
tuȀįŦĨÑÌȶĨ	-12280
ȲȀÑĨ	-12281
ÑȀƳįǨĨ	-12282
ƅİơİȀ	-12283
ȶįÑÌĨ	-12284
ȶǐĨƅƳơȶ	-12285
ȶuǐĨNÑĨȀuĨ	-12286
ȲȀŦÌÑȐ	-12287
ÁuĨÑÌȶĨ	-12288
ƳuÑİÑȶĨ	-12289
DƦĨİĨ	-12290
īĨÑÌİÑ	-12291
ȶȍƳuȀÑȶ	-12292
▁ȀÁȍȲƦĨ	-12293
ĨÑƳĨÑÌİÑĨ	-12294
NÁȍȶ	-12295
Ìȶİȍȶ	-12296
ȶįÑŎuĨ	-12297
İÑİDİuȶĨ	-12298
ȀİÑȀƳįĨİį	-12299
ȀÑȀįŦĨİ	-12300
FɁɁ	-12301
ǐĨǶİ	-12302
ȶȶuĨİ	-12303
ǐĨRİÑȶ	-12304
ȶĨÑȶÁȍȶ	-12305
ĥȀȲƳÁȶÑȶ	-12306
İDȲȶĨÑƳĨİ	-12307
ÏÌȀƳĨ	-12308
DǟȀȲÑĨȀįĨ	-12309
ơȀÑÌĨƳÑÌȶ	-12310
ĨȀuĨÑ	-12311
ȶÑƳ	-12312
Áȶu	-12313
ǐȎƖİ	-12314
ĨuÑİƦĨ	-12315
ȤŻ	-12316
İÑuīĨ	-12317
ƳįÑİȀįuĨİĨ	-12318
ĨÑÌƳuȶĨơȀÑÌ	-12319
ȶįĨŦ	-12320
ȶȲƳȍÁȶįÑīĨ	-12321
İįȎ	-12322
ǨȎȐ	-12323
ƳęȀÁ	-12324
ĨDƳÁD	-12325
ȶįĨơȶ	-12326
ǟȲÑȀÁİÑȶĨ	-12327
ŦƦĨȍ	-12328
żƥõƥ	-12329
ƳȲİÑȀ	-12330
įuĨİ	-12331
ÌĨİuĨȍ	-12332
ĨƳƋĨÁƳ	-12333
ơÌȶįĨİ	-12334
ȶuÑȀŦİÑȶĨÑÌȶĨ	-12335
ǟȍȲȀ	-12336
ĨƋǟȶȲĨ	-12337
ĨĆȀ	-12338
ȶĨİĨuȶ	-12339
ĨýƦȍȶ	-12340
ǟDȲȶĨ	-12341
ȶįȶuuĨƳƋĨÑÌȶĨ	-12342
ĨƤȶ	-12343
uȶĨƳ	-12344
İȀȲİDȲȶĨƋ	-12345
ĨƳȍÑȀÁ	-12346
ĨȸÑȲİįÑȀ	-12347
uĨÑÌİÑĨȀį	-12348
ÌĨįƳ	-12349
ȶĨŦǟȀ	-12350
ÌĨÑÌȶȀ	-12351
ȀÑȀƳįȶ	-12352
ŦǟÁȶįÑuĨ	-12353
ȶÁȶįÑuīĨ	-12354
ĭƥĨ	-12355
ȀÑȎ	-12356
ĨȀįĨÌȶ	-12357
ĨDƦĨƳÑÌȶ	-12358
▁ȲȀ	-12359
ǟuȶĨȍ	-12360
İȲȀİīĨ	-12361
ȀƋĨÑÌȶ	-12362
ĥȀįŦĨƳįĨ	-12363
ǐȎř	-12364
ȶƋȶįu	-12365
ĭīĨ	-12366
ȶŦǟȲİÑȀƳįuĨ	-12367
įĨN	-12368
ƨĨȸį	-12369
▁ȶįȀƳ	-12370
ÌĨơȀȲȲĨ	-12371
ȀİȲĨŦ	-12372
uĨDȶȲȀȶ	-12373
ȶįȶĨ	-12374
ÑƳơįĨƳƋĨ	-12375
ȸįį	-12376
İÁİį	-12377
ÌȶȲȍĨȍ	-12378
▁İįĨƯȀȶ	-12379
ĨİuuǟÁ	-12380
Ûu	-12381
ơȀįĨ	-12382
ǐĨǗȶ	-12383
▁İÌİ	-12384
ơȀÑÌĨȍ	-12385
ŦȶÑĨƦƳǟ	-12386
Ćƅ	-12387
ȶĨuƦį	-12388
ĨÑÌȶĨų	-12389
ȲȶŦȀuȲİÑȀƳį	-12390
Ĩǟȍȍȶ	-12391
ƳįƳÁƦ	-12392
ȶįÑuĨÑÌȶĨ	-12393
Ñİȍȶ	-12394
ŻűÑÌĨ	-12395
ÁƳǟįÑȶ	-12396
İĨuȍȶ	-12397
ȶFĨ	-12398
ĨÑƳĨÌȶİ	-12399
ȀuÑƳȍÌȶ	-12400
ĨȀįȐ	-12401
ƦǐȎNį	-12402
ĨȶÁƳÑȀƳį	-12403
İÑȀƳįuĨȀįĨÑÌȶĨ	-12404
ƳŦįȀuȶ	-12405
ÌĨȶį	-12406
Ưȶȶȍ	-12407
ǟȍÑȀƳį	-12408
ƳƋÑȶįĨǟuȶ	-12409
ȶuĨǟuȶ	-12410
ȀuīĨÑÌȶĨ	-12411
uīĨDǟÑĨÑÌȶĨ	-12412
ȶįÑuĨơȀÑÌĨ	-12413
uĨȀįĨÑÌȶĨơƳ	-12414
İȍƦ	-12415
uİÑȀ	-12416
īĨǗƯ	-12417
ƳÑƳį	-12418
ȀÁȍȲȶÁȶįÑ	-12419
Āİį	-12420
ÁȀuuȀįŦĨ	-12421
ȶuÑȀŦİÑȶĨ	-12422
ȶuǐĨýÌȶuȶĨ	-12423
Ïu	-12424
ȲǟƳ	-12425
ȀuÁȀ	-12426
▁ĨƤ	-12427
ĨƖȶİ	-12428
ƦĨȶį	-12429
ÁȀȲȲȀƳįuĨƳƋĨ	-12430
ÌȎuĨ	-12431
ĨDǟŦ	-12432
ȀÁȶįuȀƳįİȲĨ	-12433
ȀȲȀİ	-12434
ÑÌȶİuÑĨ	-12435
īĨİuĨÑÌȶĨ	-12436
ȀİȲȲƦĨƋƳ	-12437
ÌǟÁİįuĨ	-12438
ȶÁȀuuȀƳįuĨ	-12439
uȀİįĨ	-12440
ĨįƳơĨ	-12441
ȀįŦīĨơÌȀ	-12442
ƳÁȍİÑȀDȲȶĨ	-12443
ĨÑƳĨŻȤ	-12444
īĨżƥƥȹ	-12445
ȶƋǟuȶ	-12446
ȀİȲȀuÑuĨ	-12447
ȍȲİƦȀįŦĨ	-12448
õƥĨƦȶİ	-12449
ĨİĨDȶÑÑȶ	-12450
ĨȶȲȶÁȶįÑuĨ	-12451
ȶĨÌİį	-12452
ĨȍƳÑȶįÑȀİȲ	-12453
ÑȶİÁĨƳƋĨ	-12454
ĨÑİį	-12455
ĨȀÁÁǟįȶĨuƦuÑȶÁ	-12456
ơÌƳu	-12457
▁ř	-12458
ÁƳĥȶ	-12459
ȶĨƤƳ	-12460
ĥĨİuĨ	-12461
ȀİĨƋƳ	-12462
ĨơȶȀŦÌÑ	-12463
İįuȀuÑƳ	-12464
ĨƳƋĨÑȀÁȶ	-12465
ȶFīĨ	-12466
uĨȸÑÑ	-12467
ĨNÑİȲ	-12468
ĨƋƳƳÑ	-12469
İȲĨuȍ	-12470
ƳDuÑİ	-12471
ǟȲÁƳįİ	-12472
ÌİįŦȀįŦĨÑÌȶĨ	-12473
uǐȎų	-12474
ÔƳȲİį	-12475
ÌȶȶÑ	-12476
RȀįǟę	-12477
ƳơuīĨ	-12478
ȀįŦuĨȀį	-12479
ćȍ	-12480
▁ȀǗƳ	-12481
ȀŦȀÑĨ	-12482
ĨuƳÁȶĨİ	-12483
ƳÁÁƳįĨİį	-12484
ćįŦȲȀuÌĨİį	-12485
ȶĨȀįĨÑÌȶĨơƳ	-12486
İƦuĨÑƳĨ	-12487
▁ȀįŦİȍƳ	-12488
īĨơƳǟȲ	-12489
ƳįȶĨƳƋĨÑÌȶĨƋȀ	-12490
įƦĨ	-12491
ȐĀ	-12492
ĨÑȶęÑ	-12493
NƋĨÑÌȶĨ	-12494
İDȲȶĨƋƳ	-12495
ÑƳȎ	-12496
RN	-12497
ȀįuĨ	-12498
ĨİuĥĨ	-12499
ǡǟȶuÑȀƳįuĨİDƳǟÑĨ	-12500
İȍȍȲƦ	-12501
ȀįȶuīĨ	-12502
ÁĨÑÌİÑĨ	-12503
ƦĨơȀÑÌĨ	-12504
ĨȀįŦ	-12505
ŦƳįȶĨ	-12506
ȲİuĨ	-12507
ȸĨİį	-12508
ÑơƳĨȍ	-12509
ĨƅȀŦÌĨ	-12510
ȶȍǟÑİÑȀƳį	-12511
ȶĨơȶĨÌİ	-12512
ŦȶÑĨİ	-12513
ǐĨýÌȀuĨȀį	-12514
ÀÑÌĨ	-12515
ȶĨȀįĨƳǟ	-12516
ĨÑÌİįĨİĨ	-12517
ĨDƦĨƤ	-12518
İȍİDȀȲ	-12519
ƖƖƤ	-12520
IȎȐĨ	-12521
ĨŦİȀį	-12522
ĨȭȶuÑĨ	-12523
ĥȀįŦĨƳį	-12524
ȶĨƤƳÁÁƳįuĨȸÑÑ	-12525
ęĨİį	-12526
İȲŦȶD	-12527
ĨÁİįȀȍ	-12528
ĨȍȶƳȍȲȶĨơȀÑÌĨ	-12529
ĨİÌȶİ	-12530
ȀÑȀįŦĨȍ	-12531
ĥƋƳ	-12532
İįįİ	-12533
İȀįDƳơ	-12534
öǟuÑȶ	-12535
ȀİȲƳŦ	-12536
ÑƦĨƦȶİ	-12537
ȶȍÑuĨİį	-12538
ǐĨýÌȀuĨȀuĨİĨ	-12539
ĨƋȲȶ	-12540
ȶĨÑȀÁ	-12541
ȐÑȶ	-12542
ÑȀŦȶ	-12543
ĨÁİÁÁİȲ	-12544
ȶĨƳƋĨȀÑuĨ	-12545
ȶơȶ	-12546
ȀįŦĨÅ	-12547
ȲȶīĨİį	-12548
İȲĨİǟÑÌƳ	-12549
ǟÁȶįÑuīĨ	-12550
ȶęİÁȀįȶĨ	-12551
ÐĨÌƳơȶ	-12552
īĨÑÌȶĨơƳ	-12553
ĆĀ	-12554
ȀįŦĨÌİ	-12555
İƦǐȎýÌȶĨ	-12556
ƨƨ	-12557
ȀİŦȶ	-12558
ĨȍƳuu	-12559
ȶĨȀįuȀ	-12560
ÑȶȶįİŦȶ	-12561
İįĨŦȀ	-12562
ĨƋİÁȀȲƦĨÁȶÁDȶ	-12563
Ĩȱý	-12564
İƦǐĨ	-12565
ȀİÑǟ	-12566
ĨÌİDȀÑİÑĨ	-12567
ȶĨơƳį	-12568
ÑÌİÑĨȍ	-12569
ȀÑȀƳįuĨİ	-12570
ƳįĨǗİ	-12571
ȶĨȀįƋȲǟȶį	-12572
ĨİǟÑȀuÁ	-12573
ȶĨÌȀŦÌȶ	-12574
īĨDǟÑĨÑÌȶƦĨ	-12575
ȲȶȀ	-12576
ÑȀƳįǐȎýÌȶĨ	-12577
ȀǟÁīĨ	-12578
uĨÑƳĨȲȶİ	-12579
ƦƳǟȎȲȲ	-12580
ƳȀȲĨİį	-12581
ǐȎȭÌƦĨ	-12582
▁İǟ	-12583
ÌȀuĨƳ	-12584
ĥȀįŦĨƳ	-12585
ȀuĨİĨȍ	-12586
uÌȀƋ	-12587
uÑİŦ	-12588
İįƦƳį	-12589
ĥĨƳƋĨu	-12590
İȲĨȲȶİ	-12591
ȶƳĨŦİÁ	-12592
ȶuǐĨýÌȶ	-12593
ĨÑÌȶĨuÌƳ	-12594
ĨŦǟÁ	-12595
ǐĨĆȶįȶ	-12596
ȶĨİȲȲĨÑÌȶĨ	-12597
ÌĨÁİ	-12598
uĨƳƋĨŦ	-12599
İįǐĨ	-12600
ȶÁȀu	-12601
ȀuȍǟÑȶ	-12602
uĨÑƳĨuȶ	-12603
ĨİƋ	-12604
Ĩűƥ	-12605
ơȀÑÌĨİį	-12606
ĨÑÌȶĨuȍȶ	-12607
ȶĨÑÌƳuȶĨ	-12608
ŦİįȀuİÑȀƳį	-12609
ƳÁȶuĨİ	-12610
uǐĨNįĨÑÌȀuĨ	-12611
İơȲ	-12612
ĨƋȀęȶ	-12613
ȀİĨƳƋĨ	-12614
ȶīĨÑÌȶƦĨ	-12615
ǟÑuĨ	-12616
ĨƳƋĨơÌȀ	-12617
ȶȍƳuȀÑƳ	-12618
ĨÑƳĨƋȀ	-12619
ȶÑİȀįȶ	-12620
uĨİĨȍ	-12621
uȀľȶĨİį	-12622
ȶÁį	-12623
Ĩżƥƥű	-12624
ĨuÑȶȶȲ	-12625
ƳęƦŦȶįĨ	-12626
ȀŦįÁȶįÑuĨ	-12627
ĀȶơĨćįŦȲİį	-12628
ȀįŦuĨÑÌİÑĨ	-12629
ȶȲÑİ	-12630
İȲĨįȶ	-12631
ŦİľȀį	-12632
İȲĨȀuuǟ	-12633
ƳȲĨÑÌȶĨ	-12634
ȀuȀÑȀįŦĨ	-12635
ĨǟuȀįŦĨİĨ	-12636
ȀİȲȲƦĨȀįĨ	-12637
Ĩİȍȍȶ	-12638
Ǘȶİuǟ	-12639
ȶĨİĨŦƳƳ	-12640
ĨuÌȀƋ	-12641
ȀįŦĨÑÌȶ	-12642
ơÌİȲ	-12643
▁ȀRȶİ	-12644
ĨơȀÑÌĨȀÑuĨ	-12645
Dȶȶ	-12646
ŦȀDȲȶĨ	-12647
ǐĨRȀĥȶĨ	-12648
ȶĨDȶȶįĨǟuȶ	-12649
īĨȲƳ	-12650
ȶǐȎȎ	-12651
ĨÑÌȶĨơ	-12652
İÑȶĨȱ	-12653
ȀįŦƨȎ	-12654
ȶuĨȀÑuĨ	-12655
ýơƳĨ	-12656
ǐȎȭÌİÑĨȀuĨ	-12657
ȍƳÑȶįÑȀİȲĨÑƳĨ	-12658
ȶĨȀÑĨơİuĨ	-12659
NĀć	-12660
ȀįŦÅ	-12661
ÑȶuƦĨƳƋĨ	-12662
ƳǟįÑĨƳƋĨ	-12663
İĨuÑ	-12664
ƅİȲȲ	-12665
uȶuīĨ	-12666
ÑǟİȲĨȍ	-12667
ȲȀĥȶȲƦ	-12668
ĨȲȀÁȀÑȶ	-12669
ǡǟİįÑǟÁ	-12670
uīĨÑÌİÑĨ	-12671
żėĨ	-12672
ĥȶĨİį	-12673
ȶęȀuÑȶ	-12674
uĨǟuȀįŦĨ	-12675
uǐĨǗƳ	-12676
ćȲȶÁȶįÑİ	-12677
ȀȲȲȀİįÑĨ	-12678
ƳįÁȶįÑİȲĨȀÁȍİ	-12679
ÁȶİȲ	-12680
ĨȀuĨÑÌȶĨÁƳuÑĨ	-12681
ƳİÑȶ	-12682
įȀįŦĨƳƋĨ	-12683
ȶŦȶÑİDȲȶuīĨ	-12684
ǐĨýȶİ	-12685
NĨÑÌȀįĥ	-12686
uīĨÌƳơȶ	-12687
ÑÌİȲ	-12688
ƋİÑĨ	-12689
ÑȀDȀƳÑȀ	-12690
ȲȀŦÌÑȶį	-12691
İDȲȶĨÑƳĨu	-12692
ÑǟŦ	-12693
ƤÌȀįİĨ	-12694
İuuȶįŦȶ	-12695
ǗƳƳ	-12696
öȶơȶȲ	-12697
ǶǟȲȲ	-12698
ȶĨÑÌƳǟŦÌ	-12699
ÁİĥȶĨu	-12700
ȶįÌȶ	-12701
ȶĨÌİDȀÑ	-12702
ƳÁÁƳįĨƋƳ	-12703
ȶİÑÁȶįÑĨİį	-12704
ǐĨȭÌȀȲȶĨÑÌȶĨ	-12705
uȎƤ	-12706
uȶĨȍ	-12707
ėĨƦȶİ	-12708
ĨÏÑÌȶ	-12709
ÑȀuuǟȶĨ	-12710
ȀİŦįƳuȀu	-12711
ơÌİÑĨƦƳǟ	-12712
ƳįuƳȲȀ	-12713
ȀȶuīĨȀį	-12714
uȶÁ	-12715
İĥĨ	-12716
ÑÌĨȸ	-12717
ĨÁƳDȀȲȶĨ	-12718
ĨĀȶÑơƳ	-12719
ǟȍİÑȀƳįİȲĨ	-12720
ÌİÁÁȶ	-12721
ÑÌȀįĥĨ	-12722
FĨƳƋĨÑÌȶĨ	-12723
ųǶ	-12724
ȶǐȎƯ	-12725
ĨƋȲǟƳ	-12726
ĨȀuĨDİuȶ	-12727
ȶȲȀŦȀƳįĨ	-12728
İįĨųȶ	-12729
ŎuĨƋȀ	-12730
ĨơİuĨȀį	-12731
ȀįŦĨȀįĨİĨ	-12732
ȶuȶįÑȀįŦĨ	-12733
įĨǶ	-12734
ÌȶİÑ	-12735
ǟįȀƳį	-12736
ȀÑȀƳįİȲĨȍ	-12737
ĥDƳƳĥ	-12738
ŦȶuĨİ	-12739
ȶDȶȲȲȀ	-12740
ȶĨơȀÑÌȀįĨÑÌȶĨ	-12741
ÑȐÑȶ	-12742
ơȶȶĥīĨ	-12743
ƳİuÑİȲ	-12744
ȀDȲȶīĨ	-12745
ǐȎǶȀ	-12746
ƋƳuÑȶ	-12747
ȶęÑȶįuȀƳį	-12748
ÌƳơĨȀÑĨ	-12749
ȶĨÑƳĨİĨ	-12750
ÔN	-12751
uǐȎȸį	-12752
ȶİȲȐơƳ	-12753
ėƥȃ	-12754
ĨÌƳȲȀ	-12755
uĨȀįĨȍ	-12756
īĨƤİįİ	-12757
ƳÁȍȲȀİį	-12758
ǐĨȭȀÑÌƳǟÑĨ	-12759
ȶįÑuĨơȀȲȲĨDȶĨ	-12760
ȀİȎ	-12761
uÑİD	-12762
DİDƦĨ	-12763
ȀȲȀÑİÑȶĨ	-12764
▁ÑİƋƋ	-12765
DȶĨǟuȶ	-12766
ȶȶįȲİį	-12767
ȶįĨÑÌİÑĨ	-12768
ƳȀȲĨ	-12769
ƳȐİǟÑÌƳ	-12770
ĨöƳȀį	-12771
ƳȎuĨ	-12772
ÁƳƳÑÌ	-12773
ĨİȲŦƳ	-12774
ȶĨȶęȶ	-12775
ȀİȲuĨƋƳ	-12776
ȶįȐ	-12777
uȀuÑȶįÑĨ	-12778
īĨƋȀ	-12779
ȀİÑȶĨƋƳ	-12780
ĨÑƳĨİįƳÑÌȶ	-12781
ǐFĨ	-12782
ǨĨǗİ	-12783
ŻĭÑÌĨ	-12784
ĨƋȀȲȲȶ	-12785
ƳÁȶu	-12786
ÏǗ	-12787
▁FĨ	-12788
ȶǐĨýÌ	-12789
ȲƳįŦĨÑȶ	-12790
ĨRİơ	-12791
ȀÑȀȶuĨȀį	-12792
ȶįŦÑÌĨİį	-12793
ȀįȶÑȀ	-12794
ÑȀÁȶĨȍȶ	-12795
ĨȍȲȶİuȶĨ	-12796
ȀįŦĨȶęȍȶ	-12797
ǐĨǗǟ	-12798
İįÑuĨİ	-12799
ƳįȶĨuȀ	-12800
DȶȀįŦĨu	-12801
uĨȀÑuĨ	-12802
ǐĨýÌȶĨƳ	-12803
įĨƅ	-12804
ȶĨƳƋĨȶ	-12805
ýƳǟ	-12806
ĨȱƖ	-12807
▁ĨÔ	-12808
ȶĨÑƳĨD	-12809
DȶȀįŦĨǟuȶ	-12810
uȶȲƦĨ	-12811
ȀįȶĨȍ	-12812
ĨDƦĨİĨu	-12813
İįįȀįŦĨ	-12814
İuĨȍ	-12815
ĨuĥȀȲȲuĨİį	-12816
İȍİįĨ	-12817
ǐĨĆƳ	-12818
ĨƋİÑĨ	-12819
ǟȲİÑȀƳįuĨ	-12820
uȶįuȶĨ	-12821
ȶĨơȶĨİ	-12822
īĨơȶĨơȀȲȲ	-12823
uǐĨNįĨÑÌȶĨ	-12824
ÑÌĨİ	-12825
ĨİuĨȎ	-12826
ĨȍǟȲȲ	-12827
ȀįŦĨįȶơ	-12828
ĨƅȀȲȲ	-12829
ǶƳȲȲƳơ	-12830
ȲȶęȀDȀȲȀÑƦĨ	-12831
NįƋ	-12832
ȲƳÑÑȶ	-12833
ƋƦĨÑÌȶĨ	-12834
ȲİDȶȲȶ	-12835
ǐĨƖƳÑÌĨ	-12836
ÌİȶƳȲƳŦȀuÑuĨ	-12837
ĨǗİȍ	-12838
ÁƳÑȀƳį	-12839
ĨȀįĨuǟ	-12840
ȀįŦuĨȀįĨ	-12841
īĨDǟÑĨÑÌȶ	-12842
ǶİÑÌȶ	-12843
ȶĨơİįÑĨ	-12844
ȶİÑÌĨİį	-12845
ȀİȲȲƦĨÑÌȶĨ	-12846
įȀįȶÑȶȶįÑÌĨ	-12847
ȎF	-12848
ơȀȲȲĨİȲuƳĨ	-12849
İȲĨƯȀ	-12850
uȎýÌȀuĨ	-12851
ȀįÑuĨ	-12852
ȶĨȍȀȶ	-12853
İÑȀƳįuĨƋ	-12854
ÁİįƦĨȍȶƳȍȲȶĨ	-12855
ȶĨơİÑ	-12856
ȶuĨȀįÑƳĨÑÌȶĨ	-12857
ŎȲȲĨ	-12858
ȶȲİƦ	-12859
ƳƦİȲĨ	-12860
įİÁȶĨƋƳ	-12861
ÑȶȶÑÌĨ	-12862
ȀįȶīĨİį	-12863
İǟÑƳÁİÑȀ	-12864
ćƦ	-12865
ǟȶĨÑƳĨȀÑuĨ	-12866
ȀľİÑȀƳįĨƳƋĨ	-12867
İÁİŦȶĨÑƳĨÑÌȶĨ	-12868
ĨǶǟ	-12869
ȶĨÑƳĨÌİ	-12870
ȶƦƳį	-12871
ƨĨýÌȀuĨ	-12872
ƳįÑĨƳƋĨ	-12873
DȶŦȀįįȀįŦ	-12874
ȸDƳ	-12875
ȀÑȀƳįĨȀuĨ	-12876
ơȶȀŦÌ	-12877
ƳȲȶǟÁ	-12878
įĨȸǟuÑ	-12879
įĨȀuĨ	-12880
ƳDȀİȲĨ	-12881
ƳÁĨÑÌȶĨİ	-12882
ȀįŦĨDȀ	-12883
ȀuuƳ	-12884
ĨǟȍĨİį	-12885
Ĩƥǐ	-12886
ȀƳȀ	-12887
ĨǗİƦ	-12888
ĨİĨÌİȲƋ	-12889
ǶÔ	-12890
ĨơİuĨÑÌȶĨƋȀ	-12891
Ĩýİ	-12892
İÁĨȱ	-12893
İȲȲȐ	-12894
ǐĨtįƋƳ	-12895
ȶȶįȀįŦĨ	-12896
ȲƳįŦȶuÑĨ	-12897
ĨƋƳȲȲƳơȶ	-12898
żĨȱ	-12899
ÁİįƦĨİuĨ	-12900
tĨ	-12901
ĨİĨơ	-12902
ĨuƳİȍ	-12903
ȶĨƳƋĨÑ	-12904
ÁİįƦĨƳÑÌȶ	-12905
ÑȀƳįĨDȶÑơȶȶįĨ	-12906
ĨÔİǟȲ	-12907
ĨơȶȲƋİ	-12908
ĨƋȀę	-12909
ĨƖǐƤ	-12910
ƯƳĨ	-12911
ÑĨÑƳĨȍ	-12912
İįĨÁƳ	-12913
ĨÁȶÑİȲ	-12914
ÌƳơĨƦƳǟ	-12915
ƨȎȐĨȭÌİÑĨ	-12916
ȶuȍƳįuȀDȀȲ	-12917
ǟÑƦĨ	-12918
ƯȀuȶİu	-12919
ǐĨřȶȶȍ	-12920
ÑÌİÑĨÌİ	-12921
įƳĨÁİÑÑȶ	-12922
ÑƳƳȲuĨİį	-12923
Ȑų	-12924
ƳĨơȀÑÌ	-12925
ȲİÑȀÑǟ	-12926
ĨİįĨȶȲȶ	-12927
ÑĨȍİ	-12928
ÔİÑÌ	-12929
ȀįŦĨȀįÑȶ	-12930
ǶR	-12931
ȲȀĥȶȲȀÌƳƳ	-12932
ƳÁDȶ	-12933
ƳįȲƦĨİ	-12934
ƅǟÁİį	-12935
İŦȶuĨƳƋĨ	-12936
Ȳİįĥ	-12937
ÑİįÑĨİį	-12938
ǟİȲuĨİį	-12939
ȶĨDȶȲƳơ	-12940
İįĥu	-12941
ƳīĨİį	-12942
RİÑȀįĨȸÁȶ	-12943
ÌįƳȲƳŦȀȶu	-12944
İÑȀƳįǐȎýÌȶĨ	-12945
ȶęİÁȀįȶĨÑÌȶĨ	-12946
ÑĨơÌȀ	-12947
ȶĨȀįĨƳ	-12948
ŻÀĨ	-12949
ÁİįȀ	-12950
uÑĨƦȶİ	-12951
İȲĨȸÁȶ	-12952
ȶĨİĨȍİ	-12953
ǶÏ	-12954
ŻŻƥ	-12955
żīƥƥƥ	-12956
ǐĨÔȲİ	-12957
İȲǟȶĨƳƋĨÑÌȶĨ	-12958
ȎÀ	-12959
ÑİęĨ	-12960
īĨơÌƳuȶĨ	-12961
ÑĨƳƋĨÑÌȶĨȍ	-12962
ƅȶĨ	-12963
ÑĨÑȶ	-12964
ǗȶİįơÌȀȲ	-12965
ǟȲÑuīĨ	-12966
īĨÁƳuÑĨ	-12967
ÁƳįȀ	-12968
ćįŦȲȀu	-12969
īĨżƥƥű	-12970
ĨİÑĨİįƦĨ	-12971
ȲƳÑÌȀįŦĨ	-12972
ȶĨuȶįuȀÑȀ	-12973
ŻƥƥĨ	-12974
ÔƳuÑȶ	-12975
ĨDȀƳŦ	-12976
▁ĨȀuĨ	-12977
ĨÑİDȲȶ	-12978
ĨȶÑĨİȲ	-12979
ĨȲǟ	-12980
▁ǐĨȸ	-12981
ơİuĨȍ	-12982
ȶǐȎǶƳ	-12983
İuÑİÑȀįŦĨ	-12984
ǰǟȶȶįuȲİį	-12985
ƦƳŦ	-12986
īĨuİƦ	-12987
ĨuȀuÑȶ	-12988
ÌĨƳįĨÑÌȶĨ	-12989
ÌȀȲƳuƳȍÌȶ	-12990
RƳŦ	-12991
ĀȶęÑĨ	-12992
ƳÁĨÑÌȶuȶĨ	-12993
Āų	-12994
īĨȱ	-12995
ƳįuȍȀ	-12996
ĨÌȶȲȍĨ	-12997
İuuǟÁȍ	-12998
ȲȀÁȀÑuĨ	-12999
ĨİĨuȀÁȀȲİ	-13000
ĨÌİľİ	-13001
ƳÁİÑƳ	-13002
ĨȀÁİŦȶ	-13003
ƳįƋȀįȶ	-13004
ĨȀįÑȶuÑ	-13005
ȐȐȐȐ	-13006
ƤȶįÑǟ	-13007
ȶĨuǟDöȶ	-13008
įİÁȶīĨ	-13009
ȶĨDȲƳƳ	-13010
İÑȶīĨİį	-13011
ƳÁĨİĨȍ	-13012
ȐŻű	-13013
ĨǗİŦ	-13014
uȀuÑȶ	-13015
ǐĨȭȶĨơȀȲȲ	-13016
ȶuĨÑƳ	-13017
uĨDȶȲƳơ	-13018
ĥĨÔ	-13019
ȶįĨÑ	-13020
İįŦȲȶ	-13021
ơȀÑÌȀį	-13022
ȀÑÌÁȶÑȀ	-13023
įİÑȀƳįİȲĨİį	-13024
uĨuǟŦŦ	-13025
ľȀ	-13026
ȶÐĨ	-13027
ėīƥƥƥ	-13028
ƳƋĨȍÌƦuȀ	-13029
▁ư	-13030
Ñȶįį	-13031
ĨơȀÑÌĨȀį	-13032
▁ƳǟÑÌȶİuÑĨ	-13033
ĥuĨơȶ	-13034
ĨȍÌƳįȶĨ	-13035
ĨơȀÑÌĨÁƳ	-13036
ĨȍİuuȶįŦȶ	-13037
Ƥų	-13038
ƳÁĨƋƳ	-13039
ȶĨƦƳǟĨȶ	-13040
ȲȀÑǟ	-13041
įȶŦȲȶ	-13042
įȀįŦĨȶęȍȶ	-13043
uȀŦįȶ	-13044
ȐĨýÌȶĨ	-13045
ĨÑÌȶĨȲİį	-13046
ƳįȎÑĨĥįƳơ	-13047
İÁDȀ	-13048
uȐƳįĨ	-13049
ȎȭÌȶį	-13050
ȶuĨÑÌȶÁ	-13051
ɁȎýÌȶĨ	-13052
ȀįĨÑÌȶĨÁȀ	-13053
ĨDƦĨć	-13054
ȶȲƦǐȎ	-13055
İȲĨƋȶİÑǟ	-13056
żĨÑƳĨ	-13057
ĨuÑƳÁİ	-13058
ĨȲȀƋȶĨ	-13059
ơȶİȲÑÌ	-13060
ĨȶİuȀȲƦĨ	-13061
NuȲİÁ	-13062
ýÌȀįĥ	-13063
ÀƥĨ	-13064
ȶĨǗȶ	-13065
ȸįÑÌ	-13066
ÌƳÁȶīĨ	-13067
ŦƦĨȀuĨ	-13068
RİįŦǟİŦȶ	-13069
ĨÁİĥȶĨȀÑĨ	-13070
ĥȀįŦĨơȀÑÌĨ	-13071
ȶÑȀį	-13072
ĨȍȲİįįȶ	-13073
İuuȶuuȶ	-13074
ÑȶȲȲĨƦƳǟ	-13075
öǟŦ	-13076
ÌȀįŦĨİ	-13077
ĨÑÌȶĨĀİÑȀƳįİȲĨ	-13078
ÌȶĨƳ	-13079
ĨȍİȲ	-13080
ȶĨųȀ	-13081
▁ÑƳȍ	-13082
uĨÑƳĨÁİĥȶĨ	-13083
ĨȶęȀuÑȀįŦĨ	-13084
ȍuƦ	-13085
ƳȲİį	-13086
ÑĨuÑǟ	-13087
uÁİȲȲȶuÑĨ	-13088
ĥuĨȀį	-13089
ơİuÌ	-13090
Ȁİįu	-13091
ĨuȶįÑĨ	-13092
ĨĥȀȲȲȶ	-13093
ơȀȲȲĨȀį	-13094
ȶīĨÑÌȀuĨ	-13095
ǟȍĨƳƋĨ	-13096
ȶİÑȀįŦ	-13097
İÑīĨ	-13098
İuuǟÁȶ	-13099
ĨȲƳįŦȐÑȶ	-13100
ȶĨÑƳĨÌȶȲȍ	-13101
ǐĨŻȤ	-13102
ƋȀįȶĨ	-13103
ȶĨơȶȲ	-13104
ȀÑǐĨýÌȶĨ	-13105
ǐĨÏįĨÑÌȶĨ	-13106
▁ȀƯȶƋȀįȀÑȀƳįĨƳƋĨ	-13107
ƯİȀȲƦĨ	-13108
İǟuÑĨ	-13109
ȶȲİƦȶ	-13110
ĨȤƥ	-13111
ĨÑƳÑİȲ	-13112
ȲȀįȶĨİį	-13113
İįÑİŦȶĨƳƋĨ	-13114
ÌĨuÑİ	-13115
ȶuuȶį	-13116
ĨŦİȲİę	-13117
ƤǟD	-13118
ȀįȶȐ	-13119
ƳįÑİȲĨ	-13120
ȶÑÑȀįŦ	-13121
ƳȲĥ	-13122
ĨÑƳĨŦƳ	-13123
ȎÔǟDȲȀ	-13124
Rȶơ	-13125
ĨǟįȀÑĨ	-13126
ƅǟįŦİ	-13127
ȶĨÌȀŦÌ	-13128
ȀİȲĨƋ	-13129
ȶȶÁȶįÑ	-13130
ƦǐĨƤ	-13131
ȀįŦuȎ	-13132
ÌİDȀÑȶ	-13133
ÁİľȀįŦĨ	-13134
▁ƳÁȶĨȍȶƳȍȲȶĨ	-13135
Ĩǰǟ	-13136
ȶīÅ	-13137
ƳuÌȀ	-13138
ȍȲǟ	-13139
ĨȍƳį	-13140
▁ȀÑȶĨ	-13141
uīĨȀuĨ	-13142
Ȏćę	-13143
ĨDƦĨÑ	-13144
ƳįuȀuÑȶį	-13145
ȀÑȀȶuǐĨýÌȶĨ	-13146
uƳįĨƳƋĨ	-13147
ĨơÌİÑȶ	-13148
ơÌİÑĨơȶĨ	-13149
ȀÁȍƳuuȀDȲȶĨ	-13150
ơİuĨįƳÑĨ	-13151
ȶuīĨƋ	-13152
ƳįĨƋ	-13153
įȶơĨİį	-13154
ȀÑİįįȀ	-13155
ǐĨNįĨƳÑÌȶ	-13156
ƳįuȀuÑȀįŦĨƳƋĨ	-13157
ĭF	-13158
ƅĨ	-13159
ƳȲȲȶŦȶ	-13160
ǐȎȸįĨ	-13161
ȶĨÑÌȶĨȀį	-13162
ȶɁɁ	-13163
ƦĨȶęȍȶ	-13164
İįĨİȲuƳĨDȶĨǟuȶ	-13165
ȀİȲĨȀįÑȶ	-13166
ȀįŦĨÑÌȶĨD	-13167
ÑȀƳįĨƳƋĨÑÌȀuĨ	-13168
ĨÔƯǶ	-13169
ÑȐDİuȶ	-13170
ȍȲİįÑȶ	-13171
ŦȶĨȱ	-13172
ĀĀ	-13173
Ưȶİ	-13174
ĨDȲȀį	-13175
ȀĨR	-13176
ĨȭİȲ	-13177
ȶȲȲȐ	-13178
ƳÁȶĨȀįĨ	-13179
ĥuĨȀįĨÑÌȶĨ	-13180
uǐȎÏ	-13181
ĨÔÌȀȲ	-13182
ƦĨÑÌȶ	-13183
įĨÑƳĨÑÌȶĨ	-13184
ȐĨȸ	-13185
İÑȀįŦĨȍ	-13186
ĨƋİÁȀȲȀİ	-13187
ȶĨÑÌȶÁuȶȲ	-13188
ȶĨÑƳŦȶÑÌȶ	-13189
ơȀuÌ	-13190
uĨįȶİ	-13191
ĨuȀÁȍ	-13192
īĨÁȶ	-13193
ĨơİuĨÑƳĨ	-13194
İȲĨƤȶįÑȶ	-13195
ƳÁĨý	-13196
ĨÑƳĨuİ	-13197
ǟuuȶuĨÑÌȶĨ	-13198
ĨİȲȲĨƳƋĨÑÌȶĨ	-13199
ǶǶ	-13200
ŦƳÑÑȶį	-13201
uĨƳƋĨȀį	-13202
ĥįƳơįĨÑƳĨ	-13203
ȀįŦĨÑÌȶĨŦ	-13204
ȲȶĨÑÌȶĨ	-13205
İÑȶuĨƋ	-13206
Ʀľ	-13207
NƳơ	-13208
ÌĨİuĨİ	-13209
ĨƳƋĨİĨu	-13210
ȀľȶuĨ	-13211
ŎÁ	-13212
ÑĨuÑ	-13213
ǟȲƳu	-13214
ȀuĨƳ	-13215
ĨȍƳƳȲ	-13216
ƳįÑȶįÑĨİį	-13217
ǐȎȎȎ	-13218
ÑİȀȲƳ	-13219
įƳÑİÑȀƳį	-13220
ƳȲǟÁDȀİĨ	-13221
ĨƤÌȀ	-13222
ƳDȶȲĨÔ	-13223
ĨÁȶÑİȲĨ	-13224
ƳĨÔ	-13225
DİuȶĨƳƋĨÑÌȶĨ	-13226
ÁİįİŦ	-13227
ȲİDƳǟ	-13228
uȶÑĨǟȍ	-13229
ĨȀįĨÑÌȶĨŦ	-13230
İĨų	-13231
ǟuȎ	-13232
ÑǟÁį	-13233
ȎuĨŦ	-13234
ƳÁȍİuuȀƳį	-13235
ėȎ	-13236
ƳįĨȸ	-13237
ÑuīĨȀį	-13238
ĨuİƋȶÑƦ	-13239
ƤR	-13240
ȶĨÑƳĨÑ	-13241
ĨȀįĨÑÌȶĨÑ	-13242
uơƳ	-13243
ÌÁİ	-13244
Āİȍ	-13245
ȶȍÌ	-13246
uǐĨNįĨ	-13247
ȀįİÑȶĨ	-13248
ȶĨuȍȶįÑĨ	-13249
uƦĨ	-13250
ȶȲȲİį	-13251
İįĨuÑİ	-13252
ȶĨİĨuÑ	-13253
ƳǟŦÌĨÑÌȶĨȍ	-13254
ȀȍÑȀƳįĨƳƋĨÑÌȶĨ	-13255
ĨȍȲİįĨ	-13256
ƦĨÑƳĨİ	-13257
ĨÁƳuÑĨƳƋĨ	-13258
İȲȲĨİDƳǟÑĨ	-13259
ƦȎýÌȶĨ	-13260
ĨơȀu	-13261
İȀȲƳ	-13262
ȐŻƥ	-13263
ȀİÑȀ	-13264
ÌƳįȶƦ	-13265
ǨĨȍ	-13266
ȶįƋƳ	-13267
ĨřįƳơ	-13268
řȶįįȶ	-13269
ÑÌȀuĨİ	-13270
ȭÌȀȲȶĨ	-13271
ÑȀįĨRǟÑÌȶ	-13272
ȶuÑĨȀįĨÑÌȶĨ	-13273
ȶÑȶį	-13274
ÁȶȲİį	-13275
DȶŦȀįĨ	-13276
uĨơÌȶįĨÑÌȶĨ	-13277
ęīĨ	-13278
ƳȀǐƳ	-13279
ƋȶơĨƦȶİ	-13280
uÑĨÑȀÁȶĨ	-13281
ǐƯǐĨ	-13282
ǟȲŦİ	-13283
ȀƋÑĨ	-13284
İȀįīĨ	-13285
ĨÑƦȍȶĨ	-13286
ĨƳƋĨÑÌ	-13287
ĨÑƳĨDȶĨȍ	-13288
ĨƦƳǟĨĥįƳơĨÑÌİÑĨ	-13289
ĨżĨ	-13290
ÌĨƦƳǟĨ	-13291
ĨİįĨȶį	-13292
ǟȲÑÌƳƳ	-13293
ȶȲİuÑȀ	-13294
ȲȶİuİįÑĨ	-13295
ĨƳƋĨĆ	-13296
ėƥīƥƥƥ	-13297
ȍȶƳȍȲȶĨİį	-13298
īĨDǟÑĨįƳÑĨ	-13299
ȲİuuĨİį	-13300
ÑƳĨÑÌȀįĥ	-13301
ƳǟįÑuĨƋƳ	-13302
ÁȶİįȀįŦĨƳƋĨ	-13303
ću	-13304
İÁƳįŦĨ	-13305
ƳÁÁƳįĨȍ	-13306
ȲȀuÑȶįĨ	-13307
ÑuĨơȀÑÌĨ	-13308
ǐĨȸȲÑÌƳǟŦÌĨÑÌȶĨ	-13309
ȀįĨƋİ	-13310
ųÏǗ	-13311
ȶuȀŦįīĨ	-13312
ĨÑÌȶĨtįȀ	-13313
ƳįuǟȲÑİÑȀƳį	-13314
DuÑ	-13315
įĨƖ	-13316
ƳȲȲİȍuȶ	-13317
ȐĨİ	-13318
ȶǡǟȶuÑ	-13319
ȶĨÑÌȶĨƋ	-13320
ĨƤİȲ	-13321
uĨİDƳ	-13322
İįȀǟÁ	-13323
ȶȲƳȍĨÑÌȶȀ	-13324
▁ơȀu	-13325
ȀįŦÑƳį	-13326
ǐĨƯİ	-13327
ȭÌƳĨ	-13328
ĨƳįĨǗİ	-13329
İȲÑȀÁƳ	-13330
ÑÁƳuȍÌȶ	-13331
ȀuÑĨƳƋĨ	-13332
ȶİÑĨRİĥ	-13333
ćǞ	-13334
İŦÁȶįÑuĨ	-13335
ÁİƦĨDȶĨÁƳ	-13336
ĨȍȲİƦȀįŦĨ	-13337
ĨȀįĨÑÌȶĨįƳ	-13338
ȀȍĨ	-13339
Ĩȶİu	-13340
ĨŦİÁȶĨ	-13341
ȶĨÁȶÁDȶ	-13342
ĨDȶȶÑ	-13343
▁ȀƖƦĨ	-13344
ȀDȶĨÑƳĨ	-13345
İȲĨuǟȍȍƳ	-13346
ǟİÑȶĨuÑǟ	-13347
ȀuǟİȲȲƦĨ	-13348
õǐĨ	-13349
ĨȀuĨǟį	-13350
ȶĨİȲȲƳơȶ	-13351
ŦƦȐ	-13352
ȭȶİÑÌȶ	-13353
ÑĨȀįĨİĨ	-13354
ȶĨÑƳĨuÑİ	-13355
ƤƳÁÁǟįȀÑƦĨ	-13356
RƳƳĥ	-13357
ĨNÑĨ	-13358
ƳįÑȶ	-13359
DȲƳƳÁ	-13360
ŦİįȀuȶ	-13361
ĨDȶȀįŦĨİ	-13362
ĨƖİu	-13363
▁ȀÏįȶĨƳƋĨÑÌȶĨ	-13364
Ȁįȶİ	-13365
ĨÑƳęȀ	-13366
ȶȲİÑȀƳįuÌȀȍuĨ	-13367
ƳįȶȎ	-13368
ȲƦĨÁƳ	-13369
ĨȀuĨȲƳ	-13370
ƳÁȶĨÑƳĨÑÌȶĨ	-13371
ÑȀƳįĨơȀÑÌĨÑÌȶĨ	-13372
ƦuȀ	-13373
ƳǟŦÌĨÑÌȀuĨ	-13374
ƥƥƥƥ	-13375
ȲƳƳĥȀįŦĨ	-13376
Ĩýȶę	-13377
ĨƳįĨȍ	-13378
ȀÑȀȶuǐ	-13379
ÌĨƤȶįÑȶ	-13380
ȀŦÌÑĨƳƋĨ	-13381
ÁȀįŦĨÑÌȶĨ	-13382
ĨÑÌƳuȶĨơÌƳĨİ	-13383
ȲƳuuĨ	-13384
ÑuĨơÌȀ	-13385
ƳǟȍuīĨ	-13386
ȍȲİȀįĨ	-13387
ǡǟİȲȀÑƦ	-13388
ĨİįİȲƦuȀu	-13389
Ȏȶ	-13390
Ïųć	-13391
ƅİÁ	-13392
ĨƋİȲ	-13393
uĨuƳÁȶĨ	-13394
ȀİīĨÑÌȶĨ	-13395
ƳDİDȀȲȀÑƦĨ	-13396
uĥƦĨ	-13397
ĨơȀÑ	-13398
ĨơİuĨƋȀ	-13399
ćİuÑ	-13400
ĨÁǟȲ	-13401
ƤƳÁÁǟįȀ	-13402
ȀįĨÁİįƦĨ	-13403
ĨƤƳȲƳ	-13404
ȀİįĨİ	-13405
uȶuĨİį	-13406
NįȀÑȀİÑȀ	-13407
ĨȲƳŦ	-13408
ÑİȲĥȶ	-13409
İuuȀuÑİį	-13410
ǟŦŦȲȶ	-13411
ȀįŦuĨƋƳ	-13412
ȶuĨȀįƋƳ	-13413
ĨƋİÁȀȲȀȶu	-13414
ȶuĨD	-13415
ĨÑƳĨÑÌ	-13416
ÌįȀǡǟȶĨ	-13417
İǟį	-13418
Áȶįǟ	-13419
İuÑƳ	-13420
ÁȶİÑĨ	-13421
ƦȶuÑȶ	-13422
ȶÁƳÑȶ	-13423
ĨDƦĨȀÑuĨ	-13424
ƳįÁȶįÑīĨ	-13425
uİÁȶĨÑȀÁȶĨ	-13426
ĨǗİÑ	-13427
ȀÑȀuĨ	-13428
ȶĨÁƦĨ	-13429
ŦȶĨȀįĨ	-13430
ÌȲ	-13431
Żõƥ	-13432
ȀÑǐĨ	-13433
ǗƖ	-13434
ȍǟľľ	-13435
ÑƳĨİį	-13436
Ĩİȍȍİ	-13437
İįȶİį	-13438
RƳǟȀuĨ	-13439
ȲȶÑȎuĨ	-13440
ơÌƦĨÑÌȶĨ	-13441
ȶÁȶįÑĨȀįĨ	-13442
ĨƅƳȲ	-13443
ÌȀuĨƳơį	-13444
ǐȎýÌİÑĨ	-13445
ĨƳǟÑȍǟÑĨ	-13446
ĨuÌȶĨơİuĨ	-13447
ǐĨýÌȶuȶĨȀį	-13448
İơįĨ	-13449
ȶĨuƳǟį	-13450
Ƴįǐ	-13451
uǐĨƯǟ	-13452
ȶǐĨÏį	-13453
ĨuȶįuȶĨƳƋĨ	-13454
ǟuİ	-13455
uĨİŦİȀįuÑĨ	-13456
ȶįÑȲƦĨİ	-13457
ƳDȲȶÁȐuƳȲ	-13458
ȱŻȹ	-13459
ŦȶįȀ	-13460
ƤİÁȍ	-13461
ȲƦĨƋ	-13462
ȲȀįĥĨ	-13463
ƳǟÑĨÑÌİÑĨ	-13464
RȸĀ	-13465
ƳǟįÑȀ	-13466
uȍȶįÑĨ	-13467
ĨơİuĨƳ	-13468
ƳįuȀuÑȶ	-13469
ǰǟȶuÑȀƳįuĨ	-13470
ĥȲƦĨİį	-13471
ĨȀįĨȸÁȶ	-13472
ȸįȀÁİȲĨ	-13473
ŦȲİį	-13474
uȀľȶĨ	-13475
ȲȶuĨƳ	-13476
ƳƋĨơÌȀ	-13477
ǟȲÑuĨİį	-13478
ƳĨȍ	-13479
İįĨǟuȶĨÑÌȶĨ	-13480
ưȶÑĨ	-13481
ȶuĨơİuĨ	-13482
ĨİįƦÑÌȀįŦĨ	-13483
Ìİơ	-13484
▁ćų	-13485
ĨŦȲİ	-13486
ȶuǐĨý	-13487
ĨȶȲȀÁȀį	-13488
ĥuƳį	-13489
ŦǟȀȲ	-13490
DƳÑÑƳÁĨ	-13491
uĨİȍȍȶİ	-13492
İȲȲĨƦƳǟ	-13493
ĨƳƋĨÑÌȶĨơƳ	-13494
İĨƯ	-13495
İȲÑƦĨ	-13496
ƋȶȶȲĨ	-13497
uĨȀuĨÑÌİÑĨ	-13498
ƳǟŦÌĨÑÌȶĨu	-13499
ƅȸý	-13500
uǐĨÅ	-13501
ÌİuĨÑƳĨ	-13502
ȶuĨİuĨİĨ	-13503
ĨÑƳĨƋİ	-13504
ƋƳȲȲƳơĨÑÌȶĨ	-13505
Żƥƥȃ	-13506
įƳĨÁƳ	-13507
ÌÑÑȍuǨÛÛơơơǐ	-13508
İȲĨȲȶ	-13509
ǟÁĨƳƋĨ	-13510
ȶuĨÑƳĨİ	-13511
ȶȍƳuȀÑuĨ	-13512
ÌȀįŦĨȍ	-13513
İơDȶ	-13514
ƦĨŻȤ	-13515
ȶȍȀȲ	-13516
ƳįƳÁƦīĨ	-13517
İĨȀuĨİĨ	-13518
ƨȎýÌȀuĨ	-13519
ȶȍÑȀDȲȶĨÑƳĨ	-13520
ÌǟD	-13521
įĨÏ	-13522
ȶuuƳįĨ	-13523
uȍƳįuƳ	-13524
İuuȀįȀ	-13525
ȀŦÌÑĨƋƳ	-13526
ȶȲƦĨƳįĨ	-13527
uƳįĨơÌƳĨ	-13528
▁Ĩȍ	-13529
ŎĨİį	-13530
ƳǟDȲȶȐ	-13531
ĨȍİÑȀȶįÑuĨơȀÑÌ	-13532
ĨÁȀȲȶuĨȱ	-13533
ĨįȶơĨuÑǟ	-13534
ĨǡǟİȲȀÑƦĨƳƋĨ	-13535
ȶĨȀuĨİĨȍ	-13536
ĨÑÌȶƦĨįȶȶ	-13537
ĥȀįŦĨƳįĨÑÌȶĨ	-13538
ȶĨÀ	-13539
ȀÑƦĨƋ	-13540
ĨÑÌȶĨÏ	-13541
uĨƳįĨİĨ	-13542
ĨȀįĨİįĨ	-13543
ȀƋĨįƳÑĨ	-13544
uĨİuĨÑÌȶƦĨ	-13545
ƤƦ	-13546
uÑĨȶ	-13547
ǐĨƖİuȶ	-13548
FÐĨ	-13549
ƳÑȶuÑİį	-13550
ȀuȶİuȶuĨİį	-13551
DȶŦİįĨ	-13552
ǟÑÑȲȶĨ	-13553
Ĩõƥƥ	-13554
ĨƯİƦ	-13555
ǟȲuȀ	-13556
ĨÁİĥȶ	-13557
ĨuÌȶĨuİȀ	-13558
ƳįuƳį	-13559
Ĩėƥƥ	-13560
uĨİįĨ	-13561
ȭÌȀ	-13562
ÑİDȲȶu	-13563
įȶȀŦÌDƳǟ	-13564
ĨĀǟ	-13565
ȀƋȶ	-13566
ƋǟįŦȀ	-13567
uȀÑǟİÑȶ	-13568
ȀuuȶÁȀį	-13569
ȸuuȶuuÁȶįÑĨ	-13570
ƋİÁ	-13571
ĨÑƳơȶ	-13572
ĨƳįĨƳǟ	-13573
ĨuǟȀ	-13574
İÑİȲ	-13575
▁ȶȶĨÑÌȶĨ	-13576
ĨƳįĨÑÌȶĨȍ	-13577
uÑȀÑǟÑȶĨƋƳ	-13578
ǟİȲĨȍ	-13579
İÑĨİȲȲ	-13580
ǟÑÌȶįÑȀ	-13581
ÌĨȲİ	-13582
uÌȶȶÑĨ	-13583
İŦȶĨƋƳ	-13584
ȀįŦĨİĨD	-13585
ȶuĨÑÌȀuĨ	-13586
ĨŻĨ	-13587
ơȶȶÑ	-13588
ǐĨƯƳ	-13589
ƳÁĨÑÌȶ	-13590
ȀİȲĨơƳ	-13591
ȶuĨuÌƳǟȲ	-13592
▁ƳȲǟÑȀƳį	-13593
õǐƥ	-13594
īĨȲİ	-13595
ÑȶÁȍȲİÑȶ	-13596
ÑƳĨuȶȶĨÑÌȶĨ	-13597
DİÑ	-13598
ĨÁŦ	-13599
ĨİDǟuȶ	-13600
ȀįuÑİȲȲ	-13601
ȀĨȱ	-13602
▁ȀȭȀÑÌ	-13603
ĨơȀÑÌĨD	-13604
ȶȍÑǟİȲĨ	-13605
īĨơÌȶįĨÑÌȶĨ	-13606
ýƳơį	-13607
DȲǟȶĨ	-13608
ÑÌīĨİį	-13609
ĨİįįƳǟį	-13610
įuĨÑÌȶĨ	-13611
ŦȶÑȀ	-13612
ŻȤȤõ	-13613
ȶȶĨơ	-13614
ȶĨİÑÑ	-13615
żÏ	-13616
ĨƋȶÁİȲȶĨ	-13617
ȐǗ	-13618
ęȶȲ	-13619
ȶĨė	-13620
ȲƦĨÑ	-13621
DƳİÑĨ	-13622
ÁȀuÑİĥ	-13623
ƳÌįuƳį	-13624
ÌȶÁƳÑÌȶ	-13625
ǡǟİȲȀÑƦĨİį	-13626
įÑĨ	-13627
ŻżȐ	-13628
ĨÑÌȶĨȀÁȍİ	-13629
ŦİįȀľİÑȀƳįĨ	-13630
ĨÑÌİÑĨȀÑĨȀuĨ	-13631
ĨÁİįƦĨƳƋĨÑÌȶĨ	-13632
ǐĨǶȀįİȲȲƦīĨ	-13633
ŻȤȤŻ	-13634
ÑĨȀuĨİ	-13635
ȀľȀįŦĨÑÌȶĨ	-13636
ȐR	-13637
ȶFȎ	-13638
įİįƳ	-13639
▁ȀÏǟ	-13640
ƳȍƳuİȲ	-13641
ƳįȶīĨİį	-13642
ĨuȍȶįÑĨ	-13643
ĨÁİŦįȶÑȀ	-13644
ȀįŦĨİƋÑȶ	-13645
ÁƳǟÑÌĨ	-13646
uǐĨýÌȶȀ	-13647
ĨDȶȲƳơĨ	-13648
ÑǟįȀÑȀȶuĨÑƳĨ	-13649
▁ȸų	-13650
ĨÑİŦ	-13651
ȀÁȶÑȶ	-13652
ƦĨuȀÁȀȲİ	-13653
ȶuǟȲÑuĨƳƋĨ	-13654
ȶĨuƳȲǟÑȀƳį	-13655
İȲȀu	-13656
ơƳÁȶįĨİį	-13657
uȍȶȲȲ	-13658
ǟuȀİu	-13659
ĨȍȲİįÑuīĨ	-13660
İÑuĨİį	-13661
ƳÌȶ	-13662
ȶįÑĨĥȀį	-13663
ơȀƋȶ	-13664
ÑƳȍȍȶ	-13665
īĨuİƦuĨ	-13666
ĨơȀÑÌĨÑÌȶĨu	-13667
uÑĨİ	-13668
ȸuȀİ	-13669
uĨƳƋĨȶİ	-13670
ĨÑÌİÑĨƋƳ	-13671
ĨÑơȀ	-13672
Ȁįİį	-13673
ȎýƳĨ	-13674
ÁȀÑȶ	-13675
īĨƳį	-13676
ȀįŦÛ	-13677
ȶįȀȲ	-13678
uÑǟƋƋ	-13679
ǟuĨƋƳ	-13680
ȶÑÌİį	-13681
ȶĨuÌȶĨ	-13682
NįÑȶȲȲȀŦȶį	-13683
żÀĨÌƳǟ	-13684
ȶĨuǟƋƋȶ	-13685
İȲĨȸuuƳ	-13686
İȲÁƳį	-13687
ȀƋĨơȶĨ	-13688
uĨƳƋĨƳǟ	-13689
ĨơȶĨơȀȲȲ	-13690
ƤN	-13691
ÑȶĨȍ	-13692
ƦÁƳ	-13693
ȀįƳĨ	-13694
ƳDǟuÑĨ	-13695
ȲȶuĨȱ	-13696
ȎÔǟDȲȀuÌȶ	-13697
ĥĨƯ	-13698
ÌĨÑȶ	-13699
ĥuĨDƦĨ	-13700
ȶīĨƦƳǟĨ	-13701
ĨǟȍĨÑÌȶĨ	-13702
įȶuȀǟÁ	-13703
ǟuȶuĨİ	-13704
ȀÑİȀįĨ	-13705
ȀįŦĨȍȶƳȍȲȶĨ	-13706
ÌİDȀÑuĨ	-13707
ǐȎRİuÑĨ	-13708
ȀİȲĨįȶÑơƳ	-13709
ƳuÑīĨ	-13710
İįĥuŦȀ	-13711
ȀȲȲĨ	-13712
ȶĨuơ	-13713
uǐĨýƳĨ	-13714
ÑȀƳįuǐ	-13715
uİÁȍȲȶĨ	-13716
İȀȲİDȲȶĨİÑĨ	-13717
īĨȶę	-13718
Ĩƅǟ	-13719
ĨRȀƋ	-13720
İȲĨƖ	-13721
ȶįÑǐ	-13722
ÁİȲĨȍ	-13723
ĨÁȶįĨ	-13724
uĨȀįÑȶ	-13725
uīĨȀÑĨȀuĨ	-13726
ĨȱƯ	-13727
ȲƦǐ	-13728
ÁİȲȶĨ	-13729
ÌİuĨDȶȶįĨȍ	-13730
ÌȶÑƳ	-13731
ÌįȀǡǟȶuĨİį	-13732
ĨĀȶơĨưƳ	-13733
ÌƳįȶƦĨ	-13734
ȶĨȀįĨŻȤ	-13735
ÌİÁȍ	-13736
ŦȶĨŦ	-13737
ȶĨȭƳ	-13738
ÁȀÑuĨ	-13739
▁\	-13740
ƨȎNį	-13741
▁ǐīĨ	-13742
İƦuǐȎ	-13743
ƳȲȀÑÌȀ	-13744
ȲƦĨuÑİ	-13745
ÑÌȶuȶĨİ	-13746
īĨƋİ	-13747
▁ȶįuƳ	-13748
İȲĨơİÑȶ	-13749
ȶīĨÑ	-13750
ėƥĨȍȶ	-13751
ƳơįĨƳ	-13752
ȀįĨÑǟ	-13753
ƳįȶuīĨ	-13754
İDȲȀįŦĨ	-13755
▁ÑİÑȶĨƳƋĨ	-13756
ȶİÑĨơİƦĨÑƳĨ	-13757
īĨuƳÁȶÑȀÁȶuĨ	-13758
ǞĨ	-13759
ȐƳƋƋ	-13760
ȀįĨȍȲİ	-13761
ƅƳuȍȀÑİȲ	-13762
Ƕų	-13763
ƤȲȶ	-13764
ȲȀÁȀÑİÑȀƳį	-13765
ȎRȶİ	-13766
ȶİįȀ	-13767
ȀuƳÑƳȍ	-13768
ȲȶĨơİuĨ	-13769
ėī	-13770
ƖȶȲŦȀ	-13771
ĥǐȎýÌȶĨ	-13772
ĨƤİȲȀƋƳ	-13773
ƖȶƋƳ	-13774
ǟİȲĨu	-13775
ĨơȶȀŦÌ	-13776
ÌȶİȲÑÌƦĨİį	-13777
ĨuƳÁȶÑÌ	-13778
ƤȀÑƦĨƳƋĨ	-13779
ÌİuĨDȶȶįĨǟuȶ	-13780
ȲȶuĨƋ	-13781
ȍƳȀuƳį	-13782
ƳÁÁǟįȀÑȀȶuīĨ	-13783
ǐȎȐĨų	-13784
İÁÁİÑȀ	-13785
ƳÁȍƳuȀÑȶĨ	-13786
ȶuǟȲÑuĨȀįĨ	-13787
ĥuĨƋ	-13788
ĨơȶÑĨ	-13789
İÑȀƳįuĨȱ	-13790
ƳĨƦƳǟĨÌİ	-13791
ȀÁȍȲȶÁȶįÑİ	-13792
ȶįȶÑ	-13793
ÑơȶįÑƦȐ	-13794
ǡǟİįÑȀÑİÑȀ	-13795
ĨÑƳĨÁİĥȶĨÑÌȶĨ	-13796
uĨƯ	-13797
ĥuǐ	-13798
ƦĨơȀȲȲ	-13799
ȀÑİÑȀƳįĨİį	-13800
RȀƋȶĨ	-13801
ȶuȎýÌȶĨ	-13802
İįĨuÑȀȲȲ	-13803
ĨDƦĨÑÌȀuĨ	-13804
ŦÛŻƥǐ	-13805
ĨÑÌȶĨǗ	-13806
ĨřȀįŦĨ	-13807
ȶĨȶİuȀȲƦĨ	-13808
ȶÑȶƳ	-13809
ȀÁȶįÑİ	-13810
ȀuȶĨƳƋĨ	-13811
ȶȲĨİ	-13812
Ĩȸơİ	-13813
ƳDȲȶ	-13814
ǟȲuȶĨ	-13815
ȶĨÑƳĨȀį	-13816
ȶĨÁƳuÑȲƦĨ	-13817
ŦİuÑ	-13818
ǟȲȶuīĨ	-13819
ĀȀŦȶ	-13820
ĨȍÌİ	-13821
ȶȲȀįȶ	-13822
ÁİĥȶĨİ	-13823
ǶĨ	-13824
ȍİȀįÑȀįŦĨ	-13825
ĨÑÌİÑĨÑÌȶĨȍ	-13826
DİuȀuĨƳƋĨ	-13827
ÔȲİįÑĨ	-13828
ȎNÑȎuĨ	-13829
ŦȶĨÑÌİÑĨ	-13830
ȶȍÑȀƳįĨƳƋĨ	-13831
ÑuǐȎȐĨ	-13832
ȶƦĨƳƋĨ	-13833
▁ȀƅƳơĨ	-13834
ȶŦǟȲİÑȶĨ	-13835
ƳÁÁǟįȀuÑĨ	-13836
ÌİįŦȶĨȀįĨÑÌȶĨ	-13837
İįĨĆ	-13838
ȀȲƦĨİ	-13839
ĨÁİįƦĨÁƳ	-13840
ÑƳǟŦÌ	-13841
ĨÑÌȶĨơİƦĨ	-13842
ĥuĨƳƋĨÑÌȶĨ	-13843
ŦİÁȶ	-13844
ȶĨÑÌȶĨuİÁ	-13845
ȶŦȶÑİDȲȶu	-13846
ǟŦuĨ	-13847
ȲȶĨȍ	-13848
īĨƳÑÌȶ	-13849
ȲȀÁİÑȀ	-13850
ȶȍȲƳƦȶ	-13851
ÑİuuȀǟÁ	-13852
ȶįȶuuīĨ	-13853
ȶįȲİ	-13854
ƳįÑİŦȀ	-13855
ÑȀÁȶĨƦƳǟ	-13856
ÑȀƳįĨȸŦȶį	-13857
ĥįƳơĨİDƳǟÑĨ	-13858
ĥƦĨȭ	-13859
İȲȲƳơĨƋƳ	-13860
ȀÑȀƳįuĨƳƋĨ	-13861
ƤÌȀįİīĨ	-13862
ǐĨýÌȶĨD	-13863
ȀȶuĨDƦĨ	-13864
ȶǐĨȱ	-13865
ÑȲƦīĨ	-13866
ĨįȀŦÌÑ	-13867
İȲȀŦįȶ	-13868
▁Ȁľ	-13869
ƯƳįİȲ	-13870
ȲȶĨÑƳĨ	-13871
żǨ	-13872
ćÁȍ	-13873
ǗİȲİƦ	-13874
ĨųȶȍǟDȲȀ	-13875
ȶĨİĨȲƳÑĨƳƋĨ	-13876
uȎȱ	-13877
ĨȀuĨįƳơ	-13878
ȶuĨÑƳĨu	-13879
ÑȲƦĨİƋÑȶ	-13880
▁ȀNįĨÑÌȀuĨ	-13881
ÑĨǶ	-13882
ȀįÑƳĨİĨ	-13883
uĨơÌȀȲȶĨ	-13884
ĨĆǟ	-13885
ĨȍȲİįÑuĨİį	-13886
ÌİȲȲȶįŦȀįŦĨ	-13887
ĨǗǟu	-13888
ƳȲÑİȀ	-13889
ȶuÑĨȍ	-13890
ĨÌİȲƋĨƳƋĨÑÌȶĨ	-13891
ơȶȶĥȶį	-13892
uĨÑƳŦȶÑÌȶ	-13893
İĨǗ	-13894
ŻĨȱ	-13895
ȶİuǐȎ	-13896
ȀȲȀÑƦīĨ	-13897
ƳƋĨuƳÁȶĨ	-13898
ÌȀDȀÑȀƳįĨ	-13899
ĨÑÌİÑĨơȀȲȲ	-13900
ĨȍƳȍǟȲİÑȀƳįuĨ	-13901
ȶuȍƳįuȀDȀȲȀÑƦĨƋƳ	-13902
ÑÌĨĆ	-13903
ƳŎuĨ	-13904
ĨÑǟÑƳ	-13905
ȎuĨȲİ	-13906
ĨȀįĨƳįȶĨ	-13907
ĨȀįĨÑÌȶuȶĨ	-13908
ĨNÁ	-13909
FīĨİ	-13910
īĨȀįÑȶ	-13911
ǐȎNÑȎuĨ	-13912
ƳÁȍİįƦīĨ	-13913
ÐĨȱ	-13914
ǟȍȲƳİ	-13915
ĨćİuÑȶ	-13916
ǐÅĨýÌȶĨ	-13917
ÌƳƳuȶĨÑÌȶĨ	-13918
ÁȀȲȲȀƳįĨ	-13919
ÁƳuÑĨƋİÁƳǟuĨ	-13920
ƦĨuȍ	-13921
ÁƳįÑÌĨ	-13922
ȶįÑuĨȍ	-13923
NįuÑȀÑǟÑȶĨƳƋĨýȶ	-13924
įĨƤİȲȀƋƳ	-13925
ƆƆƆ	-13926
ĨÏƋƋȀ	-13927
ĨÑÌȶĨȭƳ	-13928
ĨƳƋĨİȲȲ	-13929
ȀȍȶĨ	-13930
ÑuǐĨȸ	-13931
Nýć	-13932
ȶįİDȲȶ	-13933
ȀŦÌÑȲƦĨ	-13934
ĨįƳÑĨÑƳĨ	-13935
ÌƳÑÑȶ	-13936
Ƴơįơİ	-13937
ȶuÑĨİ	-13938
īĨÑÌƳu	-13939
ƦÁDƳȲȀ	-13940
ȀÑĨDȶ	-13941
ȀİŦįƳuȀuĨİį	-13942
ĨõƯ	-13943
ȀuĨÑ	-13944
DİŦȶĨ	-13945
ơƳįȎÑĨ	-13946
ȲȶuĨƋƳ	-13947
õƥȐ	-13948
ǟȲƋǟ	-13949
ÌİÁÁİ	-13950
ȶuǐĨȸį	-13951
uƦuÑȶÁĨ	-13952
ÌǟÁİįĨİ	-13953
ÁȀįİÑȀƳį	-13954
FĨơÌȀ	-13955
ĥįȶuu	-13956
uȀÁǟȲ	-13957
ĨİȲuƳĨDȶĨ	-13958
ȶĨÑÌȀįŦuĨ	-13959
İȲÑİ	-13960
ƦĨDİ	-13961
ȶĨȍİuuȶ	-13962
Ïƅ	-13963
ƿÅ	-13964
ȶǐĨų	-13965
ÑƳĨųȀ	-13966
ĨİuĨÅ	-13967
ĨÑÌȶĨDȀ	-13968
İDȲȶĨƳƋĨ	-13969
Ƴǟȍȶ	-13970
ĨȀįĨÑÌİÑĨ	-13971
İȲȲƦĨÁƳ	-13972
ơİuÑ	-13973
ƳuīĨ	-13974
ȶĨƳȍȶ	-13975
ơİƦĨİį	-13976
uĨÑƳĨƦƳǟ	-13977
ȶİÑȶuĨİĨ	-13978
ǡǟȀį	-13979
ĨȀįĨȀį	-13980
ÑȶȲȲĨǟuĨ	-13981
FĨȀįĨÑÌȶĨ	-13982
ĨÁȶuuİŦȶĨ	-13983
uȶơÌȶ	-13984
ÑȀİįĨ	-13985
ȶĨƦƳǟįŦ	-13986
İȲȲƳơuĨƋƳ	-13987
ǐȎȸȲÑÌƳǟŦÌĨ	-13988
ÌİȀȲİį	-13989
ƳuÁȶÑȀ	-13990
ȶȲȀŦȀDȲȶĨ	-13991
ȶuǟȲÑȀįŦĨƋ	-13992
ȶįŦİŦȶÁȶįÑĨ	-13993
ĨÔȶÑȶ	-13994
ȲȲǟuÑ	-13995
ĨơİuĨÁİ	-13996
ÑuĨÑƳĨÑÌȶĨ	-13997
ĨýÌȶ	-13998
ȶĨųȶ	-13999
ĨȭȀÑÌ	-14000
ƋȲȀŦÌÑĨ	-14001
ÑȶÁȍȲİÑȶĨ	-14002
tȸ	-14003
īĨuÌİ	-14004
ĨȀÑuĨȍ	-14005
ĨȲƳuÑĨ	-14006
uĨÑÌȶuȶĨ	-14007
ÑȀƳįuĨƳįĨ	-14008
ȭȶĨİ	-14009
ơİŦȶĨ	-14010
ĨƳƋĨơƳ	-14011
ĨǟȍƳįĨ	-14012
ȀuȀDȲȶ	-14013
ȶuǟȲÑuǐĨ	-14014
ÁİĥȀįŦĨİĨ	-14015
İĨuȀŦįȀƋȀ	-14016
ƳDȲȶÁuĨơȀÑÌ	-14017
ȶƋȀįȶĨÑÌȶĨ	-14018
ÑÁȶįÑĨƳƋĨȸŦ	-14019
ưǟ	-14020
ĨȱĆ	-14021
ȶĨÑİ	-14022
įȶİÑÌ	-14023
ƳÁDȀįȶĨ	-14024
ȶĨȲƳuÑĨ	-14025
ȀÑİÁȀįĨƖ	-14026
ȶuȶÁDȲȶĨ	-14027
uƳįİȲȀÑƦĨ	-14028
ĨųȀŦÌÑuĨųȶuȶ	-14029
ýų	-14030
ĨuȶįȀƳ	-14031
ĨȀįĨİȲȲ	-14032
ȶİuÑƋȶȶ	-14033
ȀŦȀįİȲĨȍ	-14034
ȀİDȶÑȶuĨİį	-14035
ƦĨÌȶİ	-14036
ÌȶÑȶ	-14037
ȶĨȀuĨÁƳ	-14038
ĨuȶęǟİȲĨ	-14039
ĨǗİÑÌȶÁİÑȀ	-14040
uĨȀįĨÑÌȶĨtįȀÑȶ	-14041
ȶĨȐ	-14042
ĨȶęȍȲİȀįȶ	-14043
ĨȶÁƳÑȀƳįİȲĨ	-14044
ȶĨDȶȶįĨƋƳǟį	-14045
ȀuȀƳįĨƳƋĨÑÌȶĨ	-14046
ȶuȶįÑĨȀįĨÑÌȶĨ	-14047
uÑĨȍİ	-14048
ĨȍİȀįĨ	-14049
ȀƋĨƦƳǟȎ	-14050
ȶĨNuȲİį	-14051
uǐĨýÌİÑĨ	-14052
ȲȶįŦÑÌĨƳƋĨ	-14053
ȶĨȲȀĥȶȲƦĨÑƳĨDȶĨ	-14054
ÑȎuĨİ	-14055
ĥuĨÌİ	-14056
ĨǗȶÁƳ	-14057
İȲȀȶį	-14058
ƦȲȲİ	-14059
İĨƦȶİ	-14060
ǐȎƤƳȍƦ	-14061
DİuȀuĨƋƳ	-14062
ÑȶęÑīĨ	-14063
ƳįĨİĨu	-14064
ȶīĨÑƳĨ	-14065
ĨȸDƳǟÑĨ	-14066
ȀÑƦīĨÑÌȶĨ	-14067
ĨȍȶƳȍȲȶĨÌİ	-14068
ĨǶȲƳ	-14069
ŻȤȤż	-14070
ȶuĨȐĨ	-14071
ĥĨÌİuĨ	-14072
ȀŦÌÑȶį	-14073
īĨŎ	-14074
ĥȶȶȍȀįŦĨ	-14075
ĀȶŦ	-14076
Áİįǟu	-14077
DȶȀįŦĨȍ	-14078
ĨuȶįuȶĨ	-14079
ǟuȀįŦĨȍ	-14080
ĨȶÑÌȀ	-14081
ȸuȀİįĨ	-14082
ÁȀįȶĨȀƋ	-14083
ÁƳuÑĨȍƳȍǟȲİ	-14084
ȀįĨÔ	-14085
ƦÑȶȲȲ	-14086
ƳȍȍȀįŦĨ	-14087
řć	-14088
ȶİȲuĨ	-14089
İƦuĨİƋÑȶ	-14090
ƳÌƳȲĨ	-14091
ȀƳuȀÑƦĨ	-14092
ƳįÁȶįÑİȲ	-14093
ȶuȍƳįuȶĨÑƳĨÑÌȶĨ	-14094
ǟȲȶīĨ	-14095
ĨơȀÑÌĨȶİ	-14096
ƋǟȲįȶuuĨ	-14097
ĥĨÁİ	-14098
Ɩİuȶ	-14099
ĆƖý	-14100
ÌĨƳǟ	-14101
ƦĨȍȲİį	-14102
ĀİľȀ	-14103
ÑơƳĨİ	-14104
õǐė	-14105
ƦīȎ	-14106
ƳÁĨÁƳ	-14107
ƳȍȶīĨ	-14108
ɁȎȸ	-14109
ȀľƳįİ	-14110
ȶİÑÌĨƳƋĨ	-14111
ÑÌȶȲȶuuīĨ	-14112
ȤÛ	-14113
ȶȶÁȶ	-14114
ÌİȲƋȐ	-14115
ŎuĨơƳ	-14116
ƳȲƳŦƦȎ	-14117
ȶĨDȶȲȀȶ	-14118
ÑÌȶİuÑȶ	-14119
ǟįuĨ	-14120
▁ǟŦİ	-14121
uǐĨƖȶ	-14122
ÑuĨƦƳǟ	-14123
ĨƦƳǟįŦȶ	-14124
ȶīĨơȀÑÌ	-14125
İȀįĨİ	-14126
İȲƦuȶ	-14127
ƋİȲȲĨ	-14128
ƦĨuÌƳ	-14129
ƳǟŦÌĨơÌȀ	-14130
ȀľİÑȀƳįĨİį	-14131
DȶuÑĨơİƦĨÑƳĨ	-14132
ȶŦƳįĨ	-14133
ĨƋǟȲȲĨ	-14134
ĨȀįĨİĨuÑİ	-14135
ȀuǟİȲȀľİÑȀƳį	-14136
ŦƦĨƋ	-14137
ƳÁİȲ	-14138
ƳįȶĨȍȶ	-14139
ȶuuȀįŦ	-14140
▁ȀȭÌȶį	-14141
NƋĨƦƳǟȎ	-14142
ǟŦÌĨ	-14143
ȶuɁɁ	-14144
ƳȲƳįȀİȲ	-14145
ȀįŦĨÌȶİ	-14146
uĨȀįuȀ	-14147
ȶuĨȀÑĨ	-14148
ƳǟÑuÑİį	-14149
ǐĨȭÌİÑĨȀuĨ	-14150
İǟȲ	-14151
ȶĨȍÌƳÑƳ	-14152
ƳÁÁǟįȀÑȀȶuĨİį	-14153
ĨȶƦȶĨ	-14154
ȀľȶĨİį	-14155
ȀİȲĨȀįÑȶȲȲȀŦȶį	-14156
řİį	-14157
İǟuȶĨİį	-14158
ȶĨÑƳĨƳǟ	-14159
ȀÁİŦȀįȶĨ	-14160
NȲȲȀįƳȀuĨ	-14161
ĨǨĨ	-14162
▁ÏĀ	-14163
ǐÌÑÁȲ	-14164
ĨȀįĨƋƳ	-14165
ǐÔ	-14166
ÌƦÑƳ	-14167
ȶȲĨƋ	-14168
ĨÑƳĨŻȹ	-14169
ȲȀuÑuĨ	-14170
ƦȶȲȲƳơĨ	-14171
ĨȐȐ	-14172
Áİįį	-14173
ĨDƦĨǶ	-14174
İįÑȶȶ	-14175
ĨİĨÅ	-14176
ȶȶĨÑȀÁȶuĨ	-14177
ȀÑȀƳįİȲĨȀįƋƳ	-14178
ȱƖ	-14179
ĨȀįĨįƳ	-14180
İÑĨơÌȀ	-14181
ĨİuĨƦƳǟ	-14182
ųǟD	-14183
ȶȲĨƳ	-14184
ȶĨuȶȍİ	-14185
ĨÌȶİÑ	-14186
ȶuǐĨƅ	-14187
İǐȎýÌȶĨ	-14188
ƅų	-14189
ĥǨĨ	-14190
ĨuÁƳĥȶ	-14191
ȶȲĨÑƳĨ	-14192
ȍȶƳȍȲȶĨÑƳĨ	-14193
ĨƳȍÑȀ	-14194
ȶuĨơƳ	-14195
ȶĨuİƦuĨ	-14196
ȶuǐĨƅƳơȶ	-14197
ȀİÑƳ	-14198
ĨİĨȍȀȶ	-14199
ĨǟįȀÑuĨ	-14200
ƳDȲȶÁuǐȎ	-14201
ȶȲİÑȀįŦĨÑƳĨ	-14202
▁ȶİÑ	-14203
īĨȍÌƦuȀ	-14204
ȶİÑȀįŦĨİį	-14205
ǐĨÏƋĨ	-14206
ƅȀuȍİįȀ	-14207
ÌƳƳȲuĨİ	-14208
įƳÑİDȲȶĨ	-14209
ƦƳǟĨÁǟuÑĨ	-14210
ÀȎ	-14211
uȎȐ	-14212
ÑȀÁȶīĨİį	-14213
ƳÁĨÑÌȶĨƳ	-14214
ƳįƦÁƳǟuĨ	-14215
ȶuuȀƳįīĨ	-14216
ĨįƳu	-14217
ŦȶįƳ	-14218
ȭȶĨÌİ	-14219
ȶįÑƦȐ	-14220
ÑÌİÑȎuĨ	-14221
ȶuǟȲÑuǐȎ	-14222
ųȶÑǟ	-14223
▁ȶȶĨÁƳ	-14224
ÑÌơȶuÑȶ	-14225
ÌƳuȍȀÑİȲĨ	-14226
ȶuǟȲÑuĨƳƋĨÑÌȶĨ	-14227
ÁȀįŦĨİį	-14228
ƳĨÑÌȶƦĨ	-14229
DȀŦĨ	-14230
ĥȀįuĨ	-14231
ơȶÑȲİį	-14232
ĨDȶȶ	-14233
ȶĨƋƳȲȲƳơ	-14234
uÑİÑȶÁȶįÑĨ	-14235
ĀƳǐĨ	-14236
▁Ȁľȶ	-14237
ȀŦįİȲ	-14238
ƳǟŦÌƳǟÑĨÑÌȶĨƦȶİ	-14239
ĨÑÌİÑīĨ	-14240
ƳÁȍȲȶÁȶįÑİ	-14241
ǐĨǶȶ	-14242
ÑƳĨİȍȍ	-14243
uȎƯ	-14244
ÑȀįŦĨÑÌȶȀ	-14245
ȶȶĨÑ	-14246
ÑȀÁİÑȶ	-14247
İuĨİįĨ	-14248
İȍȍȲƦĨ	-14249
ȀİĨÑÌȶĨ	-14250
ǐĨýÌȶĨÑȶ	-14251
FǐĨNį	-14252
ĨȲİuȶ	-14253
DǟuȀįȶuu	-14254
uǟDÁȀÑÑȶ	-14255
ƳÑuĨ	-14256
ȀuȶĨÑƳĨ	-14257
ĨȶÁȀuuȀƳį	-14258
ȶīĨȀuĨ	-14259
ȶȲȲĨȍÌƳį	-14260
Ȁȶǟ	-14261
ĨȭȶuÑȶ	-14262
ĨDƳÑÌĨuȀ	-14263
ĨơȀÑÌĨƳǟ	-14264
ơİƦuĨȀįĨơÌȀ	-14265
ƳuÁ	-14266
ƳȲƦÁȶ	-14267
ÌĨÑÌȶÁ	-14268
ĨƳįĨȀÑuĨ	-14269
ĨÑÌİÑĨÌȶĨ	-14270
ǐȎƖǟ	-14271
uǐĨÏǟ	-14272
ȶÑĨǟuĨ	-14273
İÑȀƳįȎȐĨ	-14274
ȎÏį	-14275
ȸƤć	-14276
▁ÑǐĨÔ	-14277
ȶuȀuÑƳ	-14278
İįŦȶĨİį	-14279
ĥȶȶȍĨ	-14280
ȶƋȀįȀÑȀ	-14281
uĨƋƳȲȲƳơ	-14282
uīĨȲȀĥȶĨ	-14283
ȶĨÁİȍ	-14284
įĨÔ	-14285
ĨDİÑÌ	-14286
ȍƳuuȀDȀȲȀÑƦĨƳƋĨ	-14287
ƋƳȲĥ	-14288
ĨżƥŻȤ	-14289
ǐĨƤƳȍƦ	-14290
ȶįÑȀƳįīĨ	-14291
İÑȶŦȀȶuĨÑƳĨ	-14292
ĨÑÌƳuȶĨơÌƳĨÌİ	-14293
ÑĨȶİ	-14294
ȶuȀŦįĨȍ	-14295
ÑİĥȶuĨİĨ	-14296
ȶĨÑÌȶĨuÑǟ	-14297
įİÑȀƳįİȲĨȍ	-14298
ǐĨưƳǟĨÁİƦĨ	-14299
Àǐƥ	-14300
ĀƳįȐ	-14301
ǐȎȎȐĨ	-14302
ÌƳƳȲĨȍ	-14303
ĨuÑƳįȶĨ	-14304
ĨǟįÑȀȲĨÑÌȶĨ	-14305
ĨDƦĨİįĨ	-14306
DȀȲȀÑƦĨİį	-14307
ȶǐƳ	-14308
NĨĥįƳơ	-14309
ĨDƳÑÑƳÁ	-14310
ȶİǟĨƳƋĨ	-14311
ĨÑÌȶĨÌȀuÑƳ	-14312
İȲȲƳƳį	-14313
żƥĨȍȶ	-14314
Ïć	-14315
uǟDÑ	-14316
ĨƤƳǟį	-14317
ȀİĨƳ	-14318
ǐƯǐīĨ	-14319
ĨȲȀĥȶĨİĨ	-14320
īĨƦƳǟĨuÌƳǟȲ	-14321
ǟÑĨİį	-14322
ÑuīĨơÌȀ	-14323
ȶĨÌȶȲȍ	-14324
ĨÑƳĨİįuơȶ	-14325
ȀÑȀįŦĨÑÌȶĨ	-14326
ȶĨȸŦȶį	-14327
ƳįuǟÁȍÑȀƳįĨ	-14328
ȶĨİĨuȀŦįȀƋȀ	-14329
uĨİuuƳ	-14330
ĨİuuȶÁD	-14331
ǐĨýÌȀuĨơİuĨ	-14332
ĨÏį	-14333
ƯȀuƳ	-14334
ȀįŦĨƳƋĨu	-14335
ȶİuȶĨƦƳǟ	-14336
öƳƦ	-14337
▁ǨĨ	-14338
ÁȶÑĨ	-14339
ȲİơĨ	-14340
uīĨȶİ	-14341
ÑƦīĨİį	-14342
ƦĨơȶȲȲ	-14343
▁ƤN	-14344
ĨƋȀȲȶ	-14345
uĨƳƋÑȶį	-14346
ȶįȀȶįÑĨ	-14347
ŦƳĨÑƳĨÑÌȶĨ	-14348
ơȶŦȀ	-14349
ǐĨNÑĨȍ	-14350
Ȑȍȶ	-14351
uĨȲƳ	-14352
įȀuÌ	-14353
ĨuǟuÑİȀį	-14354
įĨȶ	-14355
ȶĨƳįĨİĨ	-14356
ȶĨǟȍĨÑƳĨ	-14357
ǐȎÔȶ	-14358
ĨÑƳĨuȍ	-14359
ȶuÑȀįŦĨİį	-14360
ĨÏȲ	-14361
ȀuȀįƋȶ	-14362
ȶƋȶİÑȶ	-14363
ȲȶÁȶįÑȶ	-14364
ǐȎȸÑĨÑÌȶĨ	-14365
Ƴuȍİ	-14366
ȀįƦĨ	-14367
ǗİįİŦȶ	-14368
ȀįŦĨuȍİ	-14369
İÑȀƳįĨƳƋĨu	-14370
▁İD	-14371
İįuĥ	-14372
Żėƥƥ	-14373
ȐÑÌȶȐ	-14374
İÑȀįŦīĨ	-14375
ơȀÑÌĨȀÑuĨ	-14376
įŎ	-14377
ȀİĨȍ	-14378
ĨƖǟÑĨ	-14379
ÑÌȲȶÑȀ	-14380
ÑơƳĨȍİ	-14381
ȶĨȍȲİįÑȶ	-14382
ĨİǟÑÌȶįÑȀ	-14383
uĨƳƋĨÑÌȶĨơƳ	-14384
uĨİÑĨÑÌȶĨtįȀ	-14385
ĨŦİȍ	-14386
ưƳǟĨİ	-14387
ĥįƳơįĨİuĨİĨ	-14388
FĨơȶ	-14389
ȀįƋȲǟ	-14390
ȶįȀȶį	-14391
ǐĨtuȶĨ	-14392
ȶĨȍİÑȀ	-14393
İȲĨÁİÑȶ	-14394
İȲǟȶuĨİį	-14395
ȀľƳįÑİȲĨ	-14396
ơÌȶįĨƦƳǟĨ	-14397
İȲÑÌƳǟŦÌĨÑÌȶĨ	-14398
tN	-14399
ĨƳƋĨų	-14400
ȀįŦĨƳƋƋ	-14401
ƅƳǟuȶĨƳƋĨ	-14402
ȎŻȤ	-14403
ƳÑÑȶ	-14404
ƤȲȀįȀ	-14405
ȀįŦuĨƳ	-14406
ĨÑÌȶĨİǟÑÌƳ	-14407
ĨÑÌİÑĨu	-14408
ȀȲīĨ	-14409
ƳįĨȀį	-14410
ȲȶuuĨİį	-14411
İįȀÁ	-14412
ĥĨȀÑĨ	-14413
ĨuƳĨƋİ	-14414
ĨÑƳĨȍǟÑĨ	-14415
ÁİƦĨİȲuƳĨ	-14416
▁Ȁƅİ	-14417
ƳįÑȶį	-14418
ǟȲǟÁĨ	-14419
ȶİįuĨ	-14420
ĨÑÌȶĨĀƳ	-14421
ǐĨųȶÁȶÁDȶ	-14422
ǐȎƯȀ	-14423
İuȍDȶ	-14424
įȶƦīĨ	-14425
ȶįuīĨ	-14426
ȶĨȎĨ	-14427
ǟÁǟȲİÑȶ	-14428
ȶĨȶįƳǟŦÌĨ	-14429
ÁİƦĨƳ	-14430
ĨƳƋĨŻȹ	-14431
ĨÁİĥȶĨİĨ	-14432
ȲȶuĨȀįĨÑÌȶĨ	-14433
ȲȀĥȶȲƦĨÑƳĨDȶĨ	-14434
ÑĨÁİ	-14435
ƳƋĨȍİȍȶ	-14436
ƿƿ	-14437
İȲȲǟ	-14438
ȶĨİDƳ	-14439
DƳƳĥuĨ	-14440
uĨuƳÁȶ	-14441
ÁƳuÑĨİ	-14442
ÌȀuĨơƳ	-14443
ȶȍÑȀƳįuĨ	-14444
ȭȀįÑȶ	-14445
ÁǟȲÑȀȍȲȀ	-14446
ƳįƳÁƦĨİį	-14447
ǐĨýÌİÑŎuĨ	-14448
ĨÁİĥȶĨÑÌȶĨ	-14449
ćįÑ	-14450
ÌİÁĨ	-14451
İȲĨuȍİ	-14452
İÑȶȲȲȀÑ	-14453
ȶuÑƳįȶĨ	-14454
ȀįŦĨƳįȶĨ	-14455
ȶęȍİįuȀƳį	-14456
ĨȍȶƳȍȲȶȎuĨ	-14457
İÑȀƳįİȲĨİį	-14458
ȶuuȀƳįĨƳƋĨÑÌȶĨ	-14459
tƤĀ	-14460
İÁuĨƋƳ	-14461
ȶĨÑƳĨŦȶÑĨ	-14462
Rư	-14463
ƦĨȀ	-14464
uİÁȶĨİuĨ	-14465
ĨƤÌȀįȶuȶĨ	-14466
ȀƳĨİį	-14467
ĨÌƳÁȶơƳ	-14468
ƦĨİÑĨÑÌȶĨ	-14469
ÁȀÁȀ	-14470
õĨÑƳĨ	-14471
İȲĨųȶ	-14472
ĨÁȶİįĨ	-14473
ĨŦȶÑuĨ	-14474
ĨƋİÁȀȲƦ	-14475
NƤý	-14476
űīĨ	-14477
ȀÁĨ	-14478
ÌƳƳȲĨƳƋĨǗȶ	-14479
ƨȎƯ	-14480
ȃĨƳƋ	-14481
ĨRȀÑȶ	-14482
ĨÑÌȶĨuƦuÑȶÁ	-14483
ȀuĨȍİ	-14484
ȲİơƦȶ	-14485
uȀŦįİȲ	-14486
ĨuǟŦŦȶuÑuĨ	-14487
uĨý	-14488
ÀĨİį	-14489
Ȁuȶį	-14490
ǗƳǟįÑİȀįĨ	-14491
ȶǨĨýÌȶĨ	-14492
ȎýÌȶĨȍ	-14493
DȶİÁ	-14494
İÑȀƳįuĨÌİ	-14495
ȲȀįĥuĨÑƳĨ	-14496
uǐĨNÑĨơİuĨ	-14497
ȶĨį	-14498
ÑİȀȲȶ	-14499
ŦȲƦ	-14500
ǐĨƖƳ	-14501
uƳĨƋİ	-14502
ĆƳƳŦȲȶ	-14503
ǗİÑÑÌȶơ	-14504
ȀŦÌÑuīĨ	-14505
ĨÑƳĨDȶĨÁƳ	-14506
ĨÑƳĨÑÌȶĨİ	-14507
ÌĨDȶ	-14508
Ñuǟį	-14509
uĨƳįȲƦĨ	-14510
ĨÁİęȀÁǟÁ	-14511
ŦȶȎ	-14512
ĨDƳȲ	-14513
uǐȎýÌ	-14514
ĨİĨƋȀ	-14515
ȀįÑȶȲȲȀŦȶį	-14516
ŻƥĨȍȶ	-14517
ȀİŎuĨ	-14518
ƳÑȀįŦĨ	-14519
ȀuĨȀįĨ	-14520
ÑƳĨuİƦĨ	-14521
ÌĨİÑĨ	-14522
ĨơÌȶįĨƦƳǟĨ	-14523
ȸư	-14524
FǐĨƤ	-14525
İơİƦ	-14526
İÁȍǟu	-14527
ŻĨȀįĨ	-14528
ƳÁȀįȀ	-14529
ƳƋƋȶį	-14530
ƋǟȲƋȀȲȲ	-14531
įĨƳƋĨÑÌȶĨ	-14532
ǐĨȍ	-14533
ĨÑƳĨÌȶ	-14534
ȶuīĨİĨ	-14535
ȶİÑÌȶĨ	-14536
ȶĨİÑĨİĨ	-14537
Ȥűȹ	-14538
ȸȲȲȶ	-14539
öİÁȀįĨ	-14540
İÁĨÑÌİÑĨ	-14541
ŦȶuĨƳƋĨÑÌȶĨ	-14542
ÑȀƳįĨƳįĨÑÌȶĨ	-14543
DȲȶį	-14544
İȲĨĆ	-14545
ȶȍȲƳƦ	-14546
ȶİÑĨƳƋĨ	-14547
ĥĨȀįÑƳĨÑÌȶĨ	-14548
ĨİÁƳįŦĨÑÌȶĨ	-14549
▁ýų	-14550
ȲƳŦŦ	-14551
53⁄45	-14552
ÌǟįŦȶ	-14553
ȀįŦĨƯ	-14554
ĨȍƳȲƦÁȶ	-14555
ȶįÑuĨơÌƳ	-14556
ĨİŦƳ	-14557
DȶĨİĨ	-14558
ǐĨǗİį	-14559
ĨÁȶİÑĨ	-14560
ĨơȀÑÌĨƋ	-14561
ĨơȀÑÌĨƳ	-14562
ȀÁȶĨǗȀįȀuÑȶ	-14563
ĨȀuĨǟuǟİȲȲƦĨ	-14564
ĨǟȍĨ	-14565
ȭİȲȲ	-14566
ȀįÑƳ	-14567
ƖȀDȲȶ	-14568
ƦuƋǟį	-14569
ǟÁȶįÑuĨİį	-14570
ǶİÌ	-14571
ÌĨƳįȶĨ	-14572
ĨDȶĨÁƳ	-14573
ȶĨuȶÑÑ	-14574
ȀİȲīĨİį	-14575
ÑuF	-14576
Ƌİį	-14577
ȲƦį	-14578
▁ȀÁȍ	-14579
ǐȎȸȲuƳ	-14580
ȀuȀÑĨƳǟ	-14581
įÁȶįÑĨƳƋĨ	-14582
ĨȀįĨÑÌȶĨƋǟÑǟ	-14583
ŦĨİį	-14584
ĨȲƳŦȀ	-14585
ÑİįŦǟȲİ	-14586
ȲȀĥȶĨÑƳĨ	-14587
ƋƦ	-14588
ÑȀuÌ	-14589
İDDȀÑ	-14590
ȀƳǟuīĨ	-14591
ĨȀuĨİĨŦ	-14592
ĨȀįĨÑÌȶĨu	-14593
ƳǟįÑĨÑÌȶĨ	-14594
ÌĨƤ	-14595
ȶơuĨ	-14596
ȀİȲȐ	-14597
ĨİįĨȀ	-14598
DȶuÑĨȍ	-14599
ĥuĨÑÌİÑĨ	-14600
ȍȲȶ	-14601
ÌȶuȀ	-14602
ǟȲƳǟuĨ	-14603
uĨƳƋĨuÑǟ	-14604
ƳǟįÑȲȶuuĨ	-14605
İȲȲƳơĨÑÌȶĨ	-14606
ȀȶįÑȀuÑuĨƋ	-14607
ƖR	-14608
ƦĨÑƳ	-14609
ĨÁȶįÑ	-14610
ǟuȶĨÑÌȶȀ	-14611
ƦĨDȀ	-14612
ƳơįĨÑƳĨÑÌȶĨ	-14613
ÌȶuǐȎ	-14614
ĨȀįĨÑÌȶĨDƳ	-14615
ȀȶuĨƳįĨÑÌȶĨ	-14616
▁Ȁř	-14617
ȶĨÌƳ	-14618
ƨȎȭÌİÑĨ	-14619
ȶĨDȶŦİį	-14620
ȀİÑȶĨÑÌȶĨ	-14621
ȀȶuĨÑÌİÑĨİ	-14622
ȶuÑİDȲȀuÌĨ	-14623
Ïtų	-14624
ÏƋĨ	-14625
įƳȲ	-14626
ȶįĨÑƳ	-14627
ȀȍĨÑƳĨ	-14628
ȶuĨƳƋĨİĨ	-14629
ȶįȶƋȀÑuĨƳƋĨ	-14630
ÁīĨİį	-14631
ƳįĨtįȀ	-14632
ǐĨȭÌȶÑÌȶ	-14633
ĨÁİįİŦ	-14634
ȶĨİĨÁƳ	-14635
ơÌİÑĨȀÑĨ	-14636
ȶǐŦǐ	-14637
▁ÌȀȍ	-14638
ƳǟuȲƦ	-14639
ĨÌƳÁȶuĨ	-14640
uƳÁȶƳįȶĨ	-14641
ȀÑƦǐȎýÌȶĨ	-14642
İÁƳ	-14643
żƥėƥ	-14644
ƳęǐĨ	-14645
ĨơȀÑÌƳǟÑĨÑÌȶĨ	-14646
İįĨİȀ	-14647
ƳįŦĨř	-14648
ȶȶĥuĨ	-14649
İȲȲĨÌİ	-14650
ĨȍȲİįįȀįŦĨ	-14651
ƦơİƦ	-14652
ÑİįÑīĨ	-14653
Ĩİȍįȶİ	-14654
ĨơƳÁȶįĨİį	-14655
uȶĨơȀȲȲ	-14656
İuuİŦȶĨ	-14657
ȶĨȲȀuÑȶ	-14658
ĨÑÌȶĨuȍİ	-14659
İÑȀƳįuǐĨýÌȶĨ	-14660
ćƤý	-14661
ÑȀÑȶ	-14662
ƳįĨǶ	-14663
ÁİÑȶǟ	-14664
ǗȶÁDȶ	-14665
İÑȀƳįĨÑȶ	-14666
İȀuȀįŦĨ	-14667
ȶuÑÁȶįÑ	-14668
ľƳƳ	-14669
ÌȀÁȍ	-14670
ÑȀȍuĨƋƳ	-14671
ȶǐĨýÌȶuȶĨ	-14672
▁ȀȭƳ	-14673
ĨȀƋĨƦƳǟĨ	-14674
ȶĨÑÌȶƦĨÌİ	-14675
ÁİȲĨİį	-14676
ĨƳƋĨǗİ	-14677
ȀuȶȲƦĨ	-14678
ǐĨƅȀuÑƳ	-14679
ĨDƦĨÁİįƦĨ	-14680
ȶĨƳDöȶ	-14681
İDƳǟÑĨİĨ	-14682
ȀȍȲȶĨƳƋĨ	-14683
ĨİįȀÁİȲuĨ	-14684
ȶȲȀÁȀįİÑȶĨ	-14685
ƳȲȶĨƳƋĨÑÌȶĨ	-14686
Ĩȱİ	-14687
ĨȍİƦĨ	-14688
ĨÁƳįȶƦ	-14689
įİȲĨİį	-14690
uƳĨÑÌȶƦĨ	-14691
ÌȀuĨȍ	-14692
ĨÁİįĨ	-14693
ȶuĨÁİ	-14694
ȀÑƦŎuĨ	-14695
ȶĨȍÌƳį	-14696
İuȶu	-14697
ĨȀįĨN	-14698
ÑĨơİÑȶ	-14699
ÑȀÁȶĨơÌȶį	-14700
ǐĨt	-14701
ȶȲĨȍ	-14702
ėĨİį	-14703
ƋǟȲȲĨƳƋĨ	-14704
ĨNÁȍ	-14705
ȶuĨȀįĨİ	-14706
ÌȶȲƳ	-14707
ȎȐĨĆ	-14708
uƳĨƦƳǟĨ	-14709
ĀȶơĨưȶİ	-14710
ȶĨȀuĨǟuȶ	-14711
ĨơİƦĨÑÌİÑĨ	-14712
ƳįuÑȀÑǟÑȀƳįİȲĨ	-14713
ÑƳĨȍǟ	-14714
ǟŦŦȲȀįŦĨ	-14715
uĨİuĨơȶȲȲ	-14716
uȀęĨ	-14717
ȀįȶuĨİį	-14718
īĨȀuĨİĨ	-14719
ĨýȶuÑİÁȶįÑĨ	-14720
ǐĨȭÌİÑĨȀuĨÑÌȶĨ	-14721
Ȁǟ	-14722
İįĨuǟ	-14723
ƳȍÌİŦ	-14724
ȶįuǟu	-14725
ȶÌȶİ	-14726
ÁƳƳįĨ	-14727
ĨÁİĥȶĨuǟ	-14728
ǨȎȐĨýÌȶĨ	-14729
RİĨ	-14730
ƳÁĨÑÌȶĨĆ	-14731
ÑĨDƦĨÑÌȶĨ	-14732
ȀįŦĨÑÌȶĨȍȶ	-14733
ƳįÁȶįÑİȲĨİį	-14734
ÌƦȍ	-14735
ÁȀįƳĨİ	-14736
ȶuƳįİį	-14737
▁ȀĀƳ	-14738
ĨÌİȍȍȶį	-14739
įĨtįȀÑȶ	-14740
ƤƳįÑȶįÑ	-14741
pĨƤ	-14742
ÑÌǟuĨ	-14743
ǟuȶĨƳƋĨu	-14744
Ɩć	-14745
DƳȀȲ	-14746
ĨƳƋĨǶ	-14747
ƳȍÌƳį	-14748
ĨuȍȶİĥȀįŦĨ	-14749
ĥĨȸ	-14750
▁ǟŦŦ	-14751
ȶĨİĨȲİ	-14752
įȀŦÌÑīĨ	-14753
uǐȎȭÌİÑĨ	-14754
İÑȀƳįuĨƳ	-14755
ǐȎĭ	-14756
ȭÌȀÑȶ	-14757
ĨÑƳĨŦȶįȶ	-14758
ȍƳuȶĨƳƋĨÑÌȀuĨ	-14759
DȶȶÑ	-14760
ĨDƳƳuÑĨ	-14761
ȀÁȍƳuuȀDȲȶĨÑƳĨ	-14762
ŻǨĨ	-14763
ǟȍǟį	-14764
ȀįŦĨȀÑ	-14765
İŦȶĨÑÌȶĨ	-14766
ȀÑȀƳįuĨÑÌİÑĨ	-14767
ÑĨĆ	-14768
ƳƳÁĨƋƳ	-14769
ĨƳįÑƳĨÑÌȶĨ	-14770
uƨĨ	-14771
ƋȀȲȶ	-14772
ƳÁĨÌİ	-14773
ĨȎýÌȶĨ	-14774
ŦÌİįȀuÑİį	-14775
ƳȲǟÁȶĨƳƋĨ	-14776
ȀľȶuĨÑÌȶĨ	-14777
ĨuǟDuȶǡǟȶįÑĨ	-14778
İĨř	-14779
ƤƳÁȍ	-14780
ȀįĨŦ	-14781
ÌİȍȶȲ	-14782
ȀȶƋȲƦĨ	-14783
ÑÌȀuĨơƳ	-14784
ĨuǟȍȍȲƦ	-14785
ÌƳuÑȶ	-14786
ȶȍȶÑȀ	-14787
ȀuȶİuȶuīĨ	-14788
ȀįŦĨÁȶÑÌƳ	-14789
ȹīĨ	-14790
ÔƳuÑĨ	-14791
ĨƳƋĨÏ	-14792
ȍİÑȀİȲĨ	-14793
ȀęĨ	-14794
ĨĀȶȶ	-14795
õīƥƥƥ	-14796
ƦĨƋǟį	-14797
ȶįÑuǐĨýÌȶĨ	-14798
ĨȀįĨÑÌȶĨtř	-14799
ÌȀįƳ	-14800
ǐȎĨýÌȶĨ	-14801
DƳƳĥuĨİį	-14802
ŻƥƥĨƦȶİ	-14803
ǐȎȸȲÑÌƳǟŦÌ	-14804
ĨpĨ	-14805
ŻŻĨ	-14806
ÌĨŦȀ	-14807
ÑĨơȀȲȲ	-14808
ȶǡǟİÑƳ	-14809
uĨİÑĨİĨ	-14810
ȍȲİƦĨİĨ	-14811
öƳȀįĨÑÌȶĨ	-14812
ĨƦƳǟŎ	-14813
İįÑĨƋƳ	-14814
Ȁįöȶ	-14815
ÁİƦĨȍ	-14816
ơȶȶÑĨ	-14817
ȶĨơİįÑȶ	-14818
ĨƳƋĨƳÑÌȶ	-14819
ÑuĨƳƋĨÑÌȶĨơƳ	-14820
ǐĨȭȶȎ	-14821
ȀįŦĨuȍ	-14822
īĨƳįȲƦĨ	-14823
ĨȀįĨćįŦȲȀuÌ	-14824
ǐƖ	-14825
ȐȍƳơȶ	-14826
ĨİuĨƋİ	-14827
įȶuuȶuĨ	-14828
uȶĨİ	-14829
ÌĨÑÌȶ	-14830
ƦƳǟįŦĨİ	-14831
ȀįŦĨȀuĨİĨ	-14832
ȀİĨÑƳĨ	-14833
İuuȀŦįÁȶįÑĨ	-14834
ÅF	-14835
įĨÌ	-14836
ȶĨDȶİ	-14837
ÑǟįİÑȶȲƦĨ	-14838
ĨȀįĨİĨD	-14839
īĨÑÌȶĨÑ	-14840
ĨƋȲȀŦÌÑĨ	-14841
ƦƳįȶĨơÌƳĨ	-14842
īĨĆȶ	-14843
uīĨȲȶİ	-14844
ĨÑȀÁȶĨİį	-14845
ȶÁȀuuȀƳįĨ	-14846
ȶÁȍȲƳƦÁȶįÑ	-14847
uÑĨȍȲİ	-14848
ŦƳȀįŦĨƳį	-14849
ƳƋĨȍǟDȲȀ	-14850
ĀÔ	-14851
DǟƦĨ	-14852
İŦƳŦ	-14853
ųȶƋƳ	-14854
ƯȶÑȶ	-14855
ǟįƋƳ	-14856
ÑȲƦĨƋ	-14857
ĨƖǟȀȲ	-14858
ÑƳĨuȍİ	-14859
ÑƳįĨİį	-14860
ǐȎȭÌİÑĨİ	-14861
ȲȀĥȶĨÑÌȀuĨ	-14862
ÌȲȶ	-14863
ƅİơ	-14864
ȲİƦƳǟ	-14865
ĨÑÌȶįĨÑÌȶĨ	-14866
īĨȀÑŎuĨ	-14867
ĨİĨuƦuÑȶÁ	-14868
ȶįÑǐĨýÌȶĨ	-14869
ÑȀƳįuǐĨýÌȶĨ	-14870
uĨƳƋĨȶ	-14871
ȶȲȲĨİį	-14872
ĨơÌȶįĨİ	-14873
İÑȀƳįĨƳƋĨİĨ	-14874
ȀÑȀƳįĨÑÌİÑĨ	-14875
ȶĨuÌƳơįĨÑÌİÑĨ	-14876
ĨDȀÑ	-14877
ȀuǨĨ	-14878
ƳǟŦÌĨȍ	-14879
įȀįŦĨȶį	-14880
ĨƖȀƳ	-14881
ÑuĨȍȶ	-14882
ĨƳƋĨȍȶ	-14883
uīĨƦƳǟĨ	-14884
ÑǟįİÑȶȲƦ	-14885
ȶĨÑÌȶĨȍȶ	-14886
ĨơÌİÑĨƦƳǟ	-14887
ȶęİÁȀįȶuĨÑÌȶĨ	-14888
īĨơİ	-14889
ÁİįƦĨİį	-14890
įĨÑÌİÑĨ	-14891
ȐĆ	-14892
ȶįĨu	-14893
▁ƳȲȀ	-14894
ĨƋİuÌȀ	-14895
ƳÁİįÑȀ	-14896
ÁİÑȀƳįǐ	-14897
ƳȲƦu	-14898
ĨÑȶuÑȶ	-14899
ƳȲǟÑȀƳįĨƳƋĨÑÌȶĨ	-14900
uȶįȀ	-14901
İơĨİĨ	-14902
ȀĨRİįĥ	-14903
ȶuĨơƳǟȲ	-14904
ƤƳİuÑ	-14905
ÌİÑȶĨ	-14906
İuȀƳįĨ	-14907
uĨƳƋĨÑÌȶĨȍ	-14908
▁ȶȲ	-14909
ĨĆİÁ	-14910
ȶĨȀuĨİȲuƳ	-14911
ȶuĨDȶÑơȶȶį	-14912
ÐĨȍ	-14913
DȲƳơ	-14914
ĨƳįȶȐ	-14915
ȎȎȎȎȎ	-14916
ĨȭȀĥȀȍȶ	-14917
ǰǟȶuÑȀƳįĨ	-14918
ǐȎÏįȶĨƳƋĨÑÌȶĨ	-14919
ȲƳƳĥȀįŦĨİÑĨÑÌȶĨ	-14920
▁Ƴį	-14921
ȶuuİƦuĨ	-14922
ĨȀįİ	-14923
Ȏė	-14924
NįƋȶ	-14925
ÁĨįƳÑĨ	-14926
ĨÑÌȶĨȲȀ	-14927
ȀįŦĨuÌƳ	-14928
İįŦȶĨƳƋĨu	-14929
ȲȶuǐĨýÌȶĨ	-14930
ȶĨÑÌƳǟŦÌÑĨ	-14931
ĨÑÌȀįŦuĨÑÌİÑĨ	-14932
NįįƳ	-14933
ȀįĨƳÑÌȶ	-14934
İȲȀŦį	-14935
ÌȶȀŦÌÑ	-14936
ĨƋȶȶȲĨ	-14937
İȲȶĨİį	-14938
ȲƳuȀįŦĨ	-14939
ȀįŦuĨȀįĨÑÌȶĨ	-14940
ĥuĨȱ	-14941
ƋȲƳǟ	-14942
DİuȀu	-14943
İÑİĨȍ	-14944
ǗȀįƳ	-14945
İÑİuȶ	-14946
ȶȍÑÌĨƳƋĨ	-14947
RȀuÑ	-14948
uǐĨƖƦĨ	-14949
ȶuĨÑÌȶƦĨ	-14950
ĨÁȀuuȀƳįĨ	-14951
ĭī	-14952
Żƥȃ	-14953
ǐȎȭÌȀȲ	-14954
uÑİÑȶuĨ	-14955
İȍȍƳȀįÑ	-14956
ųȶŦȀuÑȶ	-14957
İȀuȶĨİơİ	-14958
ȲȀįŦĨÑÌȶĨ	-14959
ĨÑƳĨȸ	-14960
İȲȲƦĨÌİ	-14961
ȀįÌİDȀÑ	-14962
ĨÑƳĨİįƦĨ	-14963
ƳDİDȲƦĨÑÌȶĨ	-14964
ŻĭĨ	-14965
ÑĨuȍȶ	-14966
ȀȶÑƦǐȎ	-14967
ĨÁȀįǟÑȶĨ	-14968
ÁF	-14969
ȶĨƋǟȲȲ	-14970
ȀÁȍƳu	-14971
ȶuȶįÑĨİĨ	-14972
Ĩuǡǟ	-14973
ȀįĨȸÁȶ	-14974
ȶįÑuĨȱ	-14975
ĨȀuĨİDƳǟÑĨ	-14976
Nýư	-14977
ĨDȶĨÑ	-14978
ƳįÑȶęÑ	-14979
ĨÑİĥȀįŦĨ	-14980
ƳįŎÑĨĥįƳơ	-14981
ơÌƦ	-14982
ƳÁDİ	-14983
ȎuĨƳ	-14984
ƳÁĨÑÌȶĨuǟį	-14985
ȲȶĨƋ	-14986
ȎȸƋÑȶ	-14987
uȶȶÁuĨ	-14988
İįĨDȶĨu	-14989
ȍƳuȶĨƳƋĨÑÌȶĨ	-14990
uīĨÁİ	-14991
ǡǟȀƋȶ	-14992
ÌȀDȀÑƳ	-14993
ȶȲuȶơÌȶ	-14994
ĨȀįĨơİÑȶ	-14995
ÔİŦȶĨ	-14996
ƳƋĨÑÌȶ	-14997
ĨDƦĨƦƳǟ	-14998
ȶÑİȀȲuĨ	-14999
ĀȶÑ	-15000
ĨÛĨ	-15001
ƯȶįÁİ	-15002
▁ÑİÑǟ	-15003
uĨÑƳĨǟį	-15004
ĨŦȶÑÑȀįŦĨ	-15005
ĨÏǟÑ	-15006
Ĩȍǟį	-15007
ĨƤƳįƋȶ	-15008
ƳŦuĨİį	-15009
ȶĨƋİÁȀȲȀİ	-15010
ȲȀuÑȶįȶ	-15011
ȎǼ	-15012
īȎȐĨ	-15013
ȶuĨȸ	-15014
ȶĨȲȀÁȀÑȶ	-15015
ÁȶİįȀįŦƋǟȲ	-15016
ÁİĥȀįŦĨÑÌȶÁ	-15017
RȀŦÌÑĨ	-15018
ȶǐĨưƳǟĨ	-15019
ĨÑÌȶĨuȶİ	-15020
ĨİĨuÁİȲȲĨ	-15021
İuǟİȲ	-15022
İȲĨĥįƳơȲȶ	-15023
ŻėȐ	-15024
ǟuĨƳ	-15025
ƳŦįȀu	-15026
İÑȶĨuȶ	-15027
Żǐƥ	-15028
ƦȲȲİD	-15029
ȀįŦuĨÌİ	-15030
ȶuǟȲÑĨƋ	-15031
ÌȀÑĨÑÌȶĨ	-15032
ƦĨȶİ	-15033
ȀįŦĨįƳ	-15034
▁ȶȍÑǐĨ	-15035
İįĥȲȀįĨ	-15036
ƳŦįȀľȶĨÑÌȶĨ	-15037
ƳƳĥȀ	-15038
ȶuǐĨƖ	-15039
ÁİįƦĨu	-15040
ƋǟįĨİį	-15041
Żƥƥīƥƥƥ	-15042
ȶİuĨÑÌİÑĨ	-15043
ƳuÑȐȶƋƋȶ	-15044
İÑȀƳįuĨơȶ	-15045
ćȭ	-15046
ĨįƳǟį	-15047
ĨȀįįȶ	-15048
ƳǟÑÌĨ	-15049
ĨȀuĨİȲuƳ	-15050
ȶȶĨÁƳįÑÌ	-15051
ĨÁȶįÑİȲĨÌȶİȲÑÌ	-15052
Ȑơ	-15053
İöȶ	-15054
ȀŦįȀ	-15055
ƳǟŦÌƳǟÑĨÑÌȶĨơƳ	-15056
ƤÌİį	-15057
ȀİȲĨÑ	-15058
ȶȍÑȀƳįĨ	-15059
ĨÁȀȲȶuĨİ	-15060
ĨÏĀ	-15061
Ȁöǟ	-15062
ȀȶƋĨ	-15063
ȶĨơİȲ	-15064
ȶĨȀįuȶ	-15065
ȶįÑĨuȍȶ	-15066
ȀİǐĨýÌȶĨ	-15067
ĨÌÑÑȍuǨÛÛ	-15068
ȶęȍȲƳuȀƳį	-15069
ƳįȶĨƳƋĨÑÌȶĨơƳ	-15070
ÁİÑƳȲƳŦ	-15071
ȶȲȶİuȶĨ	-15072
ƦĨȍƳȍǟȲİ	-15073
ǟuȶĨÑÌȶÁ	-15074
ȶĨÁǟȲÑȀȍȲȶĨ	-15075
ÌŎuĨ	-15076
ÑƳĨȍȲİį	-15077
ĨÑƳĨÑȶuÑĨ	-15078
ÌƳȲȶ	-15079
ƳÁĨćİ	-15080
ǐȎÏįĨ	-15081
ÌȶuĨȀįĨ	-15082
ȶĨÑÌİÑĨȍ	-15083
ĨįȀ	-15084
ĨƯȶu	-15085
ĨȲȶİƋ	-15086
ĨÑȶȲȶu	-15087
İȲȀuÑĨ	-15088
ȀȲȲȀƳįuĨƳƋĨ	-15089
ĨNý	-15090
ƤȶȲuȀ	-15091
ȀÑȀľȶ	-15092
ĨDƦĨÁƳ	-15093
ȍƳÑİÑƳ	-15094
ĨƅȀuĨ	-15095
ÑƳĨuȶȶĨ	-15096
ȶÁƳÑȀƳįuĨ	-15097
ÑĨÌȶ	-15098
ƦȍÑƳ	-15099
ƳÁÁİ	-15100
ĨuÌƳȍ	-15101
NȲȲǟuÑ	-15102
ȀÁȍƳuȶ	-15103
İÁuĨƳƋĨ	-15104
İįĨȀįƋȶ	-15105
ĨÑƳĨȎ	-15106
ĨƦȀȶȲ	-15107
ƤƳįÑİ	-15108
ĨȍİŦȶu	-15109
ȶĨĥįƳơįĨİuĨ	-15110
ȶuǟȲÑȀįŦĨȀįĨ	-15111
ȶĨįƳÑĨƳįȲƦĨ	-15112
RƦ	-15113
ÌİȲȶ	-15114
ĨİĨȍȀ	-15115
ųƳƳuȶ	-15116
ÑİDȲƦĨ	-15117
İuĨÑƳĨ	-15118
ȲȶĨȀįĨ	-15119
İĨuÌƳ	-15120
ƦuȲȶę	-15121
ĨÁİȀįĨ	-15122
ĨǗȶÑÌƳ	-15123
İƦĨȀįĨÑÌȶĨ	-15124
ǐīĨİį	-15125
ĨȀįuȍȶ	-15126
ĨȲİÑȶĨ	-15127
ȀuĨİȲuƳĨ	-15128
ȀÑĨuÌƳǟȲ	-15129
ǟįİDȲȶĨÑƳĨ	-15130
ǨȎÅ	-15131
ĨơȀÑÌĨÑ	-15132
ȀįŦÑƳįĨ	-15133
ĨÌİDȀÑİÑ	-15134
ƦƳǟĨơȀȲȲĨ	-15135
ƳįuȀuÑĨƳƋĨ	-15136
ȸȲÑȶ	-15137
īĨİȲȲ	-15138
īĨȍǐĨ	-15139
ƳƋĨİȀ	-15140
ǗƳįÑİį	-15141
uÌƳơuĨÑÌȶĨ	-15142
RİÑȶ	-15143
ǐȎƤƳ	-15144
ȶĨȍȲİƦ	-15145
ÏĥȲİÌƳÁ	-15146
ȲİuÑȀįŦĨ	-15147
ȀÑȀȶuĨȀįĨÑÌȶĨ	-15148
ĨuȶÁ	-15149
NĨİÁĨ	-15150
ȶuĥÑƳȍ	-15151
IĨýÌȀuĨ	-15152
ǐȎýÌȶĨu	-15153
İȀȲİDȀȲȀÑƦĨ	-15154
ȶįĨD	-15155
▁Ȁćİ	-15156
įƳĨƳįȶĨ	-15157
ȶįÑuĨİÑĨ	-15158
ȶĨuİƋȶÑƦĨ	-15159
ȀÁİŦȶuĨƳƋĨ	-15160
ȶƦƳ	-15161
ĨįȶǟÑ	-15162
ȶȲȲȀȍ	-15163
ÌȶİÑȀįŦĨ	-15164
ȶÁȍȲİ	-15165
ȶÁȶįÑȀİ	-15166
ȎĀƳ	-15167
ǐĨýȶ	-15168
ĨƤƳįŦ	-15169
ȶĨǶƳǟį	-15170
ĨȍİȀįÑĨ	-15171
ĨÑÌȶĨŦȶįȶ	-15172
ƳÁÁƳįĨȀįĨ	-15173
įƳǟ	-15174
ƳȲİĨ	-15175
ȀįŦĨİȲȲ	-15176
▁ÑİÑȀƳį	-15177
ƳįÁȶįÑĨƋƳ	-15178
ǐĨǗƳuÑĨƳƋĨÑÌȶĨ	-15179
Ĩżƥżƥ	-15180
ÌİįŦȶĨƳƋĨ	-15181
ĨơȀÑÌĨİĨD	-15182
ĨýƦȍ	-15183
ĨÁİuu	-15184
ȶÁȶįÑuĨİ	-15185
ȶȍÑuĨƳƋĨ	-15186
ĨǗİįİŦȶÁȶįÑĨ	-15187
īĨDǟÑĨȀÑĨȀuĨ	-15188
ȀƳȶ	-15189
ĨȀuĨŦ	-15190
ȀÑĨÌİ	-15191
ȶuīĨƋƳ	-15192
ȶĨƳƋĨȀį	-15193
ȶĨȲȀÑÑȲȶĨ	-15194
ƖȀƳŦ	-15195
ÑȲȶīĨ	-15196
ȶǡǟȶuÑȶ	-15197
ȀİDȀȲȀÑƦĨ	-15198
ÌĨƋİ	-15199
ƯƯ	-15200
ǟÁƳ	-15201
Åȍ	-15202
ćȐ	-15203
ĀÏȸȸ	-15204
ĨŦȲƳ	-15205
ǟȀÑuīĨ	-15206
ȀȲĨƳƋĨ	-15207
uĨƳƋĨƦƳǟ	-15208
ȱżF	-15209
ÌƳƳȲĨƳ	-15210
İįÑuĨƳƋĨ	-15211
Żǐż	-15212
İǟuȀįŦĨÑÌȶĨ	-15213
Ȁİįİ	-15214
ÁİĥȶuĨİĨ	-15215
ÑuǐĨýÌȀuĨ	-15216
ĨȲǟį	-15217
įƳƳį	-15218
ĨÁƦuÑȶ	-15219
ǞǗR	-15220
ƳDuÑ	-15221
ÑÌȶĨİ	-15222
ĨÑƳĨİȍȍ	-15223
ȶĨȍİȀ	-15224
İDȀȶuĨ	-15225
ĨơȀÑÌĨÌȶ	-15226
ĨȀuĨÑÌȶĨȍ	-15227
ÌȀŦÌȲȀŦÌÑĨ	-15228
ǶƳȲ	-15229
ȀįĨÁƳ	-15230
ĨDȶĨuǟ	-15231
İȀįȀįŦīĨ	-15232
▁ȀǗİįƦĨ	-15233
ÁƳįǟÁȶįÑĨ	-15234
ƳŦĨ	-15235
ƳįÑƳĨ	-15236
ȀİįuĨİ	-15237
ĨȍȲİÑȶĨ	-15238
õFĨ	-15239
▁ȀÔİ	-15240
įİÁȶĨİį	-15241
ǟȍƳįĨÑÌȶĨ	-15242
ȶĨƯȀ	-15243
įȶơĨİ	-15244
uĨȶęȍȶ	-15245
ĨİįȀÁİ	-15246
ȶįŦȀįȶ	-15247
ĨuȶęǟİȲ	-15248
ĨȶęȍȲƳu	-15249
ƦĨuƳ	-15250
ƳĨȀÑ	-15251
īĨżƥŻȤ	-15252
ĥİīĨ	-15253
uǐȎȐĨȸ	-15254
ĨȶęȀuÑ	-15255
ȶĨįǟÁȶ	-15256
uĨƳƋĨơƳ	-15257
ƳĨN	-15258
Ȏƅȶ	-15259
ĨÁƳƳį	-15260
ĨơȀÑÌĨơİÑȶ	-15261
ĨÌƦŦȀȶį	-15262
ȶīĨÌƳơȶ	-15263
ĨÏȍ	-15264
ơİȀÑĨ	-15265
ƳÁĨDȶ	-15266
ÌĨȀįĨÑǟ	-15267
ȶǐȎý	-15268
ƦĨDǟÑĨ	-15269
ÑƳĨÁİĥȶĨ	-15270
ĨÑÌƳuȶĨİ	-15271
Ìȶȶȍ	-15272
ȶŦȶÑİ	-15273
ƳDƳÑuĨ	-15274
ÑơƳĨŦ	-15275
ȶȶľȶ	-15276
īĨİįĨİ	-15277
ĨÑÌȶĨuƳ	-15278
ǡǟİȲȀÑƦīĨ	-15279
Ïįȶ	-15280
ÑǐȎȸ	-15281
ȍƳÑÑȶ	-15282
ÌȀįŦĨu	-15283
ȲƳȐ	-15284
uĨŦȀ	-15285
▁ƳĨƋİ	-15286
ĨȸȲľÌȶȀÁȶ	-15287
īĨơÌƳĨơİuĨ	-15288
▁ĨÏǶ	-15289
İÑȀŦǟ	-15290
ĥįƳơuĨ	-15291
ƿĨŻ	-15292
ǰǟȀľ	-15293
uīĨȍȶ	-15294
ÑīĨȀį	-15295
ŦȶĨȍİ	-15296
ĨƯȶuȀŦį	-15297
ĨȀįĨýÌȶĨ	-15298
ƳįuȀį	-15299
ȀȶuĨİÑĨ	-15300
ĨųƳu	-15301
ÁİȀįuÑ	-15302
ȶĨuȲƳơ	-15303
ȲȶİįĨİį	-15304
ĀİÑȀƳįİȲĨĆȶƳŦ	-15305
ƅƦȍȶ	-15306
ƳŦȲƦ	-15307
ÑuǐĨNį	-15308
ȶįĨİuĨ	-15309
ȀŦÌÑuĨİ	-15310
ȶĨuÌİȍȶ	-15311
İÑȀįŦĨİĨ	-15312
ƳÁȍƳuȀÑȀƳįĨ	-15313
ȶĨȶuÑİDȲȀuÌȶ	-15314
İȲĨȍƳȍǟȲİÑȀƳį	-15315
ÁȐ	-15316
ȭȶİ	-15317
İįĨƳȲ	-15318
ȶĨİĨÑ	-15319
ǐĨȸDƳǟÑĨ	-15320
ȎNįĨÑÌȀuĨ	-15321
ȀuĨÁİ	-15322
ȶęÌȀDȀÑ	-15323
IĨȸ	-15324
ȶÁDƳ	-15325
ƦĨŦǟȀ	-15326
ŦȶÑĨİį	-15327
DǟƋƋȶ	-15328
ƋȀįȀÑȶĨ	-15329
ÌȶȲȍĨƳƋĨ	-15330
ȶuuīĨÑÌȶĨ	-15331
ƳįÁȶįÑİȲĨu	-15332
įİÑȀƳįİȲȲƦĨ	-15333
İįÑİŦȶuĨƳƋĨ	-15334
uīĨuÑǟ	-15335
ÌƳÁȶuĨ	-15336
ĨDƦĨİĨȍ	-15337
ĨÑƳĨİĨȍ	-15338
Ȳȶǟ	-15339
ȍƳuǟ	-15340
ȶįĨƤ	-15341
ĨȲȀÁȀÑĨ	-15342
ĨȀįuȀŦÌÑĨ	-15343
ǐĨƯƳĨįƳÑĨ	-15344
ȀƋĨÑÌȶƦĨİ	-15345
ǟuǐ	-15346
uȶȲȲ	-15347
ȀuȶİuȶĨȱ	-15348
ĨȀįÑƳĨƦƳǟ	-15349
ƋİÁȀȲƦĨİį	-15350
ȱý	-15351
FǐȎȸ	-15352
ĨÑƳȎ	-15353
▁ȀDȶ	-15354
ƳǟÑȲȶ	-15355
ȀįŦĨȀ	-15356
ȀİįĨƳ	-15357
ĨİuĨİįĨİ	-15358
ĨȀįĨİįĨİ	-15359
ÑİȀįÁȶįÑĨ	-15360
ÅƤ	-15361
Ʀįȶ	-15362
ȶįĨİÑĨ	-15363
ȶĨuÑİÑȀƳį	-15364
ĨĆƳȲ	-15365
ȶuǐĨǶ	-15366
ĨÁǟȲÑȀȐ	-15367
ƳȲuĨ	-15368
ĨİĨuƳ	-15369
ĨȀuĨuÑȀȲȲ	-15370
ȶȍƳuȀÑȀƳį	-15371
ƋƳuuȀȲĨƋǟȶȲ	-15372
ĨȲİĥ	-15373
uǟÁÁİ	-15374
ÑȀȲȲȶ	-15375
ÑȀÁȶĨȀuĨ	-15376
īĨǗȀ	-15377
ǗİÑÑȶ	-15378
ȶuĨÌȶ	-15379
ǶȀįȲİį	-15380
ȶĨȲȶƋÑĨ	-15381
ÑƳÑİȲȲƦĨ	-15382
ȀİȲȀľİÑȀƳį	-15383
ĨÑİȍ	-15384
ȎȐĨć	-15385
ƋȲİÑĨ	-15386
ƖȀƳȲƳŦȀ	-15387
ǟȲȀİ	-15388
ÑƳĨuƳ	-15389
ȀÑĨÁİƦĨ	-15390
ĀƳÑĨƳįȲƦĨ	-15391
ĥĨȶ	-15392
ÑƋƳȲȀ	-15393
ȶȲȲƦĨ	-15394
ĨuÑȶÁĨ	-15395
ĨİÁƳǟįÑĨ	-15396
ƳȲƳŦƦīĨİį	-15397
İȲĨİįİȲƦuȀuĨ	-15398
ĨȲD	-15399
ÑĨÑƳ	-15400
ĨĀİÑȀ	-15401
ÔȶƳȍȲȶ	-15402
ĀİÑȀƳį	-15403
ȶĨİȍȍȶİ	-15404
ǟįǟuǟİȲĨ	-15405
ĨuİÑȶȲȲȀÑȶĨ	-15406
ĨǶȀȲ	-15407
▁Ìİȍ	-15408
İȲĨDƳ	-15409
▁ȀȭÌƦĨ	-15410
ĨÑƳĨuÑƳȍ	-15411
ÌĨƳƋĨÑÌȶuȶĨ	-15412
įİÑȀƳįİȲĨȍİ	-15413
ȶīĨơ	-15414
ÌƳÑƳį	-15415
ǐȎƤƳį	-15416
ÁİįƦĨİ	-15417
ƳÌįuƳįĨ	-15418
ƳơįĨȀįĨ	-15419
ƳįuÑȶȲȲİ	-15420
ĨuǟȀÑİDȲȶĨ	-15421
uǟuÑİȀįİDȲȶĨ	-15422
uȎNį	-15423
NŎÁ	-15424
ÔİȀį	-15425
ȶuĨİȲȲ	-15426
ƳįÑƳȲƳŦ	-15427
ȶĨÑİĥȶįĨ	-15428
ĨÑÌȶĨİįuơȶ	-15429
ÑÌƳǟŦÌÑĨÑƳĨ	-15430
ȎĨȍ	-15431
ȐĨƳ	-15432
ĀȶÑĨ	-15433
İŦİu	-15434
ȀƳįȀ	-15435
İįuĨÌİ	-15436
ƳȲƳŦƦǐȎ	-15437
İÑȀƳįĨơȀÑÌĨÑÌȶĨ	-15438
ĨȱǗ	-15439
ȎĨơÌȀ	-15440
ȶįȀįŦ	-15441
ȶİÑȀƳįĨ	-15442
ȲȶĨÑÌİÑĨ	-15443
õƥĨÁȀįǟÑȶ	-15444
ÌƳįȶ	-15445
ƳȲİÑȶ	-15446
ĨƳįĨȶİ	-15447
ǐȎĀƳÑȶ	-15448
įİÑȀƳįơȀ	-15449
ĨİDƳǟÑĨİĨ	-15450
İȍǟ	-15451
▁ƅȸ	-15452
İƦĨȍ	-15453
▁ȀƯȀ	-15454
ĨȲİuÑĨƦȶİ	-15455
İĨƳƋĨÑÌȶĨ	-15456
ĨȶȐ	-15457
ȀįŦĨÑÌȶĨȶ	-15458
ýǟÑƳ	-15459
ĨuÑǟD	-15460
įȀįŦĨÁƳ	-15461
ĨơȶȶĥȲƦĨ	-15462
ĨÑƳĨÑÌȶĨŦ	-15463
uǼ	-15464
İuȍȀ	-15465
İĨơƳ	-15466
İuuǟ	-15467
ȶįĨơƳ	-15468
ȶĨuȶȲƋȐ	-15469
ÌƳơĨƦƳǟĨ	-15470
ǐĨýÌİÑĨȀuĨ	-15471
ƦĨơȀÑÌĨÑÌȶĨ	-15472
ȍȶƳȍȲȶĨơȀÑÌ	-15473
ȀF	-15474
ĨÔųÏ	-15475
İŦȶuīĨ	-15476
ȲȶuĨȀįĨ	-15477
Ȳȶȍ	-15478
ĨÁȀÑȀŦ	-15479
Ôƅ	-15480
ȶȐŦ	-15481
ĨƤƳȲ	-15482
uǟuȍȶ	-15483
ȶȍȶÑȀÑȀ	-15484
▁ƳǟÑÌĨřƳ	-15485
ĨÌƳu	-15486
İÑȀÑǟ	-15487
İįÑĨİ	-15488
İuÑÌÁİ	-15489
ƳȲȀuÌȶ	-15490
ȶȲƦĨȀį	-15491
ĨȍİȀįÑȀįŦĨ	-15492
ĨȶǡǟȀȍÁȶįÑ	-15493
ȀÑȀȶuĨƳƋĨÑÌȶĨ	-15494
ĨƦƳǟįŦĨȍȶƳȍȲȶĨ	-15495
ĨÑÌȶĨįİÑǟ	-15496
īĨȍǟDȲȀuÌȶ	-15497
ÑÌȎ	-15498
ǐȎƤİ	-15499
įƳÁȀį	-15500
ÑÌȀuĨƦȶİ	-15501
ƳÁĨÑÌȶĨÑ	-15502
ĨuƳÁȶĨƳÑÌȶ	-15503
īĨȸį	-15504
İȲȍÌİ	-15505
▁İÁȍȲȶĨ	-15506
ĨȶȲuȶơÌȶ	-15507
ÌįƳȲƳŦƦĨÑÌİÑĨ	-15508
ǐȭ	-15509
ǐĨƖǟÑīĨ	-15510
ƳȲǟÁDȀİĨtįȀ	-15511
ƳȲĨȍ	-15512
ÌĨDƦĨ	-15513
ƤÌİįŦȶ	-15514
ŻȤȹȤ	-15515
ǗȶįÑİȲĨ	-15516
ĨİuĨơȶȲȲĨİuĨÑÌȶĨ	-15517
żƥȃ	-15518
ȶuȎȸ	-15519
ǐȎƤÌȶ	-15520
ȀÑĨȀįĨ	-15521
ÁƳDȀȲȶĨ	-15522
ȶĨuȶįuƳ	-15523
ȶįÑȀİÑȶ	-15524
uǐĨȭÌȀȲȶĨ	-15525
ĨƖƳİ	-15526
İȶȲȀ	-15527
ȎȎȎȎȎȎȎ	-15528
uĨÑƳĨŦȶÑĨ	-15529
İuuȶuuÁȶįÑ	-15530
ĨǗƖ	-15531
īĨDİ	-15532
İÁİȀ	-15533
ȶĨŻƥ	-15534
ĨDȲƳơ	-15535
ĨȀįĨȸǟuÑ	-15536
ȀįŦĨÑÌȶÁĨÑƳĨ	-15537
İȍƦīĨ	-15538
ŦÁȶįÑ	-15539
ȶÁȀǟÁ	-15540
ǟȲȶuĨİ	-15541
ȶĨįƳÑȶ	-15542
uĨƳƋĨƳÑÌȶ	-15543
DǟÁ	-15544
ȶĨơƳƳ	-15545
uȍƳĥȶį	-15546
ǟuȶuĨİĨ	-15547
ÌȶȀ	-15548
ĨĆȶį	-15549
ǐFīĨ	-15550
ƦĨƋȶơ	-15551
uĨÌȶȲȍ	-15552
ȀįȶĨƋƳ	-15553
ĨƯƳơįȲƳİ	-15554
ȶȶĨÑÌİÑĨ	-15555
ÑÌȀįĥȀįŦĨ	-15556
īĨÑÌİÑĨȀuĨ	-15557
įĨơƳ	-15558
ƳÁĨǗİ	-15559
ÁĨơİÑȶ	-15560
ǶȀįİȲȲƦīĨ	-15561
ȶĨÑÌȶĨįǟÁDȶ	-15562
ȶȲȀİ	-15563
Dİįįȶ	-15564
▁ÑƦ	-15565
ĨƖȲǟ	-15566
ĨuǟDȐ	-15567
ȶįÑǐĨ	-15568
uīĨÁƳ	-15569
ǗǟȲÑȀ	-15570
ȀƳǟuĨuÑǟ	-15571
ƳÁȍȲȶęĨİį	-15572
ƦƳĨ	-15573
ƳuÑĨİį	-15574
ȎȎȎȎȎȎĨ	-15575
ȶuÌĨơİÑȶ	-15576
ȶĨĥįƳơȲȶ	-15577
ǐĨNįĨuƳÁȶĨ	-15578
ĨİįİȲƦuȀuĨƳƋĨ	-15579
Ŧį	-15580
ÁİŦȶ	-15581
Ĩơİį	-15582
ȎuĨȶ	-15583
uÑĨȍȶ	-15584
ŻżÑÌĨ	-15585
İȲƦuȀuīĨ	-15586
ȀÑȀƳįuĨƋƳ	-15587
ćĀƤć	-15588
İȀȲİDȲȶīĨ	-15589
ƤȲ	-15590
ųȶŦ	-15591
ÑǟȀÑȀ	-15592
ĨÑƳĨÔ	-15593
ĨÌǟÁİįuĨ	-15594
ȶuǟȲÑuīĨ	-15595
ȶȲƳȍĨÑÌȶĨ	-15596
ȀuƳįīĨ	-15597
ĨÑÌȶƦĨơƳǟȲ	-15598
ǟÑÌĨ	-15599
ĨȀįĨƯ	-15600
ÑĨuÌƳơ	-15601
ĨDȶĨȀį	-15602
ĨİįĨȶę	-15603
FȎýÌȀuĨ	-15604
İȲĨÑÌȶƳ	-15605
uÌȶĨơİuĨ	-15606
ÌĨȸ	-15607
ǐĨÏD	-15608
ƳƋǟȶȲ	-15609
ƳǟuĨȍ	-15610
ȶĨȲȀįĥȶ	-15611
ȶǡǟȀȲȀD	-15612
īĨİDƳǟÑĨ	-15613
uǐȎɁ	-15614
ƳÁĨƯ	-15615
ǐȎƤǟ	-15616
İȲĨƳÑÌȶ	-15617
ȶįȀįuǟȲİ	-15618
ćǐĨ	-15619
İȲǐ	-15620
İȲȀĥȶ	-15621
İŦȶuĨİį	-15622
ÑƦȍȶĨƳƋĨu	-15623
ÌƳƳĥ	-15624
ĨĥȀÑ	-15625
ÑĨİŦİȀįuÑĨ	-15626
Ĩtuȶ	-15627
ȲȶƋÑ	-15628
ǟȍĨÑƳĨÑÌȶĨ	-15629
ĨÑÌƳuȶĨÑÌİÑĨ	-15630
ƅƳÁ	-15631
ĨİĨÑÌ	-15632
ơİuÌȶ	-15633
ȀȶuĨƳƋĨȍ	-15634
ƳÁȀįİįÑȲƦĨ	-15635
ȶĨÑÌȶĨƳȍȍƳ	-15636
ĨİDƳǟÑĨÑÌȶȀ	-15637
ƳÁȍƳįȶįÑĨƳƋĨ	-15638
ƦuÑİȲȲ	-15639
ÁuĨÑÌİÑĨ	-15640
ƳDȲȶÁĨȀuĨ	-15641
ȶŦȀįįȀįŦĨ	-15642
İơȀįŦ	-15643
ƳȲȀƋȶ	-15644
▁ÑİƦĨ	-15645
▁Ñȶơİ	-15646
ĨǟȍƳįĨÑÌȶĨ	-15647
ƳÁÁǟįȀÑƦĨƳƋĨ	-15648
uīĨuȶ	-15649
ĀİÁȶĨ	-15650
ĨÁǟįȀ	-15651
ȶĨƳƋĨȸ	-15652
ĥȀįŦĨȀį	-15653
ÑȀƳįuĨÌİ	-15654
uĨÑÌȶÁ	-15655
ƋƳƳÑDİȲȲ	-15656
ÐĨÔ	-15657
uĨƋȀ	-15658
ĨȶÁD	-15659
ƦƳǟŎȲȲ	-15660
ǐȎƤÌȀȲ	-15661
ÑȲƦĨÑÌȶĨ	-15662
ĨĆƳƳŦȲȶĨ	-15663
ĨǗİȲ	-15664
ȭÌȀÑ	-15665
uÑƳįĨ	-15666
ȲȶuuĨİ	-15667
ĨDƦĨÑÌȶĨİ	-15668
ȶÁȶįÑuĨƳƋĨÑÌȶĨ	-15669
İĨuǟD	-15670
İįĨȸƋ	-15671
ÑƳĨŦȶÑĨ	-15672
ȶȲȀÁȀįİÑȶ	-15673
uÑİÑȀ	-15674
[...]
